{
  "version": "1.0",
  "truncation": null,
  "padding": null,
  "added_tokens": [],
  "normalizer": null,
  "pre_tokenizer": {
    "type": "Whitespace"
  },
  "post_processor": null,
  "decoder": {
    "type": "WordPiece",
    "prefix": "##",
    "cleanup": true
  },
  "model": {
    "type": "WordPiece",
    "unk_token": "[UNK]",
    "continuing_subword_prefix": "##",
    "max_input_chars_per_word": 100,
    "vocab": {
      "##00": 0,
      "##0s": 1,
      "##10": 2,
      "##12": 3,
      "##20": 4,
      "##30": 5,
      "##aa": 6,
      "##ab": 7,
      "##aba": 8,
      "##abad": 9,
      "##abe": 10,
      "##abet": 11,
      "##abeth": 12,
      "##abi": 13,
      "##abil": 14,
      "##abilities": 15,
      "##ability": 16,
      "##abis": 17,
      "##abit": 18,
      "##abl": 19,
      "##able": 20,
      "##abled": 21,
      "##ables": 22,
      "##abling": 23,
      "##ably": 24,
      "##abor": 25,
      "##aboration": 26,
      "##about": 27,
      "##abs": 28,
      "##abul": 29,
      "##abulary": 30,
      "##abwe": 31,
      "##ac": 32,
      "##aca": 33,
      "##acc": 34,
      "##acco": 35,
      "##ace": 36,
      "##aceae": 37,
      "##aceans": 38,
      "##aced": 39,
      "##acement": 40,
      "##acent": 41,
      "##aceous": 42,
      "##aces": 43,
      "##ach": 44,
      "##ache": 45,
      "##ached": 46,
      "##acher": 47,
      "##aches": 48,
      "##achi": 49,
      "##achian": 50,
      "##aching": 51,
      "##achlan": 52,
      "##achment": 53,
      "##acht": 54,
      "##achus": 55,
      "##acing": 56,
      "##acious": 57,
      "##acity": 58,
      "##ack": 59,
      "##ackdown": 60,
      "##acked": 61,
      "##acker": 62,
      "##acks": 63,
      "##acle": 64,
      "##acles": 65,
      "##aco": 66,
      "##acon": 67,
      "##acs": 68,
      "##act": 69,
      "##acter": 70,
      "##actic": 71,
      "##active": 72,
      "##acular": 73,
      "##acy": 74,
      "##ad": 75,
      "##ada": 76,
      "##adal": 77,
      "##adder": 78,
      "##ade": 79,
      "##aded": 80,
      "##adel": 81,
      "##adelph": 82,
      "##ader": 83,
      "##aders": 84,
      "##ades": 85,
      "##adesh": 86,
      "##adi": 87,
      "##adian": 88,
      "##adic": 89,
      "##adier": 90,
      "##ading": 91,
      "##adium": 92,
      "##ado": 93,
      "##ador": 94,
      "##ados": 95,
      "##adow": 96,
      "##adows": 97,
      "##ads": 98,
      "##adt": 99,
      "##adv": 100,
      "##ady": 101,
      "##ae": 102,
      "##ael": 103,
      "##af": 104,
      "##afe": 105,
      "##aff": 106,
      "##affe": 107,
      "##afi": 108,
      "##after": 109,
      "##ag": 110,
      "##aga": 111,
      "##agan": 112,
      "##agara": 113,
      "##age": 114,
      "##aged": 115,
      "##agement": 116,
      "##agements": 117,
      "##agen": 118,
      "##ager": 119,
      "##agers": 120,
      "##ages": 121,
      "##agger": 122,
      "##agh": 123,
      "##agher": 124,
      "##aghy": 125,
      "##agi": 126,
      "##agic": 127,
      "##aging": 128,
      "##agn": 129,
      "##agne": 130,
      "##agnetic": 131,
      "##ago": 132,
      "##agon": 133,
      "##agonal": 134,
      "##agonist": 135,
      "##agonists": 136,
      "##agoon": 137,
      "##agrap": 138,
      "##agre": 139,
      "##agu": 140,
      "##ague": 141,
      "##agues": 142,
      "##ah": 143,
      "##aha": 144,
      "##aham": 145,
      "##ahan": 146,
      "##ahl": 147,
      "##aho": 148,
      "##ahon": 149,
      "##ahu": 150,
      "##ai": 151,
      "##aic": 152,
      "##aid": 153,
      "##aign": 154,
      "##ail": 155,
      "##ailable": 156,
      "##ailed": 157,
      "##ailing": 158,
      "##ails": 159,
      "##aim": 160,
      "##ain": 161,
      "##aine": 162,
      "##ained": 163,
      "##aining": 164,
      "##ains": 165,
      "##aint": 166,
      "##ainted": 167,
      "##aints": 168,
      "##air": 169,
      "##aird": 170,
      "##aire": 171,
      "##airo": 172,
      "##airs": 173,
      "##ais": 174,
      "##aj": 175,
      "##ajo": 176,
      "##ak": 177,
      "##aka": 178,
      "##ake": 179,
      "##aked": 180,
      "##aken": 181,
      "##aker": 182,
      "##akers": 183,
      "##akes": 184,
      "##akh": 185,
      "##aki": 186,
      "##aking": 187,
      "##aks": 188,
      "##aku": 189,
      "##al": 190,
      "##ala": 191,
      "##alan": 192,
      "##ald": 193,
      "##aldi": 194,
      "##ale": 195,
      "##aled": 196,
      "##ales": 197,
      "##alez": 198,
      "##alf": 199,
      "##alg": 200,
      "##ali": 201,
      "##alia": 202,
      "##alid": 203,
      "##alie": 204,
      "##aline": 205,
      "##aling": 206,
      "##ality": 207,
      "##alk": 208,
      "##all": 209,
      "##alled": 210,
      "##alling": 211,
      "##ally": 212,
      "##alm": 213,
      "##alo": 214,
      "##als": 215,
      "##alt": 216,
      "##alth": 217,
      "##alty": 218,
      "##alu": 219,
      "##alus": 220,
      "##aly": 221,
      "##alysis": 222,
      "##am": 223,
      "##ama": 224,
      "##aman": 225,
      "##amas": 226,
      "##amation": 227,
      "##amb": 228,
      "##ame": 229,
      "##amed": 230,
      "##ament": 231,
      "##amental": 232,
      "##aments": 233,
      "##amer": 234,
      "##ames": 235,
      "##amese": 236,
      "##ami": 237,
      "##amily": 238,
      "##amin": 239,
      "##amination": 240,
      "##amine": 241,
      "##aming": 242,
      "##amm": 243,
      "##amorph": 244,
      "##amoto": 245,
      "##amous": 246,
      "##amp": 247,
      "##ampa": 248,
      "##amped": 249,
      "##ampton": 250,
      "##ams": 251,
      "##amy": 252,
      "##an": 253,
      "##ana": 254,
      "##anas": 255,
      "##anc": 256,
      "##ance": 257,
      "##anced": 258,
      "##ancement": 259,
      "##ances": 260,
      "##anch": 261,
      "##anche": 262,
      "##ancing": 263,
      "##ancy": 264,
      "##and": 265,
      "##anda": 266,
      "##anded": 267,
      "##ander": 268,
      "##andez": 269,
      "##ando": 270,
      "##andon": 271,
      "##andra": 272,
      "##ands": 273,
      "##andy": 274,
      "##ane": 275,
      "##aneous": 276,
      "##anes": 277,
      "##ang": 278,
      "##anga": 279,
      "##ange": 280,
      "##angel": 281,
      "##anger": 282,
      "##ango": 283,
      "##ani": 284,
      "##ania": 285,
      "##anian": 286,
      "##anic": 287,
      "##anim": 288,
      "##anish": 289,
      "##anium": 290,
      "##ank": 291,
      "##anka": 292,
      "##anking": 293,
      "##ann": 294,
      "##anna": 295,
      "##annah": 296,
      "##anne": 297,
      "##anned": 298,
      "##anner": 299,
      "##anners": 300,
      "##anni": 301,
      "##annon": 302,
      "##anny": 303,
      "##ano": 304,
      "##anor": 305,
      "##ans": 306,
      "##ansas": 307,
      "##ant": 308,
      "##anta": 309,
      "##ante": 310,
      "##anted": 311,
      "##anth": 312,
      "##anthrop": 313,
      "##anti": 314,
      "##antic": 315,
      "##antly": 316,
      "##anto": 317,
      "##anton": 318,
      "##ants": 319,
      "##anu": 320,
      "##anus": 321,
      "##any": 322,
      "##anz": 323,
      "##ao": 324,
      "##ap": 325,
      "##apa": 326,
      "##ape": 327,
      "##apeake": 328,
      "##aped": 329,
      "##aper": 330,
      "##apers": 331,
      "##apes": 332,
      "##apest": 333,
      "##aph": 334,
      "##aping": 335,
      "##apolis": 336,
      "##app": 337,
      "##appa": 338,
      "##apped": 339,
      "##appers": 340,
      "##apping": 341,
      "##appropri": 342,
      "##appy": 343,
      "##aps": 344,
      "##apse": 345,
      "##apt": 346,
      "##apy": 347,
      "##ar": 348,
      "##ara": 349,
      "##arant": 350,
      "##aras": 351,
      "##arc": 352,
      "##arch": 353,
      "##arck": 354,
      "##ard": 355,
      "##arded": 356,
      "##ardi": 357,
      "##ardo": 358,
      "##ards": 359,
      "##ardy": 360,
      "##are": 361,
      "##ared": 362,
      "##aren": 363,
      "##areness": 364,
      "##ares": 365,
      "##arez": 366,
      "##arf": 367,
      "##ari": 368,
      "##aria": 369,
      "##arian": 370,
      "##arians": 371,
      "##aries": 372,
      "##arily": 373,
      "##arin": 374,
      "##aring": 375,
      "##ario": 376,
      "##arity": 377,
      "##arium": 378,
      "##arius": 379,
      "##ark": 380,
      "##arked": 381,
      "##arm": 382,
      "##armed": 383,
      "##arms": 384,
      "##arn": 385,
      "##aro": 386,
      "##arr": 387,
      "##arre": 388,
      "##ars": 389,
      "##art": 390,
      "##arta": 391,
      "##arte": 392,
      "##arth": 393,
      "##artney": 394,
      "##arts": 395,
      "##aru": 396,
      "##arus": 397,
      "##ary": 398,
      "##as": 399,
      "##asa": 400,
      "##asaki": 401,
      "##asc": 402,
      "##ascar": 403,
      "##ase": 404,
      "##ased": 405,
      "##aser": 406,
      "##ases": 407,
      "##ash": 408,
      "##asha": 409,
      "##ashed": 410,
      "##ashes": 411,
      "##ashi": 412,
      "##ashing": 413,
      "##ashire": 414,
      "##asi": 415,
      "##asia": 416,
      "##asian": 417,
      "##asing": 418,
      "##asion": 419,
      "##asis": 420,
      "##ask": 421,
      "##aska": 422,
      "##asm": 423,
      "##ason": 424,
      "##asp": 425,
      "##ass": 426,
      "##asse": 427,
      "##assed": 428,
      "##asses": 429,
      "##assic": 430,
      "##assing": 431,
      "##assium": 432,
      "##assment": 433,
      "##ast": 434,
      "##asted": 435,
      "##aster": 436,
      "##asters": 437,
      "##astic": 438,
      "##astically": 439,
      "##astics": 440,
      "##aston": 441,
      "##asts": 442,
      "##asty": 443,
      "##asy": 444,
      "##at": 445,
      "##ata": 446,
      "##ataka": 447,
      "##atan": 448,
      "##atar": 449,
      "##atas": 450,
      "##atch": 451,
      "##atches": 452,
      "##ate": 453,
      "##ated": 454,
      "##ateg": 455,
      "##ately": 456,
      "##atem": 457,
      "##ater": 458,
      "##ateral": 459,
      "##atern": 460,
      "##aternal": 461,
      "##aters": 462,
      "##ates": 463,
      "##atever": 464,
      "##ath": 465,
      "##atha": 466,
      "##atham": 467,
      "##athan": 468,
      "##athed": 469,
      "##ather": 470,
      "##atherine": 471,
      "##athy": 472,
      "##ati": 473,
      "##atic": 474,
      "##atically": 475,
      "##atics": 476,
      "##atile": 477,
      "##atin": 478,
      "##ating": 479,
      "##ation": 480,
      "##ational": 481,
      "##ationally": 482,
      "##ations": 483,
      "##atis": 484,
      "##atitis": 485,
      "##ative": 486,
      "##atively": 487,
      "##atives": 488,
      "##atl": 489,
      "##ato": 490,
      "##atoes": 491,
      "##atops": 492,
      "##ator": 493,
      "##atorial": 494,
      "##atories": 495,
      "##ators": 496,
      "##atory": 497,
      "##atra": 498,
      "##atri": 499,
      "##atropical": 500,
      "##ats": 501,
      "##atsu": 502,
      "##att": 503,
      "##atta": 504,
      "##attan": 505,
      "##attle": 506,
      "##atty": 507,
      "##atum": 508,
      "##atural": 509,
      "##ature": 510,
      "##atures": 511,
      "##atus": 512,
      "##atz": 513,
      "##au": 514,
      "##auc": 515,
      "##aud": 516,
      "##auer": 517,
      "##aug": 518,
      "##augh": 519,
      "##aught": 520,
      "##aughter": 521,
      "##aukee": 522,
      "##aul": 523,
      "##ault": 524,
      "##aun": 525,
      "##aur": 526,
      "##auri": 527,
      "##aurus": 528,
      "##aus": 529,
      "##ause": 530,
      "##aut": 531,
      "##autical": 532,
      "##aux": 533,
      "##av": 534,
      "##ava": 535,
      "##avan": 536,
      "##ave": 537,
      "##aved": 538,
      "##avel": 539,
      "##aven": 540,
      "##aver": 541,
      "##avers": 542,
      "##avery": 543,
      "##aves": 544,
      "##avi": 545,
      "##avia": 546,
      "##avian": 547,
      "##avier": 548,
      "##aving": 549,
      "##avo": 550,
      "##avy": 551,
      "##aw": 552,
      "##awa": 553,
      "##awak": 554,
      "##aware": 555,
      "##away": 556,
      "##awl": 557,
      "##aws": 558,
      "##ax": 559,
      "##ay": 560,
      "##aya": 561,
      "##ayan": 562,
      "##ayed": 563,
      "##ayer": 564,
      "##ayette": 565,
      "##ays": 566,
      "##az": 567,
      "##aza": 568,
      "##aze": 569,
      "##azz": 570,
      "##ba": 571,
      "##bach": 572,
      "##back": 573,
      "##backs": 574,
      "##bage": 575,
      "##bal": 576,
      "##ball": 577,
      "##balt": 578,
      "##ban": 579,
      "##band": 580,
      "##bands": 581,
      "##bane": 582,
      "##bank": 583,
      "##banks": 584,
      "##bar": 585,
      "##bard": 586,
      "##base": 587,
      "##bath": 588,
      "##bc": 589,
      "##be": 590,
      "##bean": 591,
      "##beat": 592,
      "##bec": 593,
      "##beck": 594,
      "##bed": 595,
      "##bel": 596,
      "##bell": 597,
      "##bels": 598,
      "##ber": 599,
      "##berg": 600,
      "##berger": 601,
      "##berht": 602,
      "##bern": 603,
      "##berra": 604,
      "##berry": 605,
      "##bers": 606,
      "##bert": 607,
      "##berts": 608,
      "##bery": 609,
      "##bes": 610,
      "##bi": 611,
      "##bin": 612,
      "##bing": 613,
      "##bird": 614,
      "##birds": 615,
      "##bis": 616,
      "##bit": 617,
      "##bits": 618,
      "##bl": 619,
      "##ble": 620,
      "##bled": 621,
      "##bles": 622,
      "##blin": 623,
      "##bling": 624,
      "##bn": 625,
      "##bo": 626,
      "##board": 627,
      "##boards": 628,
      "##boat": 629,
      "##boats": 630,
      "##bob": 631,
      "##body": 632,
      "##bon": 633,
      "##bone": 634,
      "##bons": 635,
      "##boo": 636,
      "##book": 637,
      "##books": 638,
      "##bor": 639,
      "##borg": 640,
      "##born": 641,
      "##borne": 642,
      "##boro": 643,
      "##borough": 644,
      "##bors": 645,
      "##bot": 646,
      "##bound": 647,
      "##bour": 648,
      "##bourg": 649,
      "##bourne": 650,
      "##bow": 651,
      "##box": 652,
      "##boy": 653,
      "##boys": 654,
      "##br": 655,
      "##bra": 656,
      "##bral": 657,
      "##brand": 658,
      "##brates": 659,
      "##bre": 660,
      "##break": 661,
      "##bred": 662,
      "##bridge": 663,
      "##brit": 664,
      "##bro": 665,
      "##brook": 666,
      "##brough": 667,
      "##bru": 668,
      "##bs": 669,
      "##bsd": 670,
      "##bt": 671,
      "##bu": 672,
      "##buck": 673,
      "##bul": 674,
      "##bur": 675,
      "##burg": 676,
      "##burgh": 677,
      "##burn": 678,
      "##bury": 679,
      "##bus": 680,
      "##by": 681,
      "##bye": 682,
      "##bys": 683,
      "##ca": 684,
      "##caa": 685,
      "##cad": 686,
      "##can": 687,
      "##canal": 688,
      "##car": 689,
      "##care": 690,
      "##case": 691,
      "##cast": 692,
      "##castle": 693,
      "##cc": 694,
      "##ccess": 695,
      "##cci": 696,
      "##ce": 697,
      "##ced": 698,
      "##cedented": 699,
      "##ceed": 700,
      "##ceeded": 701,
      "##ceived": 702,
      "##cel": 703,
      "##celand": 704,
      "##cement": 705,
      "##cements": 706,
      "##cence": 707,
      "##cend": 708,
      "##cent": 709,
      "##cept": 710,
      "##ception": 711,
      "##cer": 712,
      "##ces": 713,
      "##cess": 714,
      "##cester": 715,
      "##cestershire": 716,
      "##ch": 717,
      "##cha": 718,
      "##chair": 719,
      "##champ": 720,
      "##chan": 721,
      "##chang": 722,
      "##change": 723,
      "##changed": 724,
      "##changes": 725,
      "##char": 726,
      "##che": 727,
      "##ched": 728,
      "##chel": 729,
      "##chell": 730,
      "##chen": 731,
      "##cher": 732,
      "##chers": 733,
      "##ches": 734,
      "##chest": 735,
      "##chester": 736,
      "##chet": 737,
      "##chewan": 738,
      "##chi": 739,
      "##child": 740,
      "##children": 741,
      "##ching": 742,
      "##chlor": 743,
      "##cht": 744,
      "##church": 745,
      "##chw": 746,
      "##chy": 747,
      "##ci": 748,
      "##cia": 749,
      "##cil": 750,
      "##cill": 751,
      "##cing": 752,
      "##ck": 753,
      "##cl": 754,
      "##classic": 755,
      "##clc": 756,
      "##cle": 757,
      "##cles": 758,
      "##cliff": 759,
      "##cliffe": 760,
      "##closed": 761,
      "##co": 762,
      "##cock": 763,
      "##col": 764,
      "##colm": 765,
      "##com": 766,
      "##comb": 767,
      "##come": 768,
      "##coming": 769,
      "##con": 770,
      "##cony": 771,
      "##cop": 772,
      "##cos": 773,
      "##cote": 774,
      "##cott": 775,
      "##court": 776,
      "##cr": 777,
      "##craft": 778,
      "##cs": 779,
      "##ct": 780,
      "##ctic": 781,
      "##ctica": 782,
      "##ction": 783,
      "##ctions": 784,
      "##cul": 785,
      "##cy": 786,
      "##da": 787,
      "##dal": 788,
      "##dale": 789,
      "##dam": 790,
      "##dan": 791,
      "##day": 792,
      "##days": 793,
      "##de": 794,
      "##ded": 795,
      "##den": 796,
      "##der": 797,
      "##ders": 798,
      "##di": 799,
      "##die": 800,
      "##din": 801,
      "##ding": 802,
      "##dings": 803,
      "##dington": 804,
      "##dle": 805,
      "##do": 806,
      "##dock": 807,
      "##dom": 808,
      "##don": 809,
      "##donald": 810,
      "##dot": 811,
      "##down": 812,
      "##dp": 813,
      "##dr": 814,
      "##ds": 815,
      "##du": 816,
      "##dy": 817,
      "##ea": 818,
      "##ead": 819,
      "##eal": 820,
      "##eals": 821,
      "##ean": 822,
      "##ear": 823,
      "##ears": 824,
      "##eas": 825,
      "##ease": 826,
      "##eased": 827,
      "##eason": 828,
      "##eated": 829,
      "##eb": 830,
      "##ec": 831,
      "##eca": 832,
      "##ecca": 833,
      "##ece": 834,
      "##ecess": 835,
      "##ech": 836,
      "##eche": 837,
      "##eches": 838,
      "##echn": 839,
      "##eck": 840,
      "##ecker": 841,
      "##eco": 842,
      "##ecost": 843,
      "##ecraft": 844,
      "##ect": 845,
      "##ected": 846,
      "##ecting": 847,
      "##ection": 848,
      "##ections": 849,
      "##ective": 850,
      "##ector": 851,
      "##ectors": 852,
      "##ects": 853,
      "##ecut": 854,
      "##ecutive": 855,
      "##ed": 856,
      "##eda": 857,
      "##ede": 858,
      "##eded": 859,
      "##eder": 860,
      "##edia": 861,
      "##edic": 862,
      "##eding": 863,
      "##edo": 864,
      "##eds": 865,
      "##edy": 866,
      "##ee": 867,
      "##eed": 868,
      "##een": 869,
      "##eenth": 870,
      "##eer": 871,
      "##ees": 872,
      "##ef": 873,
      "##eff": 874,
      "##eg": 875,
      "##egr": 876,
      "##eing": 877,
      "##eit": 878,
      "##ek": 879,
      "##eka": 880,
      "##eke": 881,
      "##el": 882,
      "##ela": 883,
      "##elage": 884,
      "##eland": 885,
      "##eld": 886,
      "##elda": 887,
      "##ele": 888,
      "##elect": 889,
      "##electric": 890,
      "##eled": 891,
      "##eler": 892,
      "##eles": 893,
      "##eless": 894,
      "##eley": 895,
      "##elf": 896,
      "##eli": 897,
      "##elia": 898,
      "##elic": 899,
      "##elihood": 900,
      "##elin": 901,
      "##eline": 902,
      "##elines": 903,
      "##eling": 904,
      "##elius": 905,
      "##ell": 906,
      "##ella": 907,
      "##ellan": 908,
      "##ellar": 909,
      "##ellation": 910,
      "##elle": 911,
      "##elled": 912,
      "##eller": 913,
      "##ellers": 914,
      "##ellery": 915,
      "##elles": 916,
      "##elli": 917,
      "##elling": 918,
      "##ello": 919,
      "##ellor": 920,
      "##ellow": 921,
      "##ells": 922,
      "##ellus": 923,
      "##elly": 924,
      "##elman": 925,
      "##elo": 926,
      "##elong": 927,
      "##elope": 928,
      "##els": 929,
      "##elsen": 930,
      "##elsh": 931,
      "##elt": 932,
      "##elves": 933,
      "##ely": 934,
      "##elyn": 935,
      "##em": 936,
      "##ema": 937,
      "##eman": 938,
      "##emann": 939,
      "##emb": 940,
      "##ember": 941,
      "##emble": 942,
      "##emed": 943,
      "##emen": 944,
      "##ement": 945,
      "##ements": 946,
      "##emi": 947,
      "##emia": 948,
      "##emic": 949,
      "##emies": 950,
      "##emn": 951,
      "##emon": 952,
      "##emor": 953,
      "##emorrh": 954,
      "##emouth": 955,
      "##emp": 956,
      "##empl": 957,
      "##emplo": 958,
      "##empt": 959,
      "##ems": 960,
      "##emy": 961,
      "##en": 962,
      "##ena": 963,
      "##enant": 964,
      "##enary": 965,
      "##enberg": 966,
      "##enburg": 967,
      "##enc": 968,
      "##ence": 969,
      "##enced": 970,
      "##encement": 971,
      "##encer": 972,
      "##ences": 973,
      "##ench": 974,
      "##enched": 975,
      "##enches": 976,
      "##encia": 977,
      "##encies": 978,
      "##encing": 979,
      "##encl": 980,
      "##ency": 981,
      "##end": 982,
      "##endar": 983,
      "##ended": 984,
      "##enden": 985,
      "##ender": 986,
      "##enders": 987,
      "##endicular": 988,
      "##ending": 989,
      "##ends": 990,
      "##ene": 991,
      "##ened": 992,
      "##ener": 993,
      "##enes": 994,
      "##eness": 995,
      "##enez": 996,
      "##eng": 997,
      "##enge": 998,
      "##enger": 999,
      "##engers": 1000,
      "##engt": 1001,
      "##ength": 1002,
      "##enh": 1003,
      "##enhagen": 1004,
      "##ening": 1005,
      "##enn": 1006,
      "##enna": 1007,
      "##enne": 1008,
      "##ennial": 1009,
      "##eno": 1010,
      "##enon": 1011,
      "##enos": 1012,
      "##ens": 1013,
      "##ense": 1014,
      "##ensed": 1015,
      "##ensen": 1016,
      "##enses": 1017,
      "##ensing": 1018,
      "##ension": 1019,
      "##ensional": 1020,
      "##ensions": 1021,
      "##ensis": 1022,
      "##ensity": 1023,
      "##ensive": 1024,
      "##ensively": 1025,
      "##enson": 1026,
      "##enstein": 1027,
      "##ent": 1028,
      "##ental": 1029,
      "##ente": 1030,
      "##ented": 1031,
      "##enter": 1032,
      "##enth": 1033,
      "##ential": 1034,
      "##entially": 1035,
      "##entin": 1036,
      "##entine": 1037,
      "##ention": 1038,
      "##entional": 1039,
      "##entions": 1040,
      "##ently": 1041,
      "##entric": 1042,
      "##ents": 1043,
      "##enue": 1044,
      "##enues": 1045,
      "##enz": 1046,
      "##enza": 1047,
      "##eon": 1048,
      "##ep": 1049,
      "##epend": 1050,
      "##eper": 1051,
      "##epers": 1052,
      "##eph": 1053,
      "##eping": 1054,
      "##eps": 1055,
      "##ept": 1056,
      "##equ": 1057,
      "##er": 1058,
      "##era": 1059,
      "##eral": 1060,
      "##erals": 1061,
      "##erb": 1062,
      "##erc": 1063,
      "##ere": 1064,
      "##ered": 1065,
      "##erg": 1066,
      "##erged": 1067,
      "##erget": 1068,
      "##ergy": 1069,
      "##eries": 1070,
      "##ering": 1071,
      "##erl": 1072,
      "##erm": 1073,
      "##ern": 1074,
      "##erness": 1075,
      "##erning": 1076,
      "##ero": 1077,
      "##eros": 1078,
      "##erous": 1079,
      "##eroy": 1080,
      "##erpt": 1081,
      "##ers": 1082,
      "##erse": 1083,
      "##ersed": 1084,
      "##ersey": 1085,
      "##ership": 1086,
      "##ersion": 1087,
      "##erson": 1088,
      "##ert": 1089,
      "##ertain": 1090,
      "##erted": 1091,
      "##erto": 1092,
      "##erton": 1093,
      "##erun": 1094,
      "##erv": 1095,
      "##erve": 1096,
      "##erved": 1097,
      "##erver": 1098,
      "##erville": 1099,
      "##ery": 1100,
      "##es": 1101,
      "##esa": 1102,
      "##esc": 1103,
      "##escent": 1104,
      "##esco": 1105,
      "##ese": 1106,
      "##esh": 1107,
      "##esha": 1108,
      "##esian": 1109,
      "##esis": 1110,
      "##esp": 1111,
      "##ess": 1112,
      "##essa": 1113,
      "##essed": 1114,
      "##esses": 1115,
      "##ession": 1116,
      "##essions": 1117,
      "##est": 1118,
      "##estation": 1119,
      "##ested": 1120,
      "##ester": 1121,
      "##estern": 1122,
      "##esters": 1123,
      "##estic": 1124,
      "##estig": 1125,
      "##estock": 1126,
      "##eston": 1127,
      "##estone": 1128,
      "##estown": 1129,
      "##ests": 1130,
      "##esty": 1131,
      "##estyle": 1132,
      "##esy": 1133,
      "##et": 1134,
      "##eta": 1135,
      "##etary": 1136,
      "##etcher": 1137,
      "##ete": 1138,
      "##eted": 1139,
      "##eter": 1140,
      "##eters": 1141,
      "##etery": 1142,
      "##eth": 1143,
      "##ethel": 1144,
      "##ether": 1145,
      "##etic": 1146,
      "##etically": 1147,
      "##etics": 1148,
      "##etime": 1149,
      "##eting": 1150,
      "##eto": 1151,
      "##eton": 1152,
      "##ets": 1153,
      "##ett": 1154,
      "##etta": 1155,
      "##ette": 1156,
      "##ettes": 1157,
      "##etti": 1158,
      "##etts": 1159,
      "##etus": 1160,
      "##ety": 1161,
      "##eu": 1162,
      "##ev": 1163,
      "##evelop": 1164,
      "##ever": 1165,
      "##ew": 1166,
      "##ex": 1167,
      "##exp": 1168,
      "##ext": 1169,
      "##ey": 1170,
      "##eye": 1171,
      "##eyer": 1172,
      "##ez": 1173,
      "##fa": 1174,
      "##face": 1175,
      "##fact": 1176,
      "##factory": 1177,
      "##fall": 1178,
      "##far": 1179,
      "##fare": 1180,
      "##farlane": 1181,
      "##fast": 1182,
      "##father": 1183,
      "##fax": 1184,
      "##fc": 1185,
      "##fe": 1186,
      "##feld": 1187,
      "##fer": 1188,
      "##ference": 1189,
      "##ff": 1190,
      "##ffield": 1191,
      "##fia": 1192,
      "##fied": 1193,
      "##field": 1194,
      "##fields": 1195,
      "##fight": 1196,
      "##fill": 1197,
      "##finger": 1198,
      "##fire": 1199,
      "##fires": 1200,
      "##fish": 1201,
      "##fl": 1202,
      "##fle": 1203,
      "##fleet": 1204,
      "##flies": 1205,
      "##flin": 1206,
      "##flow": 1207,
      "##fly": 1208,
      "##fman": 1209,
      "##fo": 1210,
      "##fold": 1211,
      "##folk": 1212,
      "##for": 1213,
      "##force": 1214,
      "##ford": 1215,
      "##fore": 1216,
      "##form": 1217,
      "##fort": 1218,
      "##forth": 1219,
      "##forward": 1220,
      "##found": 1221,
      "##four": 1222,
      "##fr": 1223,
      "##frey": 1224,
      "##friend": 1225,
      "##front": 1226,
      "##fs": 1227,
      "##ft": 1228,
      "##fta": 1229,
      "##ftime": 1230,
      "##fts": 1231,
      "##fu": 1232,
      "##ful": 1233,
      "##full": 1234,
      "##fully": 1235,
      "##function": 1236,
      "##ga": 1237,
      "##gage": 1238,
      "##gal": 1239,
      "##game": 1240,
      "##gan": 1241,
      "##gans": 1242,
      "##gar": 1243,
      "##gard": 1244,
      "##garian": 1245,
      "##gart": 1246,
      "##gary": 1247,
      "##gas": 1248,
      "##gate": 1249,
      "##ge": 1250,
      "##ged": 1251,
      "##gee": 1252,
      "##gem": 1253,
      "##gen": 1254,
      "##gence": 1255,
      "##gend": 1256,
      "##gener": 1257,
      "##gens": 1258,
      "##gent": 1259,
      "##ger": 1260,
      "##gered": 1261,
      "##gers": 1262,
      "##ges": 1263,
      "##gest": 1264,
      "##get": 1265,
      "##gett": 1266,
      "##gg": 1267,
      "##ggy": 1268,
      "##gh": 1269,
      "##ghan": 1270,
      "##gi": 1271,
      "##gian": 1272,
      "##gie": 1273,
      "##gil": 1274,
      "##gin": 1275,
      "##ging": 1276,
      "##gins": 1277,
      "##gio": 1278,
      "##girl": 1279,
      "##giving": 1280,
      "##gl": 1281,
      "##gle": 1282,
      "##gm": 1283,
      "##gn": 1284,
      "##go": 1285,
      "##going": 1286,
      "##gom": 1287,
      "##gon": 1288,
      "##gone": 1289,
      "##gow": 1290,
      "##gr": 1291,
      "##grad": 1292,
      "##grade": 1293,
      "##greg": 1294,
      "##gren": 1295,
      "##gress": 1296,
      "##ground": 1297,
      "##group": 1298,
      "##gs": 1299,
      "##gu": 1300,
      "##guard": 1301,
      "##gun": 1302,
      "##gy": 1303,
      "##gypt": 1304,
      "##ha": 1305,
      "##hail": 1306,
      "##hal": 1307,
      "##hall": 1308,
      "##ham": 1309,
      "##hammad": 1310,
      "##hampton": 1311,
      "##han": 1312,
      "##hand": 1313,
      "##hang": 1314,
      "##haps": 1315,
      "##har": 1316,
      "##hard": 1317,
      "##hart": 1318,
      "##has": 1319,
      "##haus": 1320,
      "##hausen": 1321,
      "##haw": 1322,
      "##hawk": 1323,
      "##hawks": 1324,
      "##hd": 1325,
      "##he": 1326,
      "##hea": 1327,
      "##head": 1328,
      "##heads": 1329,
      "##heart": 1330,
      "##heas": 1331,
      "##heast": 1332,
      "##heastern": 1333,
      "##hed": 1334,
      "##hedral": 1335,
      "##heed": 1336,
      "##heim": 1337,
      "##heimer": 1338,
      "##hel": 1339,
      "##held": 1340,
      "##hell": 1341,
      "##helm": 1342,
      "##hem": 1343,
      "##hen": 1344,
      "##hend": 1345,
      "##hening": 1346,
      "##hens": 1347,
      "##hentic": 1348,
      "##heny": 1349,
      "##her": 1350,
      "##here": 1351,
      "##heric": 1352,
      "##hern": 1353,
      "##hers": 1354,
      "##hes": 1355,
      "##hesis": 1356,
      "##hest": 1357,
      "##hester": 1358,
      "##het": 1359,
      "##hetic": 1360,
      "##hetics": 1361,
      "##hew": 1362,
      "##hey": 1363,
      "##hi": 1364,
      "##hib": 1365,
      "##hic": 1366,
      "##hies": 1367,
      "##hill": 1368,
      "##him": 1369,
      "##hin": 1370,
      "##hing": 1371,
      "##hip": 1372,
      "##hips": 1373,
      "##hire": 1374,
      "##hist": 1375,
      "##hl": 1376,
      "##hlet": 1377,
      "##hm": 1378,
      "##hma": 1379,
      "##hn": 1380,
      "##ho": 1381,
      "##hol": 1382,
      "##hold": 1383,
      "##holder": 1384,
      "##holders": 1385,
      "##holm": 1386,
      "##hood": 1387,
      "##hor": 1388,
      "##hot": 1389,
      "##hou": 1390,
      "##hous": 1391,
      "##house": 1392,
      "##houses": 1393,
      "##how": 1394,
      "##hr": 1395,
      "##hrer": 1396,
      "##hs": 1397,
      "##ht": 1398,
      "##hu": 1399,
      "##hum": 1400,
      "##hurst": 1401,
      "##hus": 1402,
      "##hy": 1403,
      "##hyd": 1404,
      "##ia": 1405,
      "##iable": 1406,
      "##iac": 1407,
      "##iad": 1408,
      "##iae": 1409,
      "##iago": 1410,
      "##iah": 1411,
      "##ial": 1412,
      "##ially": 1413,
      "##ials": 1414,
      "##iam": 1415,
      "##ian": 1416,
      "##iana": 1417,
      "##iance": 1418,
      "##iances": 1419,
      "##iang": 1420,
      "##iano": 1421,
      "##ians": 1422,
      "##iant": 1423,
      "##iar": 1424,
      "##iard": 1425,
      "##iards": 1426,
      "##iary": 1427,
      "##ias": 1428,
      "##iast": 1429,
      "##iat": 1430,
      "##iata": 1431,
      "##iate": 1432,
      "##iated": 1433,
      "##iating": 1434,
      "##iation": 1435,
      "##iatus": 1436,
      "##iaz": 1437,
      "##ib": 1438,
      "##ibal": 1439,
      "##iban": 1440,
      "##iber": 1441,
      "##ibi": 1442,
      "##ibilities": 1443,
      "##ibility": 1444,
      "##ibl": 1445,
      "##ible": 1446,
      "##ibles": 1447,
      "##ibly": 1448,
      "##ibr": 1449,
      "##ibrium": 1450,
      "##ic": 1451,
      "##ica": 1452,
      "##ical": 1453,
      "##ically": 1454,
      "##icals": 1455,
      "##ican": 1456,
      "##icans": 1457,
      "##icate": 1458,
      "##icated": 1459,
      "##ication": 1460,
      "##ications": 1461,
      "##ice": 1462,
      "##iced": 1463,
      "##ices": 1464,
      "##ich": 1465,
      "##iche": 1466,
      "##ichi": 1467,
      "##ici": 1468,
      "##icia": 1469,
      "##icial": 1470,
      "##icially": 1471,
      "##ician": 1472,
      "##icians": 1473,
      "##iciary": 1474,
      "##icide": 1475,
      "##iciency": 1476,
      "##icient": 1477,
      "##iciently": 1478,
      "##icing": 1479,
      "##icious": 1480,
      "##icism": 1481,
      "##icit": 1482,
      "##icity": 1483,
      "##ick": 1484,
      "##icken": 1485,
      "##icker": 1486,
      "##icket": 1487,
      "##ickets": 1488,
      "##icking": 1489,
      "##icks": 1490,
      "##icle": 1491,
      "##icles": 1492,
      "##ico": 1493,
      "##icon": 1494,
      "##ics": 1495,
      "##ict": 1496,
      "##icted": 1497,
      "##iction": 1498,
      "##icul": 1499,
      "##icular": 1500,
      "##iculous": 1501,
      "##icult": 1502,
      "##icultural": 1503,
      "##iculum": 1504,
      "##icus": 1505,
      "##icut": 1506,
      "##icz": 1507,
      "##id": 1508,
      "##ida": 1509,
      "##idae": 1510,
      "##idal": 1511,
      "##idan": 1512,
      "##idas": 1513,
      "##iday": 1514,
      "##idays": 1515,
      "##idd": 1516,
      "##idden": 1517,
      "##ide": 1518,
      "##idean": 1519,
      "##ided": 1520,
      "##idel": 1521,
      "##iden": 1522,
      "##idence": 1523,
      "##idency": 1524,
      "##ident": 1525,
      "##identified": 1526,
      "##idents": 1527,
      "##ider": 1528,
      "##iders": 1529,
      "##ides": 1530,
      "##idge": 1531,
      "##idi": 1532,
      "##idia": 1533,
      "##idian": 1534,
      "##iding": 1535,
      "##idium": 1536,
      "##ido": 1537,
      "##ids": 1538,
      "##idt": 1539,
      "##idy": 1540,
      "##ie": 1541,
      "##iec": 1542,
      "##iece": 1543,
      "##ied": 1544,
      "##ief": 1545,
      "##iefen": 1546,
      "##ieg": 1547,
      "##iel": 1548,
      "##ield": 1549,
      "##iels": 1550,
      "##iem": 1551,
      "##ien": 1552,
      "##ience": 1553,
      "##iences": 1554,
      "##iend": 1555,
      "##iens": 1556,
      "##ient": 1557,
      "##ients": 1558,
      "##ier": 1559,
      "##iers": 1560,
      "##ies": 1561,
      "##iest": 1562,
      "##iet": 1563,
      "##ieth": 1564,
      "##ieties": 1565,
      "##iety": 1566,
      "##ieu": 1567,
      "##iev": 1568,
      "##iew": 1569,
      "##if": 1570,
      "##ifa": 1571,
      "##ifact": 1572,
      "##ifax": 1573,
      "##ife": 1574,
      "##ifer": 1575,
      "##iferous": 1576,
      "##iff": 1577,
      "##iffer": 1578,
      "##iffs": 1579,
      "##ifiable": 1580,
      "##ific": 1581,
      "##ifically": 1582,
      "##ification": 1583,
      "##ifications": 1584,
      "##ifice": 1585,
      "##ified": 1586,
      "##ifier": 1587,
      "##ifiers": 1588,
      "##ifies": 1589,
      "##ifolia": 1590,
      "##iform": 1591,
      "##ift": 1592,
      "##iful": 1593,
      "##ify": 1594,
      "##ifying": 1595,
      "##ig": 1596,
      "##iga": 1597,
      "##igan": 1598,
      "##igation": 1599,
      "##ige": 1600,
      "##igen": 1601,
      "##iger": 1602,
      "##igh": 1603,
      "##ighed": 1604,
      "##ight": 1605,
      "##ighter": 1606,
      "##ighters": 1607,
      "##ighth": 1608,
      "##igi": 1609,
      "##igible": 1610,
      "##igin": 1611,
      "##igma": 1612,
      "##ign": 1613,
      "##igne": 1614,
      "##igned": 1615,
      "##ignment": 1616,
      "##igo": 1617,
      "##igon": 1618,
      "##igr": 1619,
      "##igrated": 1620,
      "##igration": 1621,
      "##igs": 1622,
      "##ih": 1623,
      "##ii": 1624,
      "##iii": 1625,
      "##ij": 1626,
      "##iji": 1627,
      "##ik": 1628,
      "##ika": 1629,
      "##ike": 1630,
      "##iked": 1631,
      "##iker": 1632,
      "##ikes": 1633,
      "##iki": 1634,
      "##ikk": 1635,
      "##iko": 1636,
      "##il": 1637,
      "##ila": 1638,
      "##ilar": 1639,
      "##ilated": 1640,
      "##ilation": 1641,
      "##ild": 1642,
      "##ilda": 1643,
      "##ilding": 1644,
      "##ile": 1645,
      "##iled": 1646,
      "##ilera": 1647,
      "##iles": 1648,
      "##iley": 1649,
      "##ili": 1650,
      "##ilia": 1651,
      "##ilian": 1652,
      "##iliar": 1653,
      "##iliary": 1654,
      "##iliation": 1655,
      "##ilies": 1656,
      "##ilight": 1657,
      "##iling": 1658,
      "##ilis": 1659,
      "##ilities": 1660,
      "##ility": 1661,
      "##ill": 1662,
      "##illa": 1663,
      "##illard": 1664,
      "##ille": 1665,
      "##illed": 1666,
      "##iller": 1667,
      "##illery": 1668,
      "##illes": 1669,
      "##illing": 1670,
      "##illion": 1671,
      "##illo": 1672,
      "##illon": 1673,
      "##ills": 1674,
      "##illus": 1675,
      "##illy": 1676,
      "##ilon": 1677,
      "##ils": 1678,
      "##ilst": 1679,
      "##ilt": 1680,
      "##ilton": 1681,
      "##ilus": 1682,
      "##ily": 1683,
      "##im": 1684,
      "##ima": 1685,
      "##iman": 1686,
      "##imate": 1687,
      "##imb": 1688,
      "##ime": 1689,
      "##iment": 1690,
      "##iments": 1691,
      "##imer": 1692,
      "##imes": 1693,
      "##imet": 1694,
      "##imeter": 1695,
      "##imi": 1696,
      "##imin": 1697,
      "##imir": 1698,
      "##imm": 1699,
      "##immer": 1700,
      "##imo": 1701,
      "##imon": 1702,
      "##imony": 1703,
      "##imp": 1704,
      "##ims": 1705,
      "##in": 1706,
      "##ina": 1707,
      "##inae": 1708,
      "##inal": 1709,
      "##inald": 1710,
      "##inals": 1711,
      "##inary": 1712,
      "##inas": 1713,
      "##inate": 1714,
      "##inated": 1715,
      "##inating": 1716,
      "##ination": 1717,
      "##inations": 1718,
      "##inc": 1719,
      "##ince": 1720,
      "##inces": 1721,
      "##inch": 1722,
      "##inct": 1723,
      "##inction": 1724,
      "##ind": 1725,
      "##inda": 1726,
      "##inder": 1727,
      "##ine": 1728,
      "##ined": 1729,
      "##inely": 1730,
      "##inem": 1731,
      "##inent": 1732,
      "##iner": 1733,
      "##ines": 1734,
      "##inese": 1735,
      "##iness": 1736,
      "##inet": 1737,
      "##ing": 1738,
      "##inge": 1739,
      "##inger": 1740,
      "##ingham": 1741,
      "##ingly": 1742,
      "##ings": 1743,
      "##ington": 1744,
      "##ingu": 1745,
      "##inh": 1746,
      "##ini": 1747,
      "##inian": 1748,
      "##ining": 1749,
      "##inis": 1750,
      "##inished": 1751,
      "##inity": 1752,
      "##ink": 1753,
      "##inks": 1754,
      "##inn": 1755,
      "##ino": 1756,
      "##inois": 1757,
      "##inos": 1758,
      "##inqu": 1759,
      "##ins": 1760,
      "##inski": 1761,
      "##insky": 1762,
      "##inson": 1763,
      "##int": 1764,
      "##inted": 1765,
      "##integr": 1766,
      "##intend": 1767,
      "##inter": 1768,
      "##inth": 1769,
      "##into": 1770,
      "##inton": 1771,
      "##ints": 1772,
      "##inum": 1773,
      "##inus": 1774,
      "##iny": 1775,
      "##io": 1776,
      "##ioc": 1777,
      "##iod": 1778,
      "##ion": 1779,
      "##ional": 1780,
      "##ione": 1781,
      "##ioned": 1782,
      "##ions": 1783,
      "##iop": 1784,
      "##ior": 1785,
      "##iors": 1786,
      "##ios": 1787,
      "##iosity": 1788,
      "##iot": 1789,
      "##iott": 1790,
      "##ious": 1791,
      "##iously": 1792,
      "##ip": 1793,
      "##ipal": 1794,
      "##ipated": 1795,
      "##ipating": 1796,
      "##ipation": 1797,
      "##ipe": 1798,
      "##ipel": 1799,
      "##iper": 1800,
      "##iph": 1801,
      "##ipher": 1802,
      "##ipl": 1803,
      "##iple": 1804,
      "##ipoli": 1805,
      "##ipp": 1806,
      "##ipping": 1807,
      "##ips": 1808,
      "##iqu": 1809,
      "##ique": 1810,
      "##iques": 1811,
      "##ir": 1812,
      "##ira": 1813,
      "##irable": 1814,
      "##irc": 1815,
      "##ird": 1816,
      "##ire": 1817,
      "##irect": 1818,
      "##ired": 1819,
      "##ires": 1820,
      "##irez": 1821,
      "##iri": 1822,
      "##iring": 1823,
      "##irk": 1824,
      "##irl": 1825,
      "##irm": 1826,
      "##irmed": 1827,
      "##iro": 1828,
      "##iron": 1829,
      "##irt": 1830,
      "##irth": 1831,
      "##irts": 1832,
      "##irus": 1833,
      "##is": 1834,
      "##isa": 1835,
      "##isan": 1836,
      "##isation": 1837,
      "##isations": 1838,
      "##isc": 1839,
      "##isch": 1840,
      "##isco": 1841,
      "##iscovered": 1842,
      "##isd": 1843,
      "##ise": 1844,
      "##ised": 1845,
      "##isely": 1846,
      "##iser": 1847,
      "##isers": 1848,
      "##ises": 1849,
      "##ish": 1850,
      "##isha": 1851,
      "##ished": 1852,
      "##isher": 1853,
      "##ishes": 1854,
      "##ishi": 1855,
      "##ishing": 1856,
      "##ishment": 1857,
      "##ishop": 1858,
      "##ishops": 1859,
      "##isible": 1860,
      "##ising": 1861,
      "##ision": 1862,
      "##isions": 1863,
      "##isition": 1864,
      "##isive": 1865,
      "##isk": 1866,
      "##isl": 1867,
      "##isle": 1868,
      "##ism": 1869,
      "##isman": 1870,
      "##ismatic": 1871,
      "##isms": 1872,
      "##ison": 1873,
      "##isons": 1874,
      "##isp": 1875,
      "##iss": 1876,
      "##issa": 1877,
      "##issance": 1878,
      "##ission": 1879,
      "##issioned": 1880,
      "##issions": 1881,
      "##isson": 1882,
      "##ist": 1883,
      "##ista": 1884,
      "##istan": 1885,
      "##isted": 1886,
      "##istent": 1887,
      "##ister": 1888,
      "##isters": 1889,
      "##istic": 1890,
      "##istical": 1891,
      "##istically": 1892,
      "##istics": 1893,
      "##istle": 1894,
      "##istol": 1895,
      "##istry": 1896,
      "##ists": 1897,
      "##isy": 1898,
      "##it": 1899,
      "##ita": 1900,
      "##itable": 1901,
      "##itage": 1902,
      "##ital": 1903,
      "##itals": 1904,
      "##itan": 1905,
      "##itar": 1906,
      "##itarian": 1907,
      "##itars": 1908,
      "##itary": 1909,
      "##itate": 1910,
      "##itated": 1911,
      "##itating": 1912,
      "##itation": 1913,
      "##itational": 1914,
      "##itations": 1915,
      "##itative": 1916,
      "##itch": 1917,
      "##ite": 1918,
      "##ited": 1919,
      "##itely": 1920,
      "##itement": 1921,
      "##iter": 1922,
      "##ites": 1923,
      "##ith": 1924,
      "##ithe": 1925,
      "##ither": 1926,
      "##ithm": 1927,
      "##ithms": 1928,
      "##iti": 1929,
      "##itian": 1930,
      "##itic": 1931,
      "##ities": 1932,
      "##iting": 1933,
      "##ition": 1934,
      "##itions": 1935,
      "##itious": 1936,
      "##itis": 1937,
      "##itism": 1938,
      "##itive": 1939,
      "##itively": 1940,
      "##itivity": 1941,
      "##itled": 1942,
      "##ito": 1943,
      "##itor": 1944,
      "##itors": 1945,
      "##itory": 1946,
      "##its": 1947,
      "##itsu": 1948,
      "##itt": 1949,
      "##itte": 1950,
      "##itted": 1951,
      "##itter": 1952,
      "##itti": 1953,
      "##itting": 1954,
      "##ittle": 1955,
      "##itty": 1956,
      "##itud": 1957,
      "##itude": 1958,
      "##itudes": 1959,
      "##iture": 1960,
      "##itus": 1961,
      "##itution": 1962,
      "##ity": 1963,
      "##itz": 1964,
      "##itzer": 1965,
      "##ium": 1966,
      "##ius": 1967,
      "##iv": 1968,
      "##iva": 1969,
      "##ival": 1970,
      "##ivals": 1971,
      "##ivan": 1972,
      "##ivated": 1973,
      "##ivation": 1974,
      "##ive": 1975,
      "##ived": 1976,
      "##ively": 1977,
      "##iven": 1978,
      "##iveness": 1979,
      "##iver": 1980,
      "##ivers": 1981,
      "##iversary": 1982,
      "##ives": 1983,
      "##ivid": 1984,
      "##iving": 1985,
      "##ivity": 1986,
      "##ivorous": 1987,
      "##ix": 1988,
      "##ixon": 1989,
      "##iy": 1990,
      "##iz": 1991,
      "##izable": 1992,
      "##ization": 1993,
      "##izations": 1994,
      "##ize": 1995,
      "##ized": 1996,
      "##izer": 1997,
      "##izers": 1998,
      "##izes": 1999,
      "##izing": 2000,
      "##izz": 2001,
      "##ja": 2002,
      "##jan": 2003,
      "##jar": 2004,
      "##jay": 2005,
      "##je": 2006,
      "##ject": 2007,
      "##jected": 2008,
      "##jection": 2009,
      "##jev": 2010,
      "##ji": 2011,
      "##jm": 2012,
      "##jo": 2013,
      "##jon": 2014,
      "##jord": 2015,
      "##ju": 2016,
      "##jud": 2017,
      "##jun": 2018,
      "##ka": 2019,
      "##kal": 2020,
      "##kar": 2021,
      "##kary": 2022,
      "##kas": 2023,
      "##ke": 2024,
      "##ked": 2025,
      "##kee": 2026,
      "##keeper": 2027,
      "##keeping": 2028,
      "##kel": 2029,
      "##ken": 2030,
      "##ker": 2031,
      "##kers": 2032,
      "##kes": 2033,
      "##ket": 2034,
      "##key": 2035,
      "##kh": 2036,
      "##ki": 2037,
      "##kien": 2038,
      "##kill": 2039,
      "##kin": 2040,
      "##kind": 2041,
      "##king": 2042,
      "##kins": 2043,
      "##kinson": 2044,
      "##kn": 2045,
      "##know": 2046,
      "##ko": 2047,
      "##krit": 2048,
      "##ks": 2049,
      "##kward": 2050,
      "##ky": 2051,
      "##la": 2052,
      "##lah": 2053,
      "##laim": 2054,
      "##lain": 2055,
      "##lair": 2056,
      "##lake": 2057,
      "##lam": 2058,
      "##lan": 2059,
      "##lance": 2060,
      "##land": 2061,
      "##landers": 2062,
      "##lando": 2063,
      "##lands": 2064,
      "##lane": 2065,
      "##lar": 2066,
      "##lass": 2067,
      "##lav": 2068,
      "##lay": 2069,
      "##ld": 2070,
      "##ldon": 2071,
      "##le": 2072,
      "##leased": 2073,
      "##lec": 2074,
      "##led": 2075,
      "##ledge": 2076,
      "##ledon": 2077,
      "##lee": 2078,
      "##leep": 2079,
      "##leg": 2080,
      "##leigh": 2081,
      "##lem": 2082,
      "##lement": 2083,
      "##lements": 2084,
      "##len": 2085,
      "##lend": 2086,
      "##ler": 2087,
      "##lers": 2088,
      "##les": 2089,
      "##less": 2090,
      "##lessly": 2091,
      "##lessness": 2092,
      "##let": 2093,
      "##lete": 2094,
      "##leton": 2095,
      "##lets": 2096,
      "##lett": 2097,
      "##leum": 2098,
      "##lev": 2099,
      "##lew": 2100,
      "##lex": 2101,
      "##ley": 2102,
      "##leys": 2103,
      "##li": 2104,
      "##lic": 2105,
      "##lication": 2106,
      "##liche": 2107,
      "##lie": 2108,
      "##lied": 2109,
      "##lies": 2110,
      "##liest": 2111,
      "##life": 2112,
      "##light": 2113,
      "##lin": 2114,
      "##linary": 2115,
      "##line": 2116,
      "##lined": 2117,
      "##lines": 2118,
      "##ling": 2119,
      "##lings": 2120,
      "##lington": 2121,
      "##lining": 2122,
      "##lish": 2123,
      "##list": 2124,
      "##litt": 2125,
      "##ll": 2126,
      "##lla": 2127,
      "##lo": 2128,
      "##load": 2129,
      "##loaded": 2130,
      "##lock": 2131,
      "##loid": 2132,
      "##lon": 2133,
      "##loo": 2134,
      "##look": 2135,
      "##lor": 2136,
      "##lord": 2137,
      "##lore": 2138,
      "##lot": 2139,
      "##low": 2140,
      "##ls": 2141,
      "##lu": 2142,
      "##lud": 2143,
      "##lude": 2144,
      "##lund": 2145,
      "##lus": 2146,
      "##lusion": 2147,
      "##ly": 2148,
      "##lying": 2149,
      "##lyn": 2150,
      "##lyph": 2151,
      "##lys": 2152,
      "##ma": 2153,
      "##mad": 2154,
      "##maker": 2155,
      "##mal": 2156,
      "##man": 2157,
      "##mania": 2158,
      "##mann": 2159,
      "##mans": 2160,
      "##manship": 2161,
      "##mar": 2162,
      "##mare": 2163,
      "##marine": 2164,
      "##mark": 2165,
      "##market": 2166,
      "##mas": 2167,
      "##mass": 2168,
      "##master": 2169,
      "##mat": 2170,
      "##mate": 2171,
      "##mates": 2172,
      "##math": 2173,
      "##matic": 2174,
      "##me": 2175,
      "##med": 2176,
      "##medi": 2177,
      "##mel": 2178,
      "##men": 2179,
      "##ment": 2180,
      "##mented": 2181,
      "##ments": 2182,
      "##mer": 2183,
      "##mere": 2184,
      "##mers": 2185,
      "##mes": 2186,
      "##met": 2187,
      "##mi": 2188,
      "##mill": 2189,
      "##millan": 2190,
      "##min": 2191,
      "##mination": 2192,
      "##ming": 2193,
      "##mingham": 2194,
      "##mington": 2195,
      "##minster": 2196,
      "##mire": 2197,
      "##mith": 2198,
      "##mium": 2199,
      "##mm": 2200,
      "##mo": 2201,
      "##mod": 2202,
      "##mon": 2203,
      "##mond": 2204,
      "##mons": 2205,
      "##mont": 2206,
      "##monton": 2207,
      "##more": 2208,
      "##most": 2209,
      "##mother": 2210,
      "##mouth": 2211,
      "##mp": 2212,
      "##ms": 2213,
      "##mun": 2214,
      "##mund": 2215,
      "##mus": 2216,
      "##music": 2217,
      "##my": 2218,
      "##na": 2219,
      "##nae": 2220,
      "##naeus": 2221,
      "##nai": 2222,
      "##nal": 2223,
      "##nals": 2224,
      "##nam": 2225,
      "##namara": 2226,
      "##namese": 2227,
      "##nan": 2228,
      "##nance": 2229,
      "##nant": 2230,
      "##nar": 2231,
      "##nas": 2232,
      "##nasium": 2233,
      "##nd": 2234,
      "##nda": 2235,
      "##nder": 2236,
      "##ndum": 2237,
      "##ne": 2238,
      "##neath": 2239,
      "##ned": 2240,
      "##nel": 2241,
      "##nell": 2242,
      "##nels": 2243,
      "##ner": 2244,
      "##ners": 2245,
      "##nes": 2246,
      "##ness": 2247,
      "##net": 2248,
      "##neum": 2249,
      "##ney": 2250,
      "##ng": 2251,
      "##ni": 2252,
      "##nia": 2253,
      "##nian": 2254,
      "##nic": 2255,
      "##nie": 2256,
      "##night": 2257,
      "##nik": 2258,
      "##ning": 2259,
      "##nings": 2260,
      "##no": 2261,
      "##nor": 2262,
      "##now": 2263,
      "##nown": 2264,
      "##ns": 2265,
      "##nu": 2266,
      "##nut": 2267,
      "##ny": 2268,
      "##oa": 2269,
      "##oard": 2270,
      "##ob": 2271,
      "##oba": 2272,
      "##obe": 2273,
      "##ober": 2274,
      "##obi": 2275,
      "##obic": 2276,
      "##obil": 2277,
      "##obs": 2278,
      "##oc": 2279,
      "##oca": 2280,
      "##ocated": 2281,
      "##ocation": 2282,
      "##ocative": 2283,
      "##ocaust": 2284,
      "##occ": 2285,
      "##occup": 2286,
      "##ocene": 2287,
      "##och": 2288,
      "##ochem": 2289,
      "##ochond": 2290,
      "##oci": 2291,
      "##ock": 2292,
      "##ockey": 2293,
      "##ocks": 2294,
      "##oco": 2295,
      "##ocol": 2296,
      "##ocr": 2297,
      "##ocy": 2298,
      "##ocyt": 2299,
      "##od": 2300,
      "##oda": 2301,
      "##ode": 2302,
      "##oded": 2303,
      "##odeon": 2304,
      "##odes": 2305,
      "##odia": 2306,
      "##odied": 2307,
      "##odies": 2308,
      "##oding": 2309,
      "##odon": 2310,
      "##odore": 2311,
      "##odox": 2312,
      "##ods": 2313,
      "##ody": 2314,
      "##odynam": 2315,
      "##oe": 2316,
      "##oen": 2317,
      "##oes": 2318,
      "##oeuv": 2319,
      "##of": 2320,
      "##off": 2321,
      "##oft": 2322,
      "##og": 2323,
      "##oga": 2324,
      "##ogan": 2325,
      "##ogen": 2326,
      "##ogene": 2327,
      "##ogenic": 2328,
      "##ogens": 2329,
      "##ogether": 2330,
      "##ogical": 2331,
      "##ogist": 2332,
      "##ogle": 2333,
      "##ogn": 2334,
      "##ogne": 2335,
      "##ograp": 2336,
      "##ograph": 2337,
      "##ographed": 2338,
      "##ographer": 2339,
      "##ographic": 2340,
      "##ographical": 2341,
      "##ographies": 2342,
      "##ography": 2343,
      "##ogs": 2344,
      "##ogue": 2345,
      "##ogues": 2346,
      "##ogy": 2347,
      "##oh": 2348,
      "##oid": 2349,
      "##oids": 2350,
      "##oint": 2351,
      "##oir": 2352,
      "##ois": 2353,
      "##ok": 2354,
      "##oka": 2355,
      "##oke": 2356,
      "##oked": 2357,
      "##oken": 2358,
      "##oker": 2359,
      "##okes": 2360,
      "##oki": 2361,
      "##oking": 2362,
      "##oks": 2363,
      "##ol": 2364,
      "##ola": 2365,
      "##olar": 2366,
      "##olas": 2367,
      "##old": 2368,
      "##olds": 2369,
      "##ole": 2370,
      "##olent": 2371,
      "##oles": 2372,
      "##olet": 2373,
      "##olf": 2374,
      "##oli": 2375,
      "##olia": 2376,
      "##olic": 2377,
      "##olid": 2378,
      "##olin": 2379,
      "##oline": 2380,
      "##olini": 2381,
      "##olis": 2382,
      "##olith": 2383,
      "##olithic": 2384,
      "##olk": 2385,
      "##oll": 2386,
      "##ollah": 2387,
      "##ollow": 2388,
      "##olly": 2389,
      "##oln": 2390,
      "##olo": 2391,
      "##olog": 2392,
      "##ologic": 2393,
      "##ological": 2394,
      "##ologically": 2395,
      "##ologies": 2396,
      "##ologist": 2397,
      "##ologists": 2398,
      "##ology": 2399,
      "##olph": 2400,
      "##ols": 2401,
      "##olution": 2402,
      "##olved": 2403,
      "##oly": 2404,
      "##om": 2405,
      "##oma": 2406,
      "##omac": 2407,
      "##omal": 2408,
      "##oman": 2409,
      "##omans": 2410,
      "##omatic": 2411,
      "##omb": 2412,
      "##ome": 2413,
      "##omed": 2414,
      "##omer": 2415,
      "##omers": 2416,
      "##omes": 2417,
      "##omet": 2418,
      "##ometer": 2419,
      "##ometric": 2420,
      "##omfort": 2421,
      "##omi": 2422,
      "##omic": 2423,
      "##omical": 2424,
      "##omin": 2425,
      "##oming": 2426,
      "##omm": 2427,
      "##ommod": 2428,
      "##ommon": 2429,
      "##ommun": 2430,
      "##omo": 2431,
      "##omon": 2432,
      "##omorph": 2433,
      "##omorphic": 2434,
      "##omot": 2435,
      "##omous": 2436,
      "##omp": 2437,
      "##ompan": 2438,
      "##ompass": 2439,
      "##ompl": 2440,
      "##oms": 2441,
      "##omy": 2442,
      "##omys": 2443,
      "##on": 2444,
      "##ona": 2445,
      "##onal": 2446,
      "##once": 2447,
      "##ond": 2448,
      "##onder": 2449,
      "##onderoga": 2450,
      "##ondo": 2451,
      "##onduct": 2452,
      "##one": 2453,
      "##oned": 2454,
      "##onen": 2455,
      "##onent": 2456,
      "##onents": 2457,
      "##ones": 2458,
      "##oney": 2459,
      "##ong": 2460,
      "##onged": 2461,
      "##ongh": 2462,
      "##oni": 2463,
      "##onia": 2464,
      "##onian": 2465,
      "##onic": 2466,
      "##onica": 2467,
      "##oning": 2468,
      "##onium": 2469,
      "##onn": 2470,
      "##onna": 2471,
      "##ons": 2472,
      "##onsc": 2473,
      "##onscious": 2474,
      "##onse": 2475,
      "##onsin": 2476,
      "##onso": 2477,
      "##ont": 2478,
      "##ontin": 2479,
      "##ontinental": 2480,
      "##onto": 2481,
      "##onts": 2482,
      "##ony": 2483,
      "##onym": 2484,
      "##onymous": 2485,
      "##oo": 2486,
      "##ood": 2487,
      "##ool": 2488,
      "##oon": 2489,
      "##oons": 2490,
      "##oor": 2491,
      "##op": 2492,
      "##opath": 2493,
      "##ope": 2494,
      "##oped": 2495,
      "##oper": 2496,
      "##opes": 2497,
      "##oph": 2498,
      "##opher": 2499,
      "##ophon": 2500,
      "##ophone": 2501,
      "##ophren": 2502,
      "##ophy": 2503,
      "##oping": 2504,
      "##opl": 2505,
      "##oplan": 2506,
      "##ople": 2507,
      "##opol": 2508,
      "##opot": 2509,
      "##opotam": 2510,
      "##opp": 2511,
      "##ops": 2512,
      "##opsy": 2513,
      "##opter": 2514,
      "##opus": 2515,
      "##opy": 2516,
      "##oqu": 2517,
      "##oque": 2518,
      "##or": 2519,
      "##ora": 2520,
      "##oral": 2521,
      "##oration": 2522,
      "##orax": 2523,
      "##ord": 2524,
      "##ordin": 2525,
      "##ordination": 2526,
      "##ore": 2527,
      "##ored": 2528,
      "##orer": 2529,
      "##ores": 2530,
      "##orf": 2531,
      "##organ": 2532,
      "##ori": 2533,
      "##oria": 2534,
      "##orial": 2535,
      "##orian": 2536,
      "##oric": 2537,
      "##ories": 2538,
      "##origin": 2539,
      "##oring": 2540,
      "##orious": 2541,
      "##ork": 2542,
      "##orm": 2543,
      "##ormal": 2544,
      "##orman": 2545,
      "##orn": 2546,
      "##orne": 2547,
      "##orney": 2548,
      "##orns": 2549,
      "##oro": 2550,
      "##orous": 2551,
      "##orph": 2552,
      "##orrow": 2553,
      "##ors": 2554,
      "##orse": 2555,
      "##orship": 2556,
      "##ort": 2557,
      "##orted": 2558,
      "##orter": 2559,
      "##orters": 2560,
      "##orth": 2561,
      "##ortion": 2562,
      "##orts": 2563,
      "##ortun": 2564,
      "##orum": 2565,
      "##orus": 2566,
      "##ory": 2567,
      "##os": 2568,
      "##osa": 2569,
      "##osaur": 2570,
      "##osaurs": 2571,
      "##osaurus": 2572,
      "##osc": 2573,
      "##ose": 2574,
      "##osed": 2575,
      "##osem": 2576,
      "##osen": 2577,
      "##oses": 2578,
      "##osexual": 2579,
      "##osh": 2580,
      "##oshi": 2581,
      "##osing": 2582,
      "##osis": 2583,
      "##osition": 2584,
      "##osity": 2585,
      "##osl": 2586,
      "##oslav": 2587,
      "##oso": 2588,
      "##osp": 2589,
      "##ospace": 2590,
      "##osph": 2591,
      "##osphere": 2592,
      "##oss": 2593,
      "##ost": 2594,
      "##oster": 2595,
      "##ostic": 2596,
      "##osure": 2597,
      "##ot": 2598,
      "##ota": 2599,
      "##ote": 2600,
      "##oted": 2601,
      "##oter": 2602,
      "##oters": 2603,
      "##otes": 2604,
      "##oth": 2605,
      "##othe": 2606,
      "##other": 2607,
      "##otherapy": 2608,
      "##othermal": 2609,
      "##othes": 2610,
      "##othy": 2611,
      "##otic": 2612,
      "##oting": 2613,
      "##otle": 2614,
      "##oto": 2615,
      "##oton": 2616,
      "##otrop": 2617,
      "##ots": 2618,
      "##ott": 2619,
      "##otte": 2620,
      "##otted": 2621,
      "##otus": 2622,
      "##otyp": 2623,
      "##otype": 2624,
      "##otypes": 2625,
      "##ou": 2626,
      "##oub": 2627,
      "##ouch": 2628,
      "##oud": 2629,
      "##oufl": 2630,
      "##ough": 2631,
      "##ought": 2632,
      "##oughton": 2633,
      "##oughts": 2634,
      "##ouk": 2635,
      "##oul": 2636,
      "##ould": 2637,
      "##oun": 2638,
      "##ounce": 2639,
      "##ounced": 2640,
      "##ouncing": 2641,
      "##ound": 2642,
      "##ounded": 2643,
      "##ounds": 2644,
      "##ount": 2645,
      "##ounted": 2646,
      "##oup": 2647,
      "##oupe": 2648,
      "##our": 2649,
      "##oured": 2650,
      "##ouri": 2651,
      "##ours": 2652,
      "##ourse": 2653,
      "##ourt": 2654,
      "##ous": 2655,
      "##ouse": 2656,
      "##oused": 2657,
      "##ouses": 2658,
      "##ously": 2659,
      "##oust": 2660,
      "##out": 2661,
      "##outed": 2662,
      "##outh": 2663,
      "##outs": 2664,
      "##ouver": 2665,
      "##oux": 2666,
      "##ov": 2667,
      "##ova": 2668,
      "##ovak": 2669,
      "##ovakia": 2670,
      "##ovan": 2671,
      "##ove": 2672,
      "##oved": 2673,
      "##oven": 2674,
      "##over": 2675,
      "##overed": 2676,
      "##overs": 2677,
      "##oves": 2678,
      "##ovic": 2679,
      "##ovich": 2680,
      "##ovny": 2681,
      "##ovo": 2682,
      "##ovsky": 2683,
      "##ow": 2684,
      "##owa": 2685,
      "##owed": 2686,
      "##ower": 2687,
      "##owitz": 2688,
      "##own": 2689,
      "##ows": 2690,
      "##owski": 2691,
      "##ox": 2692,
      "##oxide": 2693,
      "##oy": 2694,
      "##oys": 2695,
      "##oz": 2696,
      "##ozo": 2697,
      "##pa": 2698,
      "##paid": 2699,
      "##pan": 2700,
      "##par": 2701,
      "##part": 2702,
      "##parts": 2703,
      "##pass": 2704,
      "##pat": 2705,
      "##path": 2706,
      "##pe": 2707,
      "##pear": 2708,
      "##pect": 2709,
      "##pective": 2710,
      "##ped": 2711,
      "##per": 2712,
      "##pers": 2713,
      "##pert": 2714,
      "##pes": 2715,
      "##ph": 2716,
      "##phal": 2717,
      "##phis": 2718,
      "##phone": 2719,
      "##phy": 2720,
      "##piece": 2721,
      "##pill": 2722,
      "##pin": 2723,
      "##ping": 2724,
      "##pit": 2725,
      "##pl": 2726,
      "##place": 2727,
      "##plant": 2728,
      "##play": 2729,
      "##ple": 2730,
      "##pleas": 2731,
      "##pm": 2732,
      "##po": 2733,
      "##point": 2734,
      "##points": 2735,
      "##pole": 2736,
      "##pool": 2737,
      "##pop": 2738,
      "##por": 2739,
      "##porary": 2740,
      "##port": 2741,
      "##ported": 2742,
      "##pow": 2743,
      "##power": 2744,
      "##pox": 2745,
      "##pp": 2746,
      "##ppe": 2747,
      "##pped": 2748,
      "##pper": 2749,
      "##pping": 2750,
      "##pr": 2751,
      "##pre": 2752,
      "##pread": 2753,
      "##prene": 2754,
      "##prise": 2755,
      "##pro": 2756,
      "##ps": 2757,
      "##pt": 2758,
      "##ptic": 2759,
      "##ption": 2760,
      "##pton": 2761,
      "##put": 2762,
      "##py": 2763,
      "##qu": 2764,
      "##qual": 2765,
      "##quar": 2766,
      "##que": 2767,
      "##quer": 2768,
      "##ques": 2769,
      "##quest": 2770,
      "##quet": 2771,
      "##quez": 2772,
      "##quin": 2773,
      "##ra": 2774,
      "##rac": 2775,
      "##ract": 2776,
      "##racted": 2777,
      "##rad": 2778,
      "##rae": 2779,
      "##rael": 2780,
      "##raft": 2781,
      "##rag": 2782,
      "##rage": 2783,
      "##raged": 2784,
      "##rah": 2785,
      "##raid": 2786,
      "##rain": 2787,
      "##raints": 2788,
      "##ral": 2789,
      "##raltar": 2790,
      "##ram": 2791,
      "##rams": 2792,
      "##ran": 2793,
      "##rance": 2794,
      "##rane": 2795,
      "##ranean": 2796,
      "##rang": 2797,
      "##rano": 2798,
      "##rant": 2799,
      "##rap": 2800,
      "##rary": 2801,
      "##ras": 2802,
      "##rast": 2803,
      "##rate": 2804,
      "##rated": 2805,
      "##rates": 2806,
      "##rating": 2807,
      "##ration": 2808,
      "##rations": 2809,
      "##rative": 2810,
      "##rator": 2811,
      "##rators": 2812,
      "##raw": 2813,
      "##rawn": 2814,
      "##ray": 2815,
      "##rd": 2816,
      "##re": 2817,
      "##read": 2818,
      "##ready": 2819,
      "##real": 2820,
      "##ream": 2821,
      "##reat": 2822,
      "##reated": 2823,
      "##rec": 2824,
      "##reck": 2825,
      "##recked": 2826,
      "##rect": 2827,
      "##rection": 2828,
      "##red": 2829,
      "##redited": 2830,
      "##ree": 2831,
      "##reek": 2832,
      "##reen": 2833,
      "##rees": 2834,
      "##reet": 2835,
      "##reg": 2836,
      "##regon": 2837,
      "##rehend": 2838,
      "##rehens": 2839,
      "##rel": 2840,
      "##rell": 2841,
      "##rels": 2842,
      "##ren": 2843,
      "##rence": 2844,
      "##rent": 2845,
      "##rep": 2846,
      "##res": 2847,
      "##resp": 2848,
      "##ress": 2849,
      "##ressed": 2850,
      "##ression": 2851,
      "##rest": 2852,
      "##ret": 2853,
      "##rete": 2854,
      "##retion": 2855,
      "##rets": 2856,
      "##rett": 2857,
      "##rew": 2858,
      "##rey": 2859,
      "##rh": 2860,
      "##ri": 2861,
      "##ria": 2862,
      "##riage": 2863,
      "##riages": 2864,
      "##rial": 2865,
      "##rian": 2866,
      "##rians": 2867,
      "##rib": 2868,
      "##ribe": 2869,
      "##ribed": 2870,
      "##rible": 2871,
      "##ric": 2872,
      "##rical": 2873,
      "##rically": 2874,
      "##rice": 2875,
      "##rich": 2876,
      "##rick": 2877,
      "##rics": 2878,
      "##rict": 2879,
      "##rid": 2880,
      "##ridge": 2881,
      "##rie": 2882,
      "##ried": 2883,
      "##rients": 2884,
      "##rier": 2885,
      "##riers": 2886,
      "##ries": 2887,
      "##riet": 2888,
      "##rig": 2889,
      "##right": 2890,
      "##rik": 2891,
      "##ril": 2892,
      "##rim": 2893,
      "##rimin": 2894,
      "##rimination": 2895,
      "##rin": 2896,
      "##rina": 2897,
      "##ring": 2898,
      "##rington": 2899,
      "##rip": 2900,
      "##ript": 2901,
      "##ription": 2902,
      "##riptions": 2903,
      "##ripts": 2904,
      "##ris": 2905,
      "##rise": 2906,
      "##rises": 2907,
      "##rish": 2908,
      "##rising": 2909,
      "##rison": 2910,
      "##rist": 2911,
      "##rit": 2912,
      "##ritic": 2913,
      "##rition": 2914,
      "##rix": 2915,
      "##rm": 2916,
      "##ro": 2917,
      "##road": 2918,
      "##rob": 2919,
      "##roc": 2920,
      "##rock": 2921,
      "##rod": 2922,
      "##rode": 2923,
      "##roe": 2924,
      "##roft": 2925,
      "##rog": 2926,
      "##roid": 2927,
      "##roit": 2928,
      "##roke": 2929,
      "##rol": 2930,
      "##roll": 2931,
      "##rolled": 2932,
      "##rolling": 2933,
      "##rom": 2934,
      "##rome": 2935,
      "##ron": 2936,
      "##ronic": 2937,
      "##rons": 2938,
      "##ront": 2939,
      "##room": 2940,
      "##rooms": 2941,
      "##rop": 2942,
      "##roph": 2943,
      "##ropical": 2944,
      "##ropol": 2945,
      "##ropolis": 2946,
      "##ropri": 2947,
      "##ror": 2948,
      "##ros": 2949,
      "##rosc": 2950,
      "##roscop": 2951,
      "##roscopic": 2952,
      "##roscopy": 2953,
      "##rose": 2954,
      "##rosion": 2955,
      "##ross": 2956,
      "##rosse": 2957,
      "##rot": 2958,
      "##rote": 2959,
      "##rotic": 2960,
      "##rots": 2961,
      "##round": 2962,
      "##rous": 2963,
      "##rov": 2964,
      "##rove": 2965,
      "##row": 2966,
      "##rown": 2967,
      "##rows": 2968,
      "##roy": 2969,
      "##rs": 2970,
      "##ru": 2971,
      "##ruct": 2972,
      "##ruction": 2973,
      "##ructure": 2974,
      "##rum": 2975,
      "##run": 2976,
      "##runner": 2977,
      "##rup": 2978,
      "##rupt": 2979,
      "##rupted": 2980,
      "##ruption": 2981,
      "##rus": 2982,
      "##rust": 2983,
      "##ry": 2984,
      "##rys": 2985,
      "##sa": 2986,
      "##say": 2987,
      "##sbury": 2988,
      "##sc": 2989,
      "##sch": 2990,
      "##se": 2991,
      "##sea": 2992,
      "##season": 2993,
      "##sel": 2994,
      "##self": 2995,
      "##selves": 2996,
      "##sen": 2997,
      "##send": 2998,
      "##sequ": 2999,
      "##ses": 3000,
      "##set": 3001,
      "##sex": 3002,
      "##sey": 3003,
      "##sh": 3004,
      "##sha": 3005,
      "##shi": 3006,
      "##ship": 3007,
      "##shire": 3008,
      "##shore": 3009,
      "##shot": 3010,
      "##si": 3011,
      "##side": 3012,
      "##sis": 3013,
      "##sity": 3014,
      "##sk": 3015,
      "##ski": 3016,
      "##sky": 3017,
      "##sl": 3018,
      "##so": 3019,
      "##soft": 3020,
      "##sohn": 3021,
      "##son": 3022,
      "##sover": 3023,
      "##sp": 3024,
      "##space": 3025,
      "##spe": 3026,
      "##spec": 3027,
      "##spring": 3028,
      "##ss": 3029,
      "##st": 3030,
      "##staff": 3031,
      "##stage": 3032,
      "##stan": 3033,
      "##stand": 3034,
      "##standing": 3035,
      "##star": 3036,
      "##station": 3037,
      "##ste": 3038,
      "##stead": 3039,
      "##sted": 3040,
      "##stein": 3041,
      "##stem": 3042,
      "##sten": 3043,
      "##ster": 3044,
      "##sterdam": 3045,
      "##sters": 3046,
      "##stick": 3047,
      "##stock": 3048,
      "##ston": 3049,
      "##stone": 3050,
      "##stonecraft": 3051,
      "##stones": 3052,
      "##stop": 3053,
      "##storm": 3054,
      "##stown": 3055,
      "##str": 3056,
      "##stration": 3057,
      "##stream": 3058,
      "##strom": 3059,
      "##strong": 3060,
      "##sts": 3061,
      "##su": 3062,
      "##sud": 3063,
      "##sw": 3064,
      "##swick": 3065,
      "##sy": 3066,
      "##ta": 3067,
      "##tail": 3068,
      "##tain": 3069,
      "##tained": 3070,
      "##taining": 3071,
      "##tains": 3072,
      "##tar": 3073,
      "##te": 3074,
      "##ted": 3075,
      "##teen": 3076,
      "##teenth": 3077,
      "##ten": 3078,
      "##tenance": 3079,
      "##tenham": 3080,
      "##tenstein": 3081,
      "##ter": 3082,
      "##tered": 3083,
      "##tering": 3084,
      "##tern": 3085,
      "##ternal": 3086,
      "##ters": 3087,
      "##tershire": 3088,
      "##terson": 3089,
      "##tery": 3090,
      "##tes": 3091,
      "##tford": 3092,
      "##th": 3093,
      "##tha": 3094,
      "##than": 3095,
      "##thel": 3096,
      "##ther": 3097,
      "##thing": 3098,
      "##thood": 3099,
      "##thouse": 3100,
      "##thr": 3101,
      "##throp": 3102,
      "##through": 3103,
      "##thur": 3104,
      "##thy": 3105,
      "##ti": 3106,
      "##tic": 3107,
      "##tical": 3108,
      "##ties": 3109,
      "##til": 3110,
      "##tim": 3111,
      "##time": 3112,
      "##ting": 3113,
      "##tingham": 3114,
      "##tland": 3115,
      "##tle": 3116,
      "##tles": 3117,
      "##to": 3118,
      "##ton": 3119,
      "##took": 3120,
      "##tor": 3121,
      "##town": 3122,
      "##tr": 3123,
      "##tra": 3124,
      "##track": 3125,
      "##trak": 3126,
      "##trans": 3127,
      "##try": 3128,
      "##ts": 3129,
      "##tt": 3130,
      "##ture": 3131,
      "##tures": 3132,
      "##tw": 3133,
      "##ty": 3134,
      "##tys": 3135,
      "##tz": 3136,
      "##ua": 3137,
      "##uable": 3138,
      "##ual": 3139,
      "##uala": 3140,
      "##ually": 3141,
      "##uan": 3142,
      "##uana": 3143,
      "##uard": 3144,
      "##uary": 3145,
      "##uate": 3146,
      "##uated": 3147,
      "##uating": 3148,
      "##uation": 3149,
      "##uations": 3150,
      "##ub": 3151,
      "##uba": 3152,
      "##ube": 3153,
      "##ubl": 3154,
      "##uble": 3155,
      "##ublin": 3156,
      "##ublished": 3157,
      "##ubs": 3158,
      "##uc": 3159,
      "##uce": 3160,
      "##uced": 3161,
      "##ucer": 3162,
      "##uces": 3163,
      "##uch": 3164,
      "##uches": 3165,
      "##uchi": 3166,
      "##ucing": 3167,
      "##uck": 3168,
      "##ucks": 3169,
      "##ucky": 3170,
      "##ucle": 3171,
      "##uct": 3172,
      "##uction": 3173,
      "##uctions": 3174,
      "##uctive": 3175,
      "##ud": 3176,
      "##uda": 3177,
      "##ude": 3178,
      "##uded": 3179,
      "##uder": 3180,
      "##udes": 3181,
      "##udi": 3182,
      "##uding": 3183,
      "##ue": 3184,
      "##ued": 3185,
      "##uel": 3186,
      "##uence": 3187,
      "##ues": 3188,
      "##uese": 3189,
      "##uez": 3190,
      "##uff": 3191,
      "##ug": 3192,
      "##uge": 3193,
      "##ugg": 3194,
      "##ugh": 3195,
      "##ught": 3196,
      "##ugu": 3197,
      "##ui": 3198,
      "##uing": 3199,
      "##uit": 3200,
      "##uits": 3201,
      "##uity": 3202,
      "##uj": 3203,
      "##uk": 3204,
      "##uka": 3205,
      "##uki": 3206,
      "##ukov": 3207,
      "##ul": 3208,
      "##ula": 3209,
      "##ular": 3210,
      "##ulate": 3211,
      "##ulated": 3212,
      "##ulates": 3213,
      "##ulating": 3214,
      "##ulation": 3215,
      "##ulations": 3216,
      "##ulative": 3217,
      "##ulator": 3218,
      "##ulators": 3219,
      "##ulatory": 3220,
      "##ule": 3221,
      "##uled": 3222,
      "##ulent": 3223,
      "##ules": 3224,
      "##ulf": 3225,
      "##uli": 3226,
      "##ulin": 3227,
      "##ull": 3228,
      "##ully": 3229,
      "##ulpt": 3230,
      "##uls": 3231,
      "##ulsion": 3232,
      "##ult": 3233,
      "##ultane": 3234,
      "##ulture": 3235,
      "##ulty": 3236,
      "##ulu": 3237,
      "##ulus": 3238,
      "##um": 3239,
      "##uma": 3240,
      "##uman": 3241,
      "##umar": 3242,
      "##umb": 3243,
      "##umbent": 3244,
      "##umber": 3245,
      "##umbered": 3246,
      "##umberland": 3247,
      "##umble": 3248,
      "##umbr": 3249,
      "##ume": 3250,
      "##umed": 3251,
      "##ument": 3252,
      "##uments": 3253,
      "##umer": 3254,
      "##umes": 3255,
      "##umi": 3256,
      "##umin": 3257,
      "##umn": 3258,
      "##umont": 3259,
      "##ump": 3260,
      "##umped": 3261,
      "##umps": 3262,
      "##un": 3263,
      "##una": 3264,
      "##unc": 3265,
      "##unciation": 3266,
      "##unct": 3267,
      "##unction": 3268,
      "##und": 3269,
      "##unda": 3270,
      "##under": 3271,
      "##une": 3272,
      "##unes": 3273,
      "##ung": 3274,
      "##unk": 3275,
      "##unning": 3276,
      "##unt": 3277,
      "##unte": 3278,
      "##uous": 3279,
      "##up": 3280,
      "##upp": 3281,
      "##ur": 3282,
      "##ura": 3283,
      "##urai": 3284,
      "##ural": 3285,
      "##urally": 3286,
      "##urance": 3287,
      "##uras": 3288,
      "##urated": 3289,
      "##uration": 3290,
      "##urb": 3291,
      "##urbed": 3292,
      "##urch": 3293,
      "##urd": 3294,
      "##ure": 3295,
      "##ured": 3296,
      "##urer": 3297,
      "##urers": 3298,
      "##ures": 3299,
      "##urg": 3300,
      "##urgical": 3301,
      "##uri": 3302,
      "##uries": 3303,
      "##uring": 3304,
      "##urities": 3305,
      "##urity": 3306,
      "##urn": 3307,
      "##urnal": 3308,
      "##uro": 3309,
      "##urr": 3310,
      "##urray": 3311,
      "##urred": 3312,
      "##urs": 3313,
      "##urst": 3314,
      "##urt": 3315,
      "##ury": 3316,
      "##us": 3317,
      "##usa": 3318,
      "##usal": 3319,
      "##usalem": 3320,
      "##usc": 3321,
      "##use": 3322,
      "##used": 3323,
      "##uses": 3324,
      "##ush": 3325,
      "##ushed": 3326,
      "##using": 3327,
      "##usion": 3328,
      "##usions": 3329,
      "##usive": 3330,
      "##uss": 3331,
      "##ussion": 3332,
      "##ussy": 3333,
      "##ust": 3334,
      "##usted": 3335,
      "##uster": 3336,
      "##usters": 3337,
      "##ut": 3338,
      "##utation": 3339,
      "##ute": 3340,
      "##uted": 3341,
      "##uter": 3342,
      "##uters": 3343,
      "##utes": 3344,
      "##uth": 3345,
      "##uther": 3346,
      "##uting": 3347,
      "##ution": 3348,
      "##utions": 3349,
      "##utnant": 3350,
      "##uto": 3351,
      "##utor": 3352,
      "##utors": 3353,
      "##utory": 3354,
      "##uts": 3355,
      "##utt": 3356,
      "##utz": 3357,
      "##uum": 3358,
      "##uv": 3359,
      "##ux": 3360,
      "##uz": 3361,
      "##va": 3362,
      "##vae": 3363,
      "##val": 3364,
      "##van": 3365,
      "##vana": 3366,
      "##var": 3367,
      "##vas": 3368,
      "##vation": 3369,
      "##ve": 3370,
      "##ved": 3371,
      "##veill": 3372,
      "##veillance": 3373,
      "##vel": 3374,
      "##veland": 3375,
      "##velop": 3376,
      "##velt": 3377,
      "##vement": 3378,
      "##vements": 3379,
      "##ven": 3380,
      "##vent": 3381,
      "##ver": 3382,
      "##vere": 3383,
      "##vern": 3384,
      "##vers": 3385,
      "##verse": 3386,
      "##vert": 3387,
      "##verty": 3388,
      "##ves": 3389,
      "##vester": 3390,
      "##vet": 3391,
      "##vex": 3392,
      "##vi": 3393,
      "##via": 3394,
      "##vic": 3395,
      "##view": 3396,
      "##vik": 3397,
      "##ville": 3398,
      "##vin": 3399,
      "##ving": 3400,
      "##vis": 3401,
      "##vised": 3402,
      "##vision": 3403,
      "##vo": 3404,
      "##vre": 3405,
      "##wa": 3406,
      "##waffe": 3407,
      "##wald": 3408,
      "##walk": 3409,
      "##wall": 3410,
      "##wan": 3411,
      "##war": 3412,
      "##ward": 3413,
      "##wards": 3414,
      "##ware": 3415,
      "##wart": 3416,
      "##water": 3417,
      "##waters": 3418,
      "##way": 3419,
      "##ways": 3420,
      "##we": 3421,
      "##ween": 3422,
      "##weight": 3423,
      "##well": 3424,
      "##wen": 3425,
      "##wer": 3426,
      "##west": 3427,
      "##western": 3428,
      "##wh": 3429,
      "##where": 3430,
      "##while": 3431,
      "##wich": 3432,
      "##wick": 3433,
      "##wide": 3434,
      "##wig": 3435,
      "##win": 3436,
      "##wind": 3437,
      "##wing": 3438,
      "##wise": 3439,
      "##wit": 3440,
      "##with": 3441,
      "##wn": 3442,
      "##wned": 3443,
      "##wning": 3444,
      "##wold": 3445,
      "##woman": 3446,
      "##wood": 3447,
      "##wor": 3448,
      "##word": 3449,
      "##work": 3450,
      "##works": 3451,
      "##world": 3452,
      "##worm": 3453,
      "##worth": 3454,
      "##worthy": 3455,
      "##wright": 3456,
      "##writ": 3457,
      "##writer": 3458,
      "##ws": 3459,
      "##wy": 3460,
      "##wyn": 3461,
      "##xes": 3462,
      "##xic": 3463,
      "##xide": 3464,
      "##xim": 3465,
      "##xt": 3466,
      "##xton": 3467,
      "##xual": 3468,
      "##ya": 3469,
      "##yan": 3470,
      "##yard": 3471,
      "##yards": 3472,
      "##yb": 3473,
      "##yc": 3474,
      "##yce": 3475,
      "##ych": 3476,
      "##ycl": 3477,
      "##yd": 3478,
      "##ye": 3479,
      "##yed": 3480,
      "##yer": 3481,
      "##yers": 3482,
      "##ying": 3483,
      "##yl": 3484,
      "##ylan": 3485,
      "##yle": 3486,
      "##yler": 3487,
      "##yll": 3488,
      "##ylon": 3489,
      "##ylum": 3490,
      "##ylv": 3491,
      "##ylvania": 3492,
      "##ym": 3493,
      "##yment": 3494,
      "##yn": 3495,
      "##yne": 3496,
      "##ynt": 3497,
      "##yon": 3498,
      "##yp": 3499,
      "##yr": 3500,
      "##ys": 3501,
      "##ysc": 3502,
      "##ysical": 3503,
      "##ysics": 3504,
      "##ysis": 3505,
      "##yss": 3506,
      "##ystem": 3507,
      "##yt": 3508,
      "##yth": 3509,
      "##za": 3510,
      "##zac": 3511,
      "##zan": 3512,
      "##zant": 3513,
      "##zb": 3514,
      "##ze": 3515,
      "##zed": 3516,
      "##zef": 3517,
      "##zen": 3518,
      "##zens": 3519,
      "##zer": 3520,
      "##zes": 3521,
      "##zi": 3522,
      "##zier": 3523,
      "##zig": 3524,
      "##zing": 3525,
      "##zman": 3526,
      "##zo": 3527,
      "##zon": 3528,
      "##zone": 3529,
      "##zy": 3530,
      "##zym": 3531,
      "##zyme": 3532,
      "##zz": 3533,
      "##zzle": 3534,
      "##ðr": 3535,
      "##ław": 3536,
      "00": 3537,
      "000": 3538,
      "007": 3539,
      "01": 3540,
      "02": 3541,
      "03": 3542,
      "04": 3543,
      "05": 3544,
      "06": 3545,
      "07": 3546,
      "08": 3547,
      "09": 3548,
      "10": 3549,
      "100": 3550,
      "1000": 3551,
      "100th": 3552,
      "101": 3553,
      "102": 3554,
      "103": 3555,
      "104": 3556,
      "105": 3557,
      "106": 3558,
      "107": 3559,
      "108": 3560,
      "109": 3561,
      "10th": 3562,
      "11": 3563,
      "110": 3564,
      "111": 3565,
      "112": 3566,
      "113": 3567,
      "114": 3568,
      "115": 3569,
      "116": 3570,
      "117": 3571,
      "118": 3572,
      "119": 3573,
      "11th": 3574,
      "12": 3575,
      "120": 3576,
      "1200": 3577,
      "121": 3578,
      "122": 3579,
      "123": 3580,
      "124": 3581,
      "125": 3582,
      "126": 3583,
      "127": 3584,
      "128": 3585,
      "129": 3586,
      "12th": 3587,
      "13": 3588,
      "130": 3589,
      "131": 3590,
      "132": 3591,
      "133": 3592,
      "134": 3593,
      "135": 3594,
      "136": 3595,
      "137": 3596,
      "138": 3597,
      "139": 3598,
      "13th": 3599,
      "14": 3600,
      "140": 3601,
      "141": 3602,
      "142": 3603,
      "143": 3604,
      "144": 3605,
      "145": 3606,
      "146": 3607,
      "147": 3608,
      "148": 3609,
      "149": 3610,
      "14th": 3611,
      "15": 3612,
      "150": 3613,
      "1500": 3614,
      "151": 3615,
      "152": 3616,
      "153": 3617,
      "154": 3618,
      "155": 3619,
      "156": 3620,
      "157": 3621,
      "158": 3622,
      "159": 3623,
      "15th": 3624,
      "16": 3625,
      "160": 3626,
      "161": 3627,
      "162": 3628,
      "163": 3629,
      "164": 3630,
      "165": 3631,
      "166": 3632,
      "167": 3633,
      "168": 3634,
      "169": 3635,
      "16th": 3636,
      "17": 3637,
      "170": 3638,
      "171": 3639,
      "172": 3640,
      "173": 3641,
      "174": 3642,
      "175": 3643,
      "176": 3644,
      "177": 3645,
      "1775": 3646,
      "1776": 3647,
      "1777": 3648,
      "1778": 3649,
      "1779": 3650,
      "178": 3651,
      "1780": 3652,
      "1781": 3653,
      "1783": 3654,
      "1787": 3655,
      "1789": 3656,
      "179": 3657,
      "1790": 3658,
      "1791": 3659,
      "1792": 3660,
      "1793": 3661,
      "1794": 3662,
      "1795": 3663,
      "1796": 3664,
      "1797": 3665,
      "1798": 3666,
      "1799": 3667,
      "17th": 3668,
      "18": 3669,
      "180": 3670,
      "1800": 3671,
      "1801": 3672,
      "1802": 3673,
      "1803": 3674,
      "1804": 3675,
      "1805": 3676,
      "1806": 3677,
      "1807": 3678,
      "1808": 3679,
      "1809": 3680,
      "181": 3681,
      "1810": 3682,
      "1811": 3683,
      "1812": 3684,
      "1813": 3685,
      "1814": 3686,
      "1815": 3687,
      "1816": 3688,
      "1817": 3689,
      "1818": 3690,
      "1819": 3691,
      "182": 3692,
      "1820": 3693,
      "1821": 3694,
      "1823": 3695,
      "1824": 3696,
      "1825": 3697,
      "1826": 3698,
      "1827": 3699,
      "1828": 3700,
      "1829": 3701,
      "183": 3702,
      "1830": 3703,
      "1830s": 3704,
      "1831": 3705,
      "1832": 3706,
      "1833": 3707,
      "1834": 3708,
      "1835": 3709,
      "1836": 3710,
      "1837": 3711,
      "1838": 3712,
      "1839": 3713,
      "184": 3714,
      "1840": 3715,
      "1840s": 3716,
      "1841": 3717,
      "1842": 3718,
      "1843": 3719,
      "1844": 3720,
      "1845": 3721,
      "1846": 3722,
      "1847": 3723,
      "1848": 3724,
      "1849": 3725,
      "185": 3726,
      "1850": 3727,
      "1850s": 3728,
      "1851": 3729,
      "1852": 3730,
      "1853": 3731,
      "1854": 3732,
      "1855": 3733,
      "1856": 3734,
      "1857": 3735,
      "1858": 3736,
      "1859": 3737,
      "186": 3738,
      "1860": 3739,
      "1860s": 3740,
      "1861": 3741,
      "1862": 3742,
      "1863": 3743,
      "1864": 3744,
      "1865": 3745,
      "1866": 3746,
      "1867": 3747,
      "1868": 3748,
      "1869": 3749,
      "187": 3750,
      "1870": 3751,
      "1870s": 3752,
      "1871": 3753,
      "1872": 3754,
      "1873": 3755,
      "1874": 3756,
      "1875": 3757,
      "1876": 3758,
      "1877": 3759,
      "1878": 3760,
      "1879": 3761,
      "188": 3762,
      "1880": 3763,
      "1880s": 3764,
      "1881": 3765,
      "1882": 3766,
      "1883": 3767,
      "1884": 3768,
      "1885": 3769,
      "1886": 3770,
      "1887": 3771,
      "1888": 3772,
      "1889": 3773,
      "189": 3774,
      "1890": 3775,
      "1890s": 3776,
      "1891": 3777,
      "1892": 3778,
      "1893": 3779,
      "1894": 3780,
      "1895": 3781,
      "1896": 3782,
      "1897": 3783,
      "1898": 3784,
      "1899": 3785,
      "18th": 3786,
      "19": 3787,
      "190": 3788,
      "1900": 3789,
      "1900s": 3790,
      "1901": 3791,
      "1902": 3792,
      "1903": 3793,
      "1904": 3794,
      "1905": 3795,
      "1906": 3796,
      "1907": 3797,
      "1908": 3798,
      "1909": 3799,
      "191": 3800,
      "1910": 3801,
      "1911": 3802,
      "1912": 3803,
      "1913": 3804,
      "1914": 3805,
      "1915": 3806,
      "1916": 3807,
      "1917": 3808,
      "1918": 3809,
      "1919": 3810,
      "192": 3811,
      "1920": 3812,
      "1920s": 3813,
      "1921": 3814,
      "1922": 3815,
      "1923": 3816,
      "1924": 3817,
      "1925": 3818,
      "1926": 3819,
      "1927": 3820,
      "1928": 3821,
      "1929": 3822,
      "193": 3823,
      "1930": 3824,
      "1930s": 3825,
      "1931": 3826,
      "1932": 3827,
      "1933": 3828,
      "1934": 3829,
      "1935": 3830,
      "1936": 3831,
      "1937": 3832,
      "1938": 3833,
      "1939": 3834,
      "194": 3835,
      "1940": 3836,
      "1940s": 3837,
      "1941": 3838,
      "1942": 3839,
      "1943": 3840,
      "1944": 3841,
      "1945": 3842,
      "1946": 3843,
      "1947": 3844,
      "1948": 3845,
      "1949": 3846,
      "195": 3847,
      "1950": 3848,
      "1950s": 3849,
      "1951": 3850,
      "1952": 3851,
      "1953": 3852,
      "1954": 3853,
      "1955": 3854,
      "1956": 3855,
      "1957": 3856,
      "1958": 3857,
      "1959": 3858,
      "196": 3859,
      "1960": 3860,
      "1960s": 3861,
      "1961": 3862,
      "1962": 3863,
      "1963": 3864,
      "1964": 3865,
      "1965": 3866,
      "1966": 3867,
      "1967": 3868,
      "1968": 3869,
      "1969": 3870,
      "197": 3871,
      "1970": 3872,
      "1970s": 3873,
      "1971": 3874,
      "1972": 3875,
      "1973": 3876,
      "1974": 3877,
      "1975": 3878,
      "1976": 3879,
      "1977": 3880,
      "1978": 3881,
      "1979": 3882,
      "198": 3883,
      "1980": 3884,
      "1980s": 3885,
      "1981": 3886,
      "1982": 3887,
      "1983": 3888,
      "1984": 3889,
      "1985": 3890,
      "1986": 3891,
      "1987": 3892,
      "1988": 3893,
      "1989": 3894,
      "199": 3895,
      "1990": 3896,
      "1990s": 3897,
      "1991": 3898,
      "1992": 3899,
      "1993": 3900,
      "1994": 3901,
      "1995": 3902,
      "1996": 3903,
      "1997": 3904,
      "1998": 3905,
      "1999": 3906,
      "19th": 3907,
      "1st": 3908,
      "20": 3909,
      "200": 3910,
      "2000": 3911,
      "2000s": 3912,
      "2001": 3913,
      "2002": 3914,
      "2003": 3915,
      "2004": 3916,
      "2005": 3917,
      "2006": 3918,
      "2007": 3919,
      "2008": 3920,
      "2009": 3921,
      "201": 3922,
      "2010": 3923,
      "2011": 3924,
      "2012": 3925,
      "2013": 3926,
      "2014": 3927,
      "2015": 3928,
      "2016": 3929,
      "2017": 3930,
      "202": 3931,
      "2020": 3932,
      "203": 3933,
      "205": 3934,
      "20th": 3935,
      "21": 3936,
      "210": 3937,
      "215": 3938,
      "21st": 3939,
      "22": 3940,
      "220": 3941,
      "225": 3942,
      "22nd": 3943,
      "23": 3944,
      "230": 3945,
      "235": 3946,
      "23rd": 3947,
      "24": 3948,
      "240": 3949,
      "24th": 3950,
      "25": 3951,
      "250": 3952,
      "254": 3953,
      "25th": 3954,
      "26": 3955,
      "260": 3956,
      "26th": 3957,
      "27": 3958,
      "270": 3959,
      "27th": 3960,
      "28": 3961,
      "280": 3962,
      "29": 3963,
      "290": 3964,
      "29th": 3965,
      "2d": 3966,
      "2nd": 3967,
      "30": 3968,
      "300": 3969,
      "3000": 3970,
      "305": 3971,
      "30th": 3972,
      "31": 3973,
      "32": 3974,
      "320": 3975,
      "33": 3976,
      "330": 3977,
      "34": 3978,
      "340": 3979,
      "35": 3980,
      "350": 3981,
      "36": 3982,
      "360": 3983,
      "37": 3984,
      "370": 3985,
      "375": 3986,
      "38": 3987,
      "380": 3988,
      "38th": 3989,
      "39": 3990,
      "3d": 3991,
      "3ds": 3992,
      "3rd": 3993,
      "40": 3994,
      "400": 3995,
      "401": 3996,
      "40th": 3997,
      "41": 3998,
      "410": 3999,
      "42": 4000,
      "420": 4001,
      "43": 4002,
      "44": 4003,
      "440": 4004,
      "45": 4005,
      "450": 4006,
      "46": 4007,
      "460": 4008,
      "47": 4009,
      "48": 4010,
      "480": 4011,
      "49": 4012,
      "4th": 4013,
      "50": 4014,
      "500": 4015,
      "50th": 4016,
      "51": 4017,
      "52": 4018,
      "53": 4019,
      "54": 4020,
      "55": 4021,
      "550": 4022,
      "56": 4023,
      "57": 4024,
      "58": 4025,
      "59": 4026,
      "5th": 4027,
      "60": 4028,
      "600": 4029,
      "61": 4030,
      "610": 4031,
      "62": 4032,
      "63": 4033,
      "64": 4034,
      "65": 4035,
      "650": 4036,
      "66": 4037,
      "67": 4038,
      "68": 4039,
      "69": 4040,
      "6th": 4041,
      "70": 4042,
      "700": 4043,
      "71": 4044,
      "72": 4045,
      "73": 4046,
      "74": 4047,
      "747": 4048,
      "75": 4049,
      "750": 4050,
      "76": 4051,
      "77": 4052,
      "78": 4053,
      "79": 4054,
      "7th": 4055,
      "80": 4056,
      "800": 4057,
      "81": 4058,
      "82": 4059,
      "83": 4060,
      "84": 4061,
      "85": 4062,
      "850": 4063,
      "86": 4064,
      "87": 4065,
      "88": 4066,
      "89": 4067,
      "8th": 4068,
      "90": 4069,
      "900": 4070,
      "91": 4071,
      "92": 4072,
      "93": 4073,
      "94": 4074,
      "95": 4075,
      "96": 4076,
      "97": 4077,
      "978": 4078,
      "98": 4079,
      "99": 4080,
      "9th": 4081,
      "a3": 4082,
      "aa": 4083,
      "aaa": 4084,
      "aar": 4085,
      "aaron": 4086,
      "ab": 4087,
      "abandon": 4088,
      "abandoned": 4089,
      "abb": 4090,
      "abbas": 4091,
      "abbey": 4092,
      "abbot": 4093,
      "abbott": 4094,
      "abbre": 4095,
      "abbrev": 4096,
      "abbreviated": 4097,
      "abc": 4098,
      "abd": 4099,
      "abdom": 4100,
      "abdomen": 4101,
      "abdul": 4102,
      "abel": 4103,
      "aber": 4104,
      "aberd": 4105,
      "aberdeen": 4106,
      "abilities": 4107,
      "ability": 4108,
      "able": 4109,
      "abn": 4110,
      "abnormal": 4111,
      "aboard": 4112,
      "abol": 4113,
      "abolished": 4114,
      "abolition": 4115,
      "aborigin": 4116,
      "aboriginal": 4117,
      "abortion": 4118,
      "about": 4119,
      "above": 4120,
      "abra": 4121,
      "abraham": 4122,
      "abroad": 4123,
      "abrupt": 4124,
      "abs": 4125,
      "absence": 4126,
      "absent": 4127,
      "absol": 4128,
      "absolut": 4129,
      "absolute": 4130,
      "absolutely": 4131,
      "absor": 4132,
      "absorb": 4133,
      "absorbed": 4134,
      "absorption": 4135,
      "abst": 4136,
      "abstract": 4137,
      "absurd": 4138,
      "abu": 4139,
      "abund": 4140,
      "abundance": 4141,
      "abundant": 4142,
      "abuse": 4143,
      "abyss": 4144,
      "ac": 4145,
      "acad": 4146,
      "academ": 4147,
      "academic": 4148,
      "academics": 4149,
      "academy": 4150,
      "acc": 4151,
      "acceler": 4152,
      "accelerated": 4153,
      "accent": 4154,
      "accept": 4155,
      "acceptable": 4156,
      "acceptance": 4157,
      "accepted": 4158,
      "accepting": 4159,
      "accepts": 4160,
      "access": 4161,
      "accessed": 4162,
      "accessible": 4163,
      "accession": 4164,
      "accident": 4165,
      "accidental": 4166,
      "accidentally": 4167,
      "accidents": 4168,
      "acclaim": 4169,
      "acclaimed": 4170,
      "accol": 4171,
      "accommod": 4172,
      "accommodate": 4173,
      "accommodation": 4174,
      "accompan": 4175,
      "accompanied": 4176,
      "accompaniment": 4177,
      "accompany": 4178,
      "accompanying": 4179,
      "accompl": 4180,
      "accomplish": 4181,
      "accomplished": 4182,
      "accomplishments": 4183,
      "accord": 4184,
      "accordance": 4185,
      "according": 4186,
      "accordingly": 4187,
      "account": 4188,
      "accounted": 4189,
      "accounting": 4190,
      "accounts": 4191,
      "accum": 4192,
      "accumulated": 4193,
      "accur": 4194,
      "accuracy": 4195,
      "accurate": 4196,
      "accurately": 4197,
      "accus": 4198,
      "accusations": 4199,
      "accused": 4200,
      "ace": 4201,
      "acet": 4202,
      "ach": 4203,
      "achie": 4204,
      "achieve": 4205,
      "achieved": 4206,
      "achievement": 4207,
      "achievements": 4208,
      "achieving": 4209,
      "acid": 4210,
      "acidic": 4211,
      "acids": 4212,
      "acknow": 4213,
      "acknowled": 4214,
      "acknowledged": 4215,
      "aclu": 4216,
      "acoust": 4217,
      "acoustic": 4218,
      "acqu": 4219,
      "acquaint": 4220,
      "acquire": 4221,
      "acquired": 4222,
      "acquiring": 4223,
      "acquisition": 4224,
      "acquitted": 4225,
      "acre": 4226,
      "acres": 4227,
      "across": 4228,
      "act": 4229,
      "acted": 4230,
      "actin": 4231,
      "acting": 4232,
      "action": 4233,
      "actions": 4234,
      "activ": 4235,
      "activated": 4236,
      "active": 4237,
      "actively": 4238,
      "activision": 4239,
      "activist": 4240,
      "activists": 4241,
      "activities": 4242,
      "activity": 4243,
      "actor": 4244,
      "actors": 4245,
      "actress": 4246,
      "acts": 4247,
      "actual": 4248,
      "actually": 4249,
      "acute": 4250,
      "ad": 4251,
      "adam": 4252,
      "adams": 4253,
      "adap": 4254,
      "adapt": 4255,
      "adaptation": 4256,
      "adaptations": 4257,
      "adapted": 4258,
      "add": 4259,
      "added": 4260,
      "addiction": 4261,
      "adding": 4262,
      "addition": 4263,
      "additional": 4264,
      "additionally": 4265,
      "additions": 4266,
      "address": 4267,
      "addressed": 4268,
      "addresses": 4269,
      "addressing": 4270,
      "adds": 4271,
      "adela": 4272,
      "adelaide": 4273,
      "aden": 4274,
      "adequ": 4275,
      "adequate": 4276,
      "adher": 4277,
      "adj": 4278,
      "adjacent": 4279,
      "adjo": 4280,
      "adjoining": 4281,
      "adjust": 4282,
      "adm": 4283,
      "admin": 4284,
      "administ": 4285,
      "administer": 4286,
      "administered": 4287,
      "administration": 4288,
      "administrative": 4289,
      "administrator": 4290,
      "admir": 4291,
      "admiral": 4292,
      "admiralty": 4293,
      "admiration": 4294,
      "admired": 4295,
      "admission": 4296,
      "admit": 4297,
      "admits": 4298,
      "admitted": 4299,
      "adoles": 4300,
      "adolf": 4301,
      "adop": 4302,
      "adopt": 4303,
      "adopted": 4304,
      "adopting": 4305,
      "adoption": 4306,
      "adorn": 4307,
      "adren": 4308,
      "adri": 4309,
      "adrian": 4310,
      "adriatic": 4311,
      "ads": 4312,
      "adul": 4313,
      "adult": 4314,
      "adulthood": 4315,
      "adults": 4316,
      "adv": 4317,
      "advance": 4318,
      "advanced": 4319,
      "advancement": 4320,
      "advances": 4321,
      "advancing": 4322,
      "advant": 4323,
      "advantage": 4324,
      "advantages": 4325,
      "advent": 4326,
      "adventure": 4327,
      "adventures": 4328,
      "advers": 4329,
      "adverse": 4330,
      "advert": 4331,
      "advertis": 4332,
      "advertised": 4333,
      "advertisement": 4334,
      "advertisements": 4335,
      "advertising": 4336,
      "advice": 4337,
      "advis": 4338,
      "advised": 4339,
      "adviser": 4340,
      "advisor": 4341,
      "advisory": 4342,
      "advoc": 4343,
      "advocacy": 4344,
      "advocate": 4345,
      "advocated": 4346,
      "advocates": 4347,
      "ae": 4348,
      "aer": 4349,
      "aerial": 4350,
      "aeron": 4351,
      "aerospace": 4352,
      "aest": 4353,
      "aesthetic": 4354,
      "af": 4355,
      "aff": 4356,
      "affair": 4357,
      "affairs": 4358,
      "affect": 4359,
      "affected": 4360,
      "affecting": 4361,
      "affection": 4362,
      "affects": 4363,
      "affili": 4364,
      "affiliate": 4365,
      "affiliated": 4366,
      "affirmed": 4367,
      "affl": 4368,
      "afford": 4369,
      "afghan": 4370,
      "afghanistan": 4371,
      "afl": 4372,
      "afr": 4373,
      "afraid": 4374,
      "africa": 4375,
      "african": 4376,
      "aft": 4377,
      "after": 4378,
      "aftermath": 4379,
      "aftern": 4380,
      "afternoon": 4381,
      "afterward": 4382,
      "afterwards": 4383,
      "ag": 4384,
      "again": 4385,
      "against": 4386,
      "age": 4387,
      "aged": 4388,
      "agencies": 4389,
      "agency": 4390,
      "agenda": 4391,
      "agent": 4392,
      "agents": 4393,
      "ages": 4394,
      "aggreg": 4395,
      "aggregate": 4396,
      "aggregator": 4397,
      "aggress": 4398,
      "aggression": 4399,
      "aggressive": 4400,
      "aging": 4401,
      "agn": 4402,
      "agnes": 4403,
      "ago": 4404,
      "agre": 4405,
      "agree": 4406,
      "agreed": 4407,
      "agreement": 4408,
      "agreements": 4409,
      "agrees": 4410,
      "agric": 4411,
      "agricult": 4412,
      "agricultural": 4413,
      "agriculture": 4414,
      "aground": 4415,
      "agu": 4416,
      "aguilera": 4417,
      "ah": 4418,
      "ahead": 4419,
      "ahl": 4420,
      "ai": 4421,
      "aid": 4422,
      "aided": 4423,
      "aids": 4424,
      "ail": 4425,
      "aim": 4426,
      "aimed": 4427,
      "aiming": 4428,
      "aims": 4429,
      "ain": 4430,
      "air": 4431,
      "airborne": 4432,
      "airbus": 4433,
      "aircraft": 4434,
      "aired": 4435,
      "aires": 4436,
      "airfield": 4437,
      "airing": 4438,
      "airline": 4439,
      "airlines": 4440,
      "airpl": 4441,
      "airplane": 4442,
      "airplay": 4443,
      "airport": 4444,
      "airports": 4445,
      "airways": 4446,
      "aj": 4447,
      "ak": 4448,
      "al": 4449,
      "alab": 4450,
      "alabama": 4451,
      "alam": 4452,
      "alamos": 4453,
      "alan": 4454,
      "alarm": 4455,
      "alaska": 4456,
      "alb": 4457,
      "albania": 4458,
      "albanian": 4459,
      "albany": 4460,
      "albeit": 4461,
      "albert": 4462,
      "alberta": 4463,
      "alberto": 4464,
      "albion": 4465,
      "album": 4466,
      "albums": 4467,
      "alc": 4468,
      "alco": 4469,
      "alcoh": 4470,
      "alcohol": 4471,
      "alcoholic": 4472,
      "ald": 4473,
      "alder": 4474,
      "ale": 4475,
      "alec": 4476,
      "alert": 4477,
      "alex": 4478,
      "alexand": 4479,
      "alexander": 4480,
      "alexandra": 4481,
      "alexandria": 4482,
      "alf": 4483,
      "alfred": 4484,
      "alg": 4485,
      "alge": 4486,
      "algebra": 4487,
      "alger": 4488,
      "algor": 4489,
      "algorithm": 4490,
      "ali": 4491,
      "alice": 4492,
      "alien": 4493,
      "aliens": 4494,
      "align": 4495,
      "aligned": 4496,
      "alignment": 4497,
      "alike": 4498,
      "alison": 4499,
      "alive": 4500,
      "alk": 4501,
      "all": 4502,
      "allah": 4503,
      "allan": 4504,
      "alle": 4505,
      "alleg": 4506,
      "allegations": 4507,
      "alleged": 4508,
      "allegedly": 4509,
      "allegiance": 4510,
      "allen": 4511,
      "alley": 4512,
      "alliance": 4513,
      "allied": 4514,
      "allies": 4515,
      "allison": 4516,
      "allmusic": 4517,
      "alloc": 4518,
      "allocated": 4519,
      "allow": 4520,
      "allowed": 4521,
      "allowing": 4522,
      "allows": 4523,
      "alloy": 4524,
      "alloys": 4525,
      "ally": 4526,
      "alm": 4527,
      "alma": 4528,
      "almost": 4529,
      "alone": 4530,
      "along": 4531,
      "alongside": 4532,
      "alonso": 4533,
      "alp": 4534,
      "alph": 4535,
      "alpha": 4536,
      "alphabet": 4537,
      "alpine": 4538,
      "already": 4539,
      "also": 4540,
      "alt": 4541,
      "altar": 4542,
      "alter": 4543,
      "alterations": 4544,
      "altered": 4545,
      "altern": 4546,
      "alternate": 4547,
      "alternating": 4548,
      "alternative": 4549,
      "alternatively": 4550,
      "alternatives": 4551,
      "alth": 4552,
      "although": 4553,
      "altitude": 4554,
      "alto": 4555,
      "altogether": 4556,
      "alum": 4557,
      "alumin": 4558,
      "aluminium": 4559,
      "aluminum": 4560,
      "alumn": 4561,
      "alumni": 4562,
      "alv": 4563,
      "always": 4564,
      "am": 4565,
      "amalg": 4566,
      "amar": 4567,
      "amate": 4568,
      "amateur": 4569,
      "amaz": 4570,
      "amazing": 4571,
      "amazon": 4572,
      "amb": 4573,
      "ambass": 4574,
      "ambassador": 4575,
      "amber": 4576,
      "ambient": 4577,
      "ambig": 4578,
      "ambiguous": 4579,
      "ambition": 4580,
      "ambitious": 4581,
      "ambul": 4582,
      "ambulance": 4583,
      "ambush": 4584,
      "amen": 4585,
      "amend": 4586,
      "amended": 4587,
      "amendment": 4588,
      "amendments": 4589,
      "amer": 4590,
      "americ": 4591,
      "america": 4592,
      "american": 4593,
      "americans": 4594,
      "americas": 4595,
      "amid": 4596,
      "amino": 4597,
      "amir": 4598,
      "ammon": 4599,
      "ammun": 4600,
      "ammunition": 4601,
      "amn": 4602,
      "among": 4603,
      "amongst": 4604,
      "amount": 4605,
      "amounted": 4606,
      "amounts": 4607,
      "amp": 4608,
      "amph": 4609,
      "amphib": 4610,
      "amphibious": 4611,
      "ampl": 4612,
      "amsterdam": 4613,
      "amtrak": 4614,
      "amus": 4615,
      "amusement": 4616,
      "amy": 4617,
      "an": 4618,
      "ana": 4619,
      "anal": 4620,
      "analog": 4621,
      "analogous": 4622,
      "analogy": 4623,
      "analy": 4624,
      "analys": 4625,
      "analyses": 4626,
      "analysis": 4627,
      "analysts": 4628,
      "analyzed": 4629,
      "anarch": 4630,
      "anarchist": 4631,
      "anat": 4632,
      "anatomy": 4633,
      "anc": 4634,
      "ancest": 4635,
      "ancestor": 4636,
      "ancestors": 4637,
      "ancestral": 4638,
      "ancestry": 4639,
      "anch": 4640,
      "anchor": 4641,
      "anchored": 4642,
      "ancient": 4643,
      "and": 4644,
      "anders": 4645,
      "anderson": 4646,
      "andre": 4647,
      "andrea": 4648,
      "andrew": 4649,
      "andrews": 4650,
      "android": 4651,
      "androm": 4652,
      "andy": 4653,
      "anec": 4654,
      "ang": 4655,
      "angel": 4656,
      "angela": 4657,
      "angeles": 4658,
      "angelou": 4659,
      "angels": 4660,
      "anger": 4661,
      "angered": 4662,
      "angl": 4663,
      "angle": 4664,
      "angles": 4665,
      "anglesey": 4666,
      "anglican": 4667,
      "anglo": 4668,
      "angry": 4669,
      "angular": 4670,
      "angus": 4671,
      "anim": 4672,
      "animal": 4673,
      "animals": 4674,
      "animated": 4675,
      "animation": 4676,
      "anime": 4677,
      "ank": 4678,
      "ankle": 4679,
      "ann": 4680,
      "anna": 4681,
      "annals": 4682,
      "anne": 4683,
      "annex": 4684,
      "annexed": 4685,
      "annie": 4686,
      "anniversary": 4687,
      "anno": 4688,
      "announ": 4689,
      "announce": 4690,
      "announced": 4691,
      "announcement": 4692,
      "announcing": 4693,
      "annual": 4694,
      "annually": 4695,
      "anonymous": 4696,
      "another": 4697,
      "ansel": 4698,
      "answ": 4699,
      "answer": 4700,
      "answered": 4701,
      "answers": 4702,
      "ant": 4703,
      "antagonist": 4704,
      "antar": 4705,
      "antarctic": 4706,
      "antarctica": 4707,
      "anten": 4708,
      "anth": 4709,
      "anthem": 4710,
      "anthology": 4711,
      "anthony": 4712,
      "anthrop": 4713,
      "anti": 4714,
      "antib": 4715,
      "antibiot": 4716,
      "antibodies": 4717,
      "antic": 4718,
      "anticipated": 4719,
      "anticipation": 4720,
      "antilles": 4721,
      "antio": 4722,
      "antioch": 4723,
      "antiqu": 4724,
      "antiquity": 4725,
      "antis": 4726,
      "anto": 4727,
      "anton": 4728,
      "antonio": 4729,
      "ants": 4730,
      "anx": 4731,
      "anxiety": 4732,
      "any": 4733,
      "anybody": 4734,
      "anyone": 4735,
      "anything": 4736,
      "anyway": 4737,
      "anywhere": 4738,
      "anzac": 4739,
      "ap": 4740,
      "apart": 4741,
      "apartment": 4742,
      "apartments": 4743,
      "aph": 4744,
      "apoc": 4745,
      "apoll": 4746,
      "apollo": 4747,
      "apolog": 4748,
      "apology": 4749,
      "apost": 4750,
      "app": 4751,
      "appal": 4752,
      "appar": 4753,
      "apparent": 4754,
      "apparently": 4755,
      "appeal": 4756,
      "appealed": 4757,
      "appealing": 4758,
      "appeals": 4759,
      "appear": 4760,
      "appearance": 4761,
      "appearances": 4762,
      "appeared": 4763,
      "appearing": 4764,
      "appears": 4765,
      "append": 4766,
      "appl": 4767,
      "appla": 4768,
      "apple": 4769,
      "applic": 4770,
      "applicants": 4771,
      "application": 4772,
      "applications": 4773,
      "applied": 4774,
      "applies": 4775,
      "apply": 4776,
      "applying": 4777,
      "appoint": 4778,
      "appointed": 4779,
      "appointment": 4780,
      "appointments": 4781,
      "apprec": 4782,
      "appreciated": 4783,
      "appreciation": 4784,
      "apprent": 4785,
      "apprentice": 4786,
      "apprentices": 4787,
      "appro": 4788,
      "approach": 4789,
      "approached": 4790,
      "approaches": 4791,
      "approaching": 4792,
      "appropri": 4793,
      "appropriate": 4794,
      "approval": 4795,
      "approve": 4796,
      "approved": 4797,
      "approxim": 4798,
      "approximate": 4799,
      "approximately": 4800,
      "april": 4801,
      "aq": 4802,
      "aqu": 4803,
      "aquatic": 4804,
      "ar": 4805,
      "arab": 4806,
      "arabia": 4807,
      "arabian": 4808,
      "arabic": 4809,
      "arabs": 4810,
      "arb": 4811,
      "arbit": 4812,
      "arbor": 4813,
      "arc": 4814,
      "arcade": 4815,
      "arch": 4816,
      "archae": 4817,
      "archaeological": 4818,
      "archaeologists": 4819,
      "archaeology": 4820,
      "archb": 4821,
      "archbishop": 4822,
      "arche": 4823,
      "archer": 4824,
      "arches": 4825,
      "archie": 4826,
      "archipel": 4827,
      "archipelago": 4828,
      "archit": 4829,
      "architect": 4830,
      "architects": 4831,
      "architectural": 4832,
      "architecture": 4833,
      "archive": 4834,
      "archived": 4835,
      "archives": 4836,
      "arctic": 4837,
      "ard": 4838,
      "are": 4839,
      "area": 4840,
      "areas": 4841,
      "aren": 4842,
      "arena": 4843,
      "arg": 4844,
      "argent": 4845,
      "argentina": 4846,
      "argentine": 4847,
      "argon": 4848,
      "argu": 4849,
      "arguably": 4850,
      "argue": 4851,
      "argued": 4852,
      "argues": 4853,
      "arguing": 4854,
      "argument": 4855,
      "arguments": 4856,
      "aria": 4857,
      "arid": 4858,
      "ariel": 4859,
      "arise": 4860,
      "arist": 4861,
      "aristocr": 4862,
      "ariz": 4863,
      "arizona": 4864,
      "ark": 4865,
      "arkansas": 4866,
      "arlington": 4867,
      "arm": 4868,
      "armament": 4869,
      "armed": 4870,
      "armen": 4871,
      "armenia": 4872,
      "armenian": 4873,
      "armies": 4874,
      "armist": 4875,
      "armistice": 4876,
      "armor": 4877,
      "armored": 4878,
      "armour": 4879,
      "armoured": 4880,
      "arms": 4881,
      "armstrong": 4882,
      "army": 4883,
      "arn": 4884,
      "arnold": 4885,
      "arose": 4886,
      "around": 4887,
      "arr": 4888,
      "arrang": 4889,
      "arrange": 4890,
      "arranged": 4891,
      "arrangement": 4892,
      "arrangements": 4893,
      "array": 4894,
      "arrest": 4895,
      "arrested": 4896,
      "arrival": 4897,
      "arrive": 4898,
      "arrived": 4899,
      "arrives": 4900,
      "arriving": 4901,
      "arrow": 4902,
      "arrows": 4903,
      "arsen": 4904,
      "arsenal": 4905,
      "art": 4906,
      "arte": 4907,
      "artefact": 4908,
      "artefacts": 4909,
      "arter": 4910,
      "arthrop": 4911,
      "arthur": 4912,
      "artic": 4913,
      "article": 4914,
      "articles": 4915,
      "artifact": 4916,
      "artifacts": 4917,
      "artific": 4918,
      "artificial": 4919,
      "artillery": 4920,
      "artist": 4921,
      "artistic": 4922,
      "artists": 4923,
      "arts": 4924,
      "artwork": 4925,
      "as": 4926,
      "asc": 4927,
      "ascend": 4928,
      "ascent": 4929,
      "ash": 4930,
      "ashes": 4931,
      "ashford": 4932,
      "ashley": 4933,
      "ashore": 4934,
      "ashton": 4935,
      "asia": 4936,
      "asian": 4937,
      "aside": 4938,
      "ask": 4939,
      "asked": 4940,
      "asking": 4941,
      "asks": 4942,
      "asleep": 4943,
      "asp": 4944,
      "aspect": 4945,
      "aspects": 4946,
      "aspir": 4947,
      "ass": 4948,
      "assass": 4949,
      "assassin": 4950,
      "assassination": 4951,
      "assault": 4952,
      "assemb": 4953,
      "assembled": 4954,
      "assemblies": 4955,
      "assembly": 4956,
      "assent": 4957,
      "assert": 4958,
      "asserted": 4959,
      "asserts": 4960,
      "assess": 4961,
      "assessed": 4962,
      "assessment": 4963,
      "asset": 4964,
      "assets": 4965,
      "assign": 4966,
      "assigned": 4967,
      "assignment": 4968,
      "assim": 4969,
      "assist": 4970,
      "assistance": 4971,
      "assistant": 4972,
      "assistants": 4973,
      "assisted": 4974,
      "assisting": 4975,
      "assists": 4976,
      "associ": 4977,
      "associate": 4978,
      "associated": 4979,
      "associates": 4980,
      "association": 4981,
      "associations": 4982,
      "assum": 4983,
      "assume": 4984,
      "assumed": 4985,
      "assumes": 4986,
      "assuming": 4987,
      "assumption": 4988,
      "assured": 4989,
      "ast": 4990,
      "aster": 4991,
      "asteroid": 4992,
      "asteroids": 4993,
      "asthma": 4994,
      "aston": 4995,
      "astrol": 4996,
      "astron": 4997,
      "astronaut": 4998,
      "astronauts": 4999,
      "astronomer": 5000,
      "astronomers": 5001,
      "astronomical": 5002,
      "astronomy": 5003,
      "asylum": 5004,
      "asym": 5005,
      "at": 5006,
      "atari": 5007,
      "ate": 5008,
      "athe": 5009,
      "athen": 5010,
      "athenian": 5011,
      "athens": 5012,
      "athlet": 5013,
      "athlete": 5014,
      "athletes": 5015,
      "athletic": 5016,
      "athletics": 5017,
      "atl": 5018,
      "atlant": 5019,
      "atlanta": 5020,
      "atlantic": 5021,
      "atlantis": 5022,
      "atlas": 5023,
      "atm": 5024,
      "atmosp": 5025,
      "atmosphere": 5026,
      "atmospheric": 5027,
      "atom": 5028,
      "atomic": 5029,
      "atoms": 5030,
      "atop": 5031,
      "atp": 5032,
      "att": 5033,
      "attach": 5034,
      "attached": 5035,
      "attachment": 5036,
      "attack": 5037,
      "attacked": 5038,
      "attackers": 5039,
      "attacking": 5040,
      "attacks": 5041,
      "attain": 5042,
      "attained": 5043,
      "attempt": 5044,
      "attempted": 5045,
      "attempting": 5046,
      "attempts": 5047,
      "attend": 5048,
      "attendance": 5049,
      "attended": 5050,
      "attendees": 5051,
      "attending": 5052,
      "attention": 5053,
      "attested": 5054,
      "attitude": 5055,
      "attitudes": 5056,
      "attorney": 5057,
      "attract": 5058,
      "attracted": 5059,
      "attracting": 5060,
      "attraction": 5061,
      "attractions": 5062,
      "attractive": 5063,
      "attrib": 5064,
      "attributed": 5065,
      "attributes": 5066,
      "au": 5067,
      "aub": 5068,
      "auburn": 5069,
      "auck": 5070,
      "auckland": 5071,
      "auction": 5072,
      "aud": 5073,
      "audience": 5074,
      "audiences": 5075,
      "audio": 5076,
      "audition": 5077,
      "auditioned": 5078,
      "auditor": 5079,
      "auditorium": 5080,
      "aug": 5081,
      "august": 5082,
      "augustine": 5083,
      "augustus": 5084,
      "aunt": 5085,
      "aur": 5086,
      "aurora": 5087,
      "aus": 5088,
      "aust": 5089,
      "austen": 5090,
      "austin": 5091,
      "austral": 5092,
      "australia": 5093,
      "australian": 5094,
      "australians": 5095,
      "austria": 5096,
      "austrian": 5097,
      "austro": 5098,
      "aut": 5099,
      "auth": 5100,
      "authentic": 5101,
      "author": 5102,
      "authored": 5103,
      "authorities": 5104,
      "authority": 5105,
      "authorized": 5106,
      "authors": 5107,
      "autism": 5108,
      "auto": 5109,
      "autobi": 5110,
      "autobiographical": 5111,
      "autobiography": 5112,
      "autom": 5113,
      "automated": 5114,
      "automatic": 5115,
      "automatically": 5116,
      "automob": 5117,
      "automobile": 5118,
      "auton": 5119,
      "autonomous": 5120,
      "autonomy": 5121,
      "autumn": 5122,
      "aux": 5123,
      "auxiliary": 5124,
      "av": 5125,
      "avail": 5126,
      "availability": 5127,
      "available": 5128,
      "aval": 5129,
      "avalanche": 5130,
      "avatar": 5131,
      "avenue": 5132,
      "aver": 5133,
      "average": 5134,
      "averaged": 5135,
      "averages": 5136,
      "averaging": 5137,
      "avery": 5138,
      "avi": 5139,
      "aviation": 5140,
      "avid": 5141,
      "avo": 5142,
      "avoid": 5143,
      "avoided": 5144,
      "avoiding": 5145,
      "avon": 5146,
      "aw": 5147,
      "awa": 5148,
      "awaken": 5149,
      "award": 5150,
      "awarded": 5151,
      "awards": 5152,
      "aware": 5153,
      "awareness": 5154,
      "away": 5155,
      "awkward": 5156,
      "ax": 5157,
      "axe": 5158,
      "axis": 5159,
      "ay": 5160,
      "az": 5161,
      "azerb": 5162,
      "azerbai": 5163,
      "azerbaijan": 5164,
      "ba": 5165,
      "bab": 5166,
      "baba": 5167,
      "baby": 5168,
      "bac": 5169,
      "bach": 5170,
      "bachel": 5171,
      "bachelor": 5172,
      "back": 5173,
      "backd": 5174,
      "backdrop": 5175,
      "backed": 5176,
      "background": 5177,
      "backgrounds": 5178,
      "backing": 5179,
      "backs": 5180,
      "backst": 5181,
      "backup": 5182,
      "backwards": 5183,
      "bacon": 5184,
      "bacter": 5185,
      "bacteria": 5186,
      "bacterial": 5187,
      "bad": 5188,
      "baden": 5189,
      "badge": 5190,
      "badly": 5191,
      "bafta": 5192,
      "bag": 5193,
      "bags": 5194,
      "bah": 5195,
      "baha": 5196,
      "bahamas": 5197,
      "bahrain": 5198,
      "bail": 5199,
      "bailey": 5200,
      "baird": 5201,
      "baja": 5202,
      "bak": 5203,
      "baker": 5204,
      "bakshi": 5205,
      "bal": 5206,
      "balance": 5207,
      "balanced": 5208,
      "bald": 5209,
      "baldwin": 5210,
      "bale": 5211,
      "balk": 5212,
      "ball": 5213,
      "ballad": 5214,
      "ballads": 5215,
      "ballet": 5216,
      "balloon": 5217,
      "ballot": 5218,
      "balls": 5219,
      "baltic": 5220,
      "baltim": 5221,
      "baltimore": 5222,
      "balzac": 5223,
      "bam": 5224,
      "bamboo": 5225,
      "ban": 5226,
      "band": 5227,
      "bands": 5228,
      "bang": 5229,
      "bangl": 5230,
      "bangladesh": 5231,
      "bank": 5232,
      "banking": 5233,
      "bankn": 5234,
      "bankrupt": 5235,
      "bankruptcy": 5236,
      "banks": 5237,
      "banksia": 5238,
      "banned": 5239,
      "banner": 5240,
      "bapt": 5241,
      "baptism": 5242,
      "baptist": 5243,
      "bar": 5244,
      "barack": 5245,
      "barb": 5246,
      "barbara": 5247,
      "barber": 5248,
      "barcel": 5249,
      "barcelona": 5250,
      "bard": 5251,
      "bare": 5252,
      "barely": 5253,
      "barg": 5254,
      "barge": 5255,
      "bark": 5256,
      "barker": 5257,
      "barlow": 5258,
      "barn": 5259,
      "barnes": 5260,
      "barney": 5261,
      "baron": 5262,
      "barons": 5263,
      "baroque": 5264,
      "barr": 5265,
      "barracks": 5266,
      "barrage": 5267,
      "barred": 5268,
      "barrel": 5269,
      "barrels": 5270,
      "barrett": 5271,
      "barrier": 5272,
      "barriers": 5273,
      "barrow": 5274,
      "barry": 5275,
      "bars": 5276,
      "bart": 5277,
      "barton": 5278,
      "bas": 5279,
      "basal": 5280,
      "base": 5281,
      "baseball": 5282,
      "based": 5283,
      "baseman": 5284,
      "basement": 5285,
      "bases": 5286,
      "basic": 5287,
      "basically": 5288,
      "basil": 5289,
      "basin": 5290,
      "basis": 5291,
      "basket": 5292,
      "basketball": 5293,
      "bass": 5294,
      "bassist": 5295,
      "bast": 5296,
      "bastion": 5297,
      "bat": 5298,
      "bates": 5299,
      "bath": 5300,
      "batman": 5301,
      "bats": 5302,
      "batsman": 5303,
      "batt": 5304,
      "battal": 5305,
      "battalion": 5306,
      "battalions": 5307,
      "batted": 5308,
      "batter": 5309,
      "batteries": 5310,
      "battery": 5311,
      "batting": 5312,
      "battle": 5313,
      "battlec": 5314,
      "battlecru": 5315,
      "battlecruiser": 5316,
      "battlecruisers": 5317,
      "battlefield": 5318,
      "battles": 5319,
      "battleship": 5320,
      "battleships": 5321,
      "bav": 5322,
      "bax": 5323,
      "bay": 5324,
      "bayern": 5325,
      "bays": 5326,
      "bb": 5327,
      "bbc": 5328,
      "bc": 5329,
      "bce": 5330,
      "be": 5331,
      "bea": 5332,
      "beach": 5333,
      "beaches": 5334,
      "beacon": 5335,
      "beak": 5336,
      "beam": 5337,
      "beams": 5338,
      "bean": 5339,
      "bear": 5340,
      "bearing": 5341,
      "bears": 5342,
      "beast": 5343,
      "beat": 5344,
      "beaten": 5345,
      "beating": 5346,
      "beatles": 5347,
      "beats": 5348,
      "beau": 5349,
      "beauchamp": 5350,
      "beaut": 5351,
      "beautiful": 5352,
      "beauty": 5353,
      "beaver": 5354,
      "bec": 5355,
      "became": 5356,
      "because": 5357,
      "beck": 5358,
      "become": 5359,
      "becomes": 5360,
      "becoming": 5361,
      "bed": 5362,
      "bede": 5363,
      "bedford": 5364,
      "bedroom": 5365,
      "beds": 5366,
      "bee": 5367,
      "beec": 5368,
      "beef": 5369,
      "been": 5370,
      "beer": 5371,
      "bees": 5372,
      "beet": 5373,
      "before": 5374,
      "befriend": 5375,
      "beg": 5376,
      "began": 5377,
      "begg": 5378,
      "begin": 5379,
      "beginning": 5380,
      "beginnings": 5381,
      "begins": 5382,
      "begun": 5383,
      "beh": 5384,
      "behalf": 5385,
      "behav": 5386,
      "behavi": 5387,
      "behavior": 5388,
      "behavioral": 5389,
      "behaviors": 5390,
      "behaviour": 5391,
      "behind": 5392,
      "beij": 5393,
      "beijing": 5394,
      "being": 5395,
      "beings": 5396,
      "bel": 5397,
      "bela": 5398,
      "belarus": 5399,
      "belfast": 5400,
      "belg": 5401,
      "belgian": 5402,
      "belgium": 5403,
      "belgrade": 5404,
      "belie": 5405,
      "belief": 5406,
      "beliefs": 5407,
      "believe": 5408,
      "believed": 5409,
      "believes": 5410,
      "believing": 5411,
      "bell": 5412,
      "bella": 5413,
      "belle": 5414,
      "bells": 5415,
      "belly": 5416,
      "belong": 5417,
      "belonged": 5418,
      "belonging": 5419,
      "belongs": 5420,
      "beloved": 5421,
      "below": 5422,
      "belt": 5423,
      "belts": 5424,
      "ben": 5425,
      "bench": 5426,
      "bend": 5427,
      "bene": 5428,
      "beneath": 5429,
      "bened": 5430,
      "benedict": 5431,
      "benef": 5432,
      "beneficial": 5433,
      "benefit": 5434,
      "benefited": 5435,
      "benefits": 5436,
      "beng": 5437,
      "bengal": 5438,
      "bengali": 5439,
      "benj": 5440,
      "benjamin": 5441,
      "benn": 5442,
      "bennett": 5443,
      "benson": 5444,
      "bent": 5445,
      "bentley": 5446,
      "benz": 5447,
      "ber": 5448,
      "berg": 5449,
      "bergen": 5450,
      "berger": 5451,
      "berk": 5452,
      "berkel": 5453,
      "berkeley": 5454,
      "berlin": 5455,
      "berm": 5456,
      "bermuda": 5457,
      "bern": 5458,
      "bernard": 5459,
      "berry": 5460,
      "bert": 5461,
      "bery": 5462,
      "bes": 5463,
      "beside": 5464,
      "besides": 5465,
      "besie": 5466,
      "besieged": 5467,
      "bess": 5468,
      "best": 5469,
      "bestowed": 5470,
      "bests": 5471,
      "bet": 5472,
      "beta": 5473,
      "beth": 5474,
      "betr": 5475,
      "betray": 5476,
      "better": 5477,
      "betty": 5478,
      "between": 5479,
      "bever": 5480,
      "beverly": 5481,
      "bey": 5482,
      "beyonce": 5483,
      "beyond": 5484,
      "bf": 5485,
      "bh": 5486,
      "bi": 5487,
      "bia": 5488,
      "bian": 5489,
      "bias": 5490,
      "bibl": 5491,
      "bible": 5492,
      "biblical": 5493,
      "bic": 5494,
      "bicy": 5495,
      "bicycle": 5496,
      "bid": 5497,
      "biden": 5498,
      "bie": 5499,
      "big": 5500,
      "bigger": 5501,
      "biggest": 5502,
      "bik": 5503,
      "bike": 5504,
      "bikini": 5505,
      "bil": 5506,
      "bill": 5507,
      "billboard": 5508,
      "billed": 5509,
      "billion": 5510,
      "bills": 5511,
      "billy": 5512,
      "bin": 5513,
      "binary": 5514,
      "bind": 5515,
      "binding": 5516,
      "bio": 5517,
      "biographer": 5518,
      "biography": 5519,
      "biological": 5520,
      "biology": 5521,
      "biom": 5522,
      "bip": 5523,
      "bir": 5524,
      "birch": 5525,
      "bird": 5526,
      "birds": 5527,
      "birmingham": 5528,
      "birth": 5529,
      "birthday": 5530,
      "birthplace": 5531,
      "bis": 5532,
      "bishop": 5533,
      "bishops": 5534,
      "bism": 5535,
      "bismuth": 5536,
      "bit": 5537,
      "bite": 5538,
      "bitter": 5539,
      "biz": 5540,
      "bizarre": 5541,
      "bj": 5542,
      "bl": 5543,
      "black": 5544,
      "blackburn": 5545,
      "blacks": 5546,
      "blade": 5547,
      "blades": 5548,
      "blaine": 5549,
      "blair": 5550,
      "blake": 5551,
      "blame": 5552,
      "blamed": 5553,
      "blanc": 5554,
      "bland": 5555,
      "blank": 5556,
      "blast": 5557,
      "blaz": 5558,
      "ble": 5559,
      "bleeding": 5560,
      "blend": 5561,
      "bless": 5562,
      "blessed": 5563,
      "blessing": 5564,
      "blind": 5565,
      "blitz": 5566,
      "blizz": 5567,
      "blo": 5568,
      "bloc": 5569,
      "block": 5570,
      "blockade": 5571,
      "blocked": 5572,
      "blocking": 5573,
      "blocks": 5574,
      "blog": 5575,
      "blond": 5576,
      "blood": 5577,
      "bloody": 5578,
      "bloom": 5579,
      "blow": 5580,
      "blown": 5581,
      "blu": 5582,
      "blue": 5583,
      "blues": 5584,
      "bluff": 5585,
      "blunt": 5586,
      "bly": 5587,
      "bm": 5588,
      "bn": 5589,
      "bo": 5590,
      "board": 5591,
      "boarded": 5592,
      "boarding": 5593,
      "boards": 5594,
      "boat": 5595,
      "boats": 5596,
      "bob": 5597,
      "bobby": 5598,
      "bod": 5599,
      "bodies": 5600,
      "body": 5601,
      "boeing": 5602,
      "bog": 5603,
      "bohem": 5604,
      "boil": 5605,
      "boilers": 5606,
      "bois": 5607,
      "bol": 5608,
      "bold": 5609,
      "boliv": 5610,
      "boll": 5611,
      "bols": 5612,
      "bolshe": 5613,
      "bolt": 5614,
      "bolton": 5615,
      "bom": 5616,
      "bomb": 5617,
      "bombard": 5618,
      "bombarded": 5619,
      "bombardment": 5620,
      "bombay": 5621,
      "bombed": 5622,
      "bomber": 5623,
      "bombers": 5624,
      "bombing": 5625,
      "bombs": 5626,
      "bon": 5627,
      "bond": 5628,
      "bonds": 5629,
      "bone": 5630,
      "bones": 5631,
      "bonnie": 5632,
      "bonus": 5633,
      "book": 5634,
      "booked": 5635,
      "booker": 5636,
      "books": 5637,
      "boom": 5638,
      "boone": 5639,
      "boost": 5640,
      "boot": 5641,
      "booth": 5642,
      "boots": 5643,
      "bor": 5644,
      "bord": 5645,
      "border": 5646,
      "borders": 5647,
      "bore": 5648,
      "bored": 5649,
      "boring": 5650,
      "boris": 5651,
      "born": 5652,
      "borne": 5653,
      "borneo": 5654,
      "boron": 5655,
      "borough": 5656,
      "borrow": 5657,
      "borrowed": 5658,
      "bos": 5659,
      "bosnia": 5660,
      "boss": 5661,
      "bost": 5662,
      "boston": 5663,
      "bot": 5664,
      "botan": 5665,
      "botanical": 5666,
      "both": 5667,
      "bott": 5668,
      "bottle": 5669,
      "bottom": 5670,
      "bou": 5671,
      "bought": 5672,
      "boul": 5673,
      "bould": 5674,
      "boulev": 5675,
      "boulevard": 5676,
      "bound": 5677,
      "boundaries": 5678,
      "boundary": 5679,
      "bounded": 5680,
      "bount": 5681,
      "bounty": 5682,
      "bour": 5683,
      "bourn": 5684,
      "bournemouth": 5685,
      "bout": 5686,
      "bow": 5687,
      "bowie": 5688,
      "bowl": 5689,
      "bowled": 5690,
      "bowler": 5691,
      "bowling": 5692,
      "bowman": 5693,
      "box": 5694,
      "boxes": 5695,
      "boxing": 5696,
      "boy": 5697,
      "boycott": 5698,
      "boyd": 5699,
      "boyfriend": 5700,
      "boyle": 5701,
      "boys": 5702,
      "br": 5703,
      "bra": 5704,
      "brac": 5705,
      "brach": 5706,
      "brack": 5707,
      "brad": 5708,
      "bradford": 5709,
      "bradley": 5710,
      "bradman": 5711,
      "brady": 5712,
      "brah": 5713,
      "brain": 5714,
      "brakes": 5715,
      "bram": 5716,
      "bran": 5717,
      "branc": 5718,
      "branch": 5719,
      "branches": 5720,
      "brand": 5721,
      "branded": 5722,
      "brandon": 5723,
      "brands": 5724,
      "bras": 5725,
      "brass": 5726,
      "braun": 5727,
      "brave": 5728,
      "braves": 5729,
      "brawl": 5730,
      "braz": 5731,
      "brazil": 5732,
      "brazilian": 5733,
      "bre": 5734,
      "breach": 5735,
      "bread": 5736,
      "break": 5737,
      "breakdown": 5738,
      "breakfast": 5739,
      "breaking": 5740,
      "breaks": 5741,
      "breakthrough": 5742,
      "breast": 5743,
      "breat": 5744,
      "breath": 5745,
      "breathe": 5746,
      "breathing": 5747,
      "breck": 5748,
      "breckin": 5749,
      "bred": 5750,
      "bree": 5751,
      "breed": 5752,
      "breeders": 5753,
      "breeding": 5754,
      "breeds": 5755,
      "bremen": 5756,
      "brend": 5757,
      "brenn": 5758,
      "bres": 5759,
      "bret": 5760,
      "brett": 5761,
      "brew": 5762,
      "brewery": 5763,
      "brian": 5764,
      "briar": 5765,
      "briarcliff": 5766,
      "brick": 5767,
      "bricks": 5768,
      "brid": 5769,
      "bride": 5770,
      "bridg": 5771,
      "bridge": 5772,
      "bridges": 5773,
      "bridgwater": 5774,
      "brief": 5775,
      "briefly": 5776,
      "brien": 5777,
      "brig": 5778,
      "brigade": 5779,
      "brigades": 5780,
      "brigadier": 5781,
      "bright": 5782,
      "brighton": 5783,
      "brill": 5784,
      "brilliant": 5785,
      "bring": 5786,
      "bringing": 5787,
      "brings": 5788,
      "bris": 5789,
      "brisbane": 5790,
      "bristol": 5791,
      "brit": 5792,
      "britain": 5793,
      "britann": 5794,
      "british": 5795,
      "britney": 5796,
      "britt": 5797,
      "brittany": 5798,
      "bro": 5799,
      "broad": 5800,
      "broadc": 5801,
      "broadcast": 5802,
      "broadcaster": 5803,
      "broadcasting": 5804,
      "broadcasts": 5805,
      "broader": 5806,
      "broadly": 5807,
      "broadside": 5808,
      "broadway": 5809,
      "brock": 5810,
      "broke": 5811,
      "broken": 5812,
      "brom": 5813,
      "bron": 5814,
      "broncos": 5815,
      "bronze": 5816,
      "brood": 5817,
      "brook": 5818,
      "brooke": 5819,
      "brooklyn": 5820,
      "brooks": 5821,
      "bros": 5822,
      "brother": 5823,
      "brotherhood": 5824,
      "brothers": 5825,
      "brought": 5826,
      "brown": 5827,
      "browns": 5828,
      "brows": 5829,
      "bru": 5830,
      "bruce": 5831,
      "brun": 5832,
      "bruno": 5833,
      "brunswick": 5834,
      "brush": 5835,
      "bruss": 5836,
      "brussels": 5837,
      "brut": 5838,
      "brutal": 5839,
      "bry": 5840,
      "bryan": 5841,
      "bryant": 5842,
      "bs": 5843,
      "bu": 5844,
      "bub": 5845,
      "bubble": 5846,
      "buchan": 5847,
      "buck": 5848,
      "buckingham": 5849,
      "bud": 5850,
      "budapest": 5851,
      "budd": 5852,
      "buddh": 5853,
      "buddha": 5854,
      "buddhism": 5855,
      "buddhist": 5856,
      "budget": 5857,
      "buenos": 5858,
      "buff": 5859,
      "buffalo": 5860,
      "buffy": 5861,
      "bug": 5862,
      "build": 5863,
      "builder": 5864,
      "building": 5865,
      "buildings": 5866,
      "builds": 5867,
      "built": 5868,
      "buk": 5869,
      "bul": 5870,
      "bulb": 5871,
      "bulgar": 5872,
      "bulgaria": 5873,
      "bulgarian": 5874,
      "bulk": 5875,
      "bull": 5876,
      "bulld": 5877,
      "bullet": 5878,
      "bulletin": 5879,
      "bulls": 5880,
      "bully": 5881,
      "bun": 5882,
      "bunch": 5883,
      "bund": 5884,
      "bung": 5885,
      "bungie": 5886,
      "bunk": 5887,
      "bunker": 5888,
      "bur": 5889,
      "burden": 5890,
      "bure": 5891,
      "bureau": 5892,
      "bureauc": 5893,
      "bureaucr": 5894,
      "burg": 5895,
      "burger": 5896,
      "burial": 5897,
      "buried": 5898,
      "burke": 5899,
      "burn": 5900,
      "burned": 5901,
      "burnham": 5902,
      "burning": 5903,
      "burns": 5904,
      "burnt": 5905,
      "burr": 5906,
      "burrows": 5907,
      "burst": 5908,
      "burton": 5909,
      "bury": 5910,
      "bus": 5911,
      "busch": 5912,
      "buses": 5913,
      "bush": 5914,
      "busiest": 5915,
      "business": 5916,
      "businesses": 5917,
      "businessman": 5918,
      "bust": 5919,
      "busy": 5920,
      "but": 5921,
      "butcher": 5922,
      "butler": 5923,
      "butt": 5924,
      "butter": 5925,
      "butterflies": 5926,
      "butterfly": 5927,
      "button": 5928,
      "buy": 5929,
      "buying": 5930,
      "buzz": 5931,
      "bw": 5932,
      "bwv": 5933,
      "by": 5934,
      "bypass": 5935,
      "byr": 5936,
      "byron": 5937,
      "byzant": 5938,
      "byzantine": 5939,
      "ca": 5940,
      "cab": 5941,
      "cabin": 5942,
      "cabinet": 5943,
      "cable": 5944,
      "cables": 5945,
      "cac": 5946,
      "cact": 5947,
      "cad": 5948,
      "cadet": 5949,
      "cadets": 5950,
      "caes": 5951,
      "caesar": 5952,
      "caf": 5953,
      "cafe": 5954,
      "cag": 5955,
      "cage": 5956,
      "cain": 5957,
      "cair": 5958,
      "cairo": 5959,
      "cake": 5960,
      "cal": 5961,
      "calais": 5962,
      "calc": 5963,
      "calcium": 5964,
      "calculated": 5965,
      "calculations": 5966,
      "cald": 5967,
      "calder": 5968,
      "calendar": 5969,
      "calgary": 5970,
      "caliber": 5971,
      "calif": 5972,
      "californ": 5973,
      "california": 5974,
      "calig": 5975,
      "caligula": 5976,
      "call": 5977,
      "called": 5978,
      "calling": 5979,
      "calls": 5980,
      "calm": 5981,
      "calvin": 5982,
      "cam": 5983,
      "camb": 5984,
      "cambodia": 5985,
      "cambr": 5986,
      "cambridge": 5987,
      "came": 5988,
      "cameo": 5989,
      "camer": 5990,
      "camera": 5991,
      "cameras": 5992,
      "cameron": 5993,
      "cameroon": 5994,
      "camoufl": 5995,
      "camouflage": 5996,
      "camp": 5997,
      "campaign": 5998,
      "campaigned": 5999,
      "campaigning": 6000,
      "campaigns": 6001,
      "campbell": 6002,
      "camping": 6003,
      "camps": 6004,
      "campus": 6005,
      "can": 6006,
      "canad": 6007,
      "canada": 6008,
      "canadian": 6009,
      "canadians": 6010,
      "canadiens": 6011,
      "canal": 6012,
      "canberra": 6013,
      "canc": 6014,
      "canceled": 6015,
      "cancellation": 6016,
      "cancelled": 6017,
      "cancer": 6018,
      "cand": 6019,
      "candid": 6020,
      "candidacy": 6021,
      "candidate": 6022,
      "candidates": 6023,
      "candy": 6024,
      "cane": 6025,
      "cann": 6026,
      "cannabis": 6027,
      "cannes": 6028,
      "cannon": 6029,
      "cannons": 6030,
      "cannot": 6031,
      "canon": 6032,
      "canopy": 6033,
      "cant": 6034,
      "cantata": 6035,
      "cantatas": 6036,
      "canter": 6037,
      "canterbury": 6038,
      "canton": 6039,
      "canucks": 6040,
      "canvas": 6041,
      "canyon": 6042,
      "cap": 6043,
      "capabilities": 6044,
      "capability": 6045,
      "capable": 6046,
      "capac": 6047,
      "capacity": 6048,
      "capcom": 6049,
      "cape": 6050,
      "capit": 6051,
      "capita": 6052,
      "capital": 6053,
      "capitalism": 6054,
      "capitol": 6055,
      "capped": 6056,
      "caps": 6057,
      "capt": 6058,
      "captain": 6059,
      "captained": 6060,
      "captains": 6061,
      "captive": 6062,
      "captivity": 6063,
      "capture": 6064,
      "captured": 6065,
      "capturing": 6066,
      "car": 6067,
      "carb": 6068,
      "carbon": 6069,
      "carc": 6070,
      "card": 6071,
      "cardiff": 6072,
      "cardinal": 6073,
      "cardinals": 6074,
      "cards": 6075,
      "care": 6076,
      "career": 6077,
      "careers": 6078,
      "careful": 6079,
      "carefully": 6080,
      "carell": 6081,
      "carey": 6082,
      "cargo": 6083,
      "carib": 6084,
      "caribbean": 6085,
      "carl": 6086,
      "carlisle": 6087,
      "carlo": 6088,
      "carlos": 6089,
      "carm": 6090,
      "carmel": 6091,
      "carn": 6092,
      "carne": 6093,
      "carnegie": 6094,
      "carniv": 6095,
      "carnival": 6096,
      "carol": 6097,
      "carolina": 6098,
      "caroline": 6099,
      "carp": 6100,
      "carpenter": 6101,
      "carr": 6102,
      "carriage": 6103,
      "carriages": 6104,
      "carried": 6105,
      "carrier": 6106,
      "carriers": 6107,
      "carries": 6108,
      "carroll": 6109,
      "carry": 6110,
      "carrying": 6111,
      "cars": 6112,
      "carson": 6113,
      "cart": 6114,
      "carter": 6115,
      "cartoon": 6116,
      "cartoonist": 6117,
      "cartoons": 6118,
      "carved": 6119,
      "cas": 6120,
      "casc": 6121,
      "cascade": 6122,
      "case": 6123,
      "casem": 6124,
      "cases": 6125,
      "casey": 6126,
      "cash": 6127,
      "casino": 6128,
      "cass": 6129,
      "cassette": 6130,
      "cast": 6131,
      "casting": 6132,
      "castle": 6133,
      "castles": 6134,
      "castro": 6135,
      "casual": 6136,
      "casualties": 6137,
      "casualty": 6138,
      "cat": 6139,
      "catal": 6140,
      "catalog": 6141,
      "catalogue": 6142,
      "cataly": 6143,
      "catalyst": 6144,
      "catast": 6145,
      "catastrop": 6146,
      "catch": 6147,
      "catcher": 6148,
      "catches": 6149,
      "catching": 6150,
      "categ": 6151,
      "categor": 6152,
      "categories": 6153,
      "category": 6154,
      "cater": 6155,
      "caterpill": 6156,
      "cath": 6157,
      "cathedral": 6158,
      "catherine": 6159,
      "cathol": 6160,
      "catholic": 6161,
      "catholicism": 6162,
      "catholics": 6163,
      "cats": 6164,
      "cattle": 6165,
      "cauc": 6166,
      "caught": 6167,
      "caul": 6168,
      "caus": 6169,
      "cause": 6170,
      "caused": 6171,
      "causes": 6172,
      "causeway": 6173,
      "causing": 6174,
      "caut": 6175,
      "caution": 6176,
      "cav": 6177,
      "caval": 6178,
      "cavalry": 6179,
      "cave": 6180,
      "caves": 6181,
      "cavity": 6182,
      "cay": 6183,
      "cbs": 6184,
      "cc": 6185,
      "cd": 6186,
      "ce": 6187,
      "ceas": 6188,
      "cease": 6189,
      "ceased": 6190,
      "cec": 6191,
      "cecil": 6192,
      "ced": 6193,
      "cedar": 6194,
      "ceiling": 6195,
      "cel": 6196,
      "cele": 6197,
      "celebr": 6198,
      "celebrate": 6199,
      "celebrated": 6200,
      "celebrating": 6201,
      "celebration": 6202,
      "celebrations": 6203,
      "celebrit": 6204,
      "celebrities": 6205,
      "celebrity": 6206,
      "celest": 6207,
      "celestial": 6208,
      "cell": 6209,
      "cells": 6210,
      "cellular": 6211,
      "celt": 6212,
      "celtic": 6213,
      "cem": 6214,
      "cement": 6215,
      "cemetery": 6216,
      "cena": 6217,
      "cens": 6218,
      "censorship": 6219,
      "census": 6220,
      "cent": 6221,
      "centenary": 6222,
      "centennial": 6223,
      "center": 6224,
      "centered": 6225,
      "centers": 6226,
      "centimet": 6227,
      "centimetres": 6228,
      "central": 6229,
      "centre": 6230,
      "centred": 6231,
      "centres": 6232,
      "cents": 6233,
      "centuries": 6234,
      "century": 6235,
      "ceo": 6236,
      "cer": 6237,
      "ceram": 6238,
      "ceramic": 6239,
      "ceramics": 6240,
      "cere": 6241,
      "cerebral": 6242,
      "cerem": 6243,
      "ceremon": 6244,
      "ceremonial": 6245,
      "ceremonies": 6246,
      "ceremony": 6247,
      "cert": 6248,
      "certain": 6249,
      "certainly": 6250,
      "certific": 6251,
      "certificate": 6252,
      "certification": 6253,
      "certified": 6254,
      "cerv": 6255,
      "ces": 6256,
      "cet": 6257,
      "cf": 6258,
      "ch": 6259,
      "cha": 6260,
      "chad": 6261,
      "chain": 6262,
      "chains": 6263,
      "chair": 6264,
      "chaired": 6265,
      "chairman": 6266,
      "chak": 6267,
      "chal": 6268,
      "chalk": 6269,
      "chall": 6270,
      "challeng": 6271,
      "challenge": 6272,
      "challenged": 6273,
      "challenger": 6274,
      "challenges": 6275,
      "challenging": 6276,
      "cham": 6277,
      "chamber": 6278,
      "chamberlain": 6279,
      "chambers": 6280,
      "champ": 6281,
      "champion": 6282,
      "champions": 6283,
      "championship": 6284,
      "championships": 6285,
      "chan": 6286,
      "chanc": 6287,
      "chance": 6288,
      "chancellor": 6289,
      "chances": 6290,
      "chand": 6291,
      "chandler": 6292,
      "chang": 6293,
      "change": 6294,
      "changed": 6295,
      "changes": 6296,
      "changing": 6297,
      "chann": 6298,
      "channel": 6299,
      "channels": 6300,
      "chant": 6301,
      "chaos": 6302,
      "chap": 6303,
      "chapel": 6304,
      "chaplin": 6305,
      "chapman": 6306,
      "chapp": 6307,
      "chapter": 6308,
      "chapters": 6309,
      "char": 6310,
      "charac": 6311,
      "character": 6312,
      "characterised": 6313,
      "characteristic": 6314,
      "characteristics": 6315,
      "characterized": 6316,
      "characters": 6317,
      "charge": 6318,
      "charged": 6319,
      "charges": 6320,
      "charging": 6321,
      "charitable": 6322,
      "charities": 6323,
      "charity": 6324,
      "charl": 6325,
      "charles": 6326,
      "charleston": 6327,
      "charlie": 6328,
      "charlotte": 6329,
      "charlton": 6330,
      "charm": 6331,
      "charming": 6332,
      "chart": 6333,
      "charted": 6334,
      "charter": 6335,
      "chartered": 6336,
      "charters": 6337,
      "charting": 6338,
      "charts": 6339,
      "chase": 6340,
      "chased": 6341,
      "chasing": 6342,
      "chat": 6343,
      "che": 6344,
      "cheap": 6345,
      "cheaper": 6346,
      "chec": 6347,
      "check": 6348,
      "checked": 6349,
      "checks": 6350,
      "cheek": 6351,
      "cheer": 6352,
      "cheese": 6353,
      "chef": 6354,
      "chel": 6355,
      "chelsea": 6356,
      "chem": 6357,
      "chemical": 6358,
      "chemicals": 6359,
      "chemist": 6360,
      "chemistry": 6361,
      "chen": 6362,
      "cheney": 6363,
      "cher": 6364,
      "cheroke": 6365,
      "cherry": 6366,
      "ches": 6367,
      "chesapeake": 6368,
      "cheshire": 6369,
      "chess": 6370,
      "chest": 6371,
      "chester": 6372,
      "chet": 6373,
      "chev": 6374,
      "chevro": 6375,
      "chevrolet": 6376,
      "chew": 6377,
      "chi": 6378,
      "chic": 6379,
      "chicago": 6380,
      "chick": 6381,
      "chicken": 6382,
      "chicks": 6383,
      "chief": 6384,
      "chiefly": 6385,
      "chiefs": 6386,
      "child": 6387,
      "childhood": 6388,
      "children": 6389,
      "chile": 6390,
      "chim": 6391,
      "chimney": 6392,
      "chin": 6393,
      "china": 6394,
      "chinese": 6395,
      "chino": 6396,
      "chip": 6397,
      "chips": 6398,
      "chis": 6399,
      "chlor": 6400,
      "chloride": 6401,
      "cho": 6402,
      "chocol": 6403,
      "chocolate": 6404,
      "choice": 6405,
      "choices": 6406,
      "choir": 6407,
      "chol": 6408,
      "choose": 6409,
      "choosing": 6410,
      "chop": 6411,
      "chor": 6412,
      "choral": 6413,
      "chorale": 6414,
      "chord": 6415,
      "chords": 6416,
      "chore": 6417,
      "choreography": 6418,
      "chorus": 6419,
      "chose": 6420,
      "chosen": 6421,
      "chris": 6422,
      "christ": 6423,
      "christian": 6424,
      "christianity": 6425,
      "christians": 6426,
      "christie": 6427,
      "christina": 6428,
      "christine": 6429,
      "christmas": 6430,
      "christopher": 6431,
      "chrom": 6432,
      "chromos": 6433,
      "chron": 6434,
      "chronic": 6435,
      "chronicle": 6436,
      "chronicles": 6437,
      "chrys": 6438,
      "chu": 6439,
      "chuck": 6440,
      "chur": 6441,
      "church": 6442,
      "churches": 6443,
      "churchill": 6444,
      "churchyard": 6445,
      "cia": 6446,
      "cic": 6447,
      "cig": 6448,
      "cigar": 6449,
      "cigarette": 6450,
      "cin": 6451,
      "cinc": 6452,
      "cincinn": 6453,
      "cincinnati": 6454,
      "cinem": 6455,
      "cinema": 6456,
      "cinemas": 6457,
      "cinemat": 6458,
      "cinematic": 6459,
      "cinematographer": 6460,
      "cinematography": 6461,
      "cir": 6462,
      "circ": 6463,
      "circle": 6464,
      "circles": 6465,
      "circuit": 6466,
      "circuits": 6467,
      "circular": 6468,
      "circulated": 6469,
      "circulation": 6470,
      "circum": 6471,
      "circumst": 6472,
      "circumstances": 6473,
      "circus": 6474,
      "cis": 6475,
      "cit": 6476,
      "citadel": 6477,
      "citation": 6478,
      "cited": 6479,
      "cites": 6480,
      "cities": 6481,
      "citing": 6482,
      "citiz": 6483,
      "citizen": 6484,
      "citizens": 6485,
      "citizenship": 6486,
      "city": 6487,
      "civ": 6488,
      "civic": 6489,
      "civil": 6490,
      "civilian": 6491,
      "civilians": 6492,
      "civilization": 6493,
      "cl": 6494,
      "cla": 6495,
      "clad": 6496,
      "clade": 6497,
      "claim": 6498,
      "claimed": 6499,
      "claiming": 6500,
      "claims": 6501,
      "clair": 6502,
      "claire": 6503,
      "clan": 6504,
      "clap": 6505,
      "clar": 6506,
      "clara": 6507,
      "clare": 6508,
      "clarence": 6509,
      "clark": 6510,
      "clarke": 6511,
      "clash": 6512,
      "class": 6513,
      "classes": 6514,
      "classic": 6515,
      "classical": 6516,
      "classics": 6517,
      "classification": 6518,
      "classifications": 6519,
      "classified": 6520,
      "claud": 6521,
      "claude": 6522,
      "claus": 6523,
      "clause": 6524,
      "claws": 6525,
      "clay": 6526,
      "clayton": 6527,
      "cle": 6528,
      "clean": 6529,
      "cleaning": 6530,
      "clear": 6531,
      "clearance": 6532,
      "cleared": 6533,
      "clearing": 6534,
      "clearly": 6535,
      "clem": 6536,
      "clement": 6537,
      "cler": 6538,
      "clergy": 6539,
      "clerk": 6540,
      "cleveland": 6541,
      "clever": 6542,
      "client": 6543,
      "clients": 6544,
      "clif": 6545,
      "cliff": 6546,
      "cliffs": 6547,
      "clifton": 6548,
      "clim": 6549,
      "climate": 6550,
      "climax": 6551,
      "climb": 6552,
      "climbed": 6553,
      "climbing": 6554,
      "climbs": 6555,
      "clin": 6556,
      "clinic": 6557,
      "clinical": 6558,
      "clinton": 6559,
      "clip": 6560,
      "clips": 6561,
      "clo": 6562,
      "clock": 6563,
      "clocks": 6564,
      "clos": 6565,
      "close": 6566,
      "closed": 6567,
      "closely": 6568,
      "closer": 6569,
      "closest": 6570,
      "closing": 6571,
      "closure": 6572,
      "cloth": 6573,
      "clothes": 6574,
      "clothing": 6575,
      "clou": 6576,
      "cloud": 6577,
      "clouds": 6578,
      "clown": 6579,
      "club": 6580,
      "clubs": 6581,
      "cluster": 6582,
      "clusters": 6583,
      "clut": 6584,
      "cly": 6585,
      "clyde": 6586,
      "cm": 6587,
      "cn": 6588,
      "cnn": 6589,
      "co": 6590,
      "coach": 6591,
      "coached": 6592,
      "coaches": 6593,
      "coaching": 6594,
      "coal": 6595,
      "coalition": 6596,
      "coast": 6597,
      "coastal": 6598,
      "coaster": 6599,
      "coasters": 6600,
      "coastline": 6601,
      "coasts": 6602,
      "coat": 6603,
      "cob": 6604,
      "cobalt": 6605,
      "cobb": 6606,
      "coc": 6607,
      "coch": 6608,
      "cock": 6609,
      "cockpit": 6610,
      "cockro": 6611,
      "cod": 6612,
      "code": 6613,
      "coden": 6614,
      "codes": 6615,
      "codex": 6616,
      "cody": 6617,
      "coff": 6618,
      "coffee": 6619,
      "coffin": 6620,
      "cogn": 6621,
      "cognitive": 6622,
      "cohen": 6623,
      "coin": 6624,
      "coinage": 6625,
      "coinc": 6626,
      "coincide": 6627,
      "coincided": 6628,
      "coined": 6629,
      "coins": 6630,
      "col": 6631,
      "colbert": 6632,
      "cold": 6633,
      "cole": 6634,
      "coler": 6635,
      "coleridge": 6636,
      "colin": 6637,
      "coll": 6638,
      "collabor": 6639,
      "collaborated": 6640,
      "collaboration": 6641,
      "collaborator": 6642,
      "collaps": 6643,
      "collapse": 6644,
      "collapsed": 6645,
      "collar": 6646,
      "colle": 6647,
      "colleague": 6648,
      "colleagues": 6649,
      "collect": 6650,
      "collected": 6651,
      "collecting": 6652,
      "collection": 6653,
      "collections": 6654,
      "collective": 6655,
      "collectively": 6656,
      "collector": 6657,
      "collectors": 6658,
      "colleg": 6659,
      "college": 6660,
      "colleges": 6661,
      "collegiate": 6662,
      "collided": 6663,
      "collier": 6664,
      "collins": 6665,
      "collision": 6666,
      "colloqu": 6667,
      "colomb": 6668,
      "colombia": 6669,
      "colon": 6670,
      "colonel": 6671,
      "colonial": 6672,
      "colonies": 6673,
      "colonists": 6674,
      "colony": 6675,
      "color": 6676,
      "colorado": 6677,
      "coloration": 6678,
      "colored": 6679,
      "colors": 6680,
      "colour": 6681,
      "coloured": 6682,
      "colours": 6683,
      "colt": 6684,
      "colts": 6685,
      "columb": 6686,
      "columbia": 6687,
      "columbus": 6688,
      "column": 6689,
      "columnist": 6690,
      "columns": 6691,
      "com": 6692,
      "coma": 6693,
      "comb": 6694,
      "combat": 6695,
      "combination": 6696,
      "combinations": 6697,
      "combine": 6698,
      "combined": 6699,
      "combines": 6700,
      "combining": 6701,
      "combs": 6702,
      "come": 6703,
      "comeback": 6704,
      "comed": 6705,
      "comedian": 6706,
      "comedic": 6707,
      "comedy": 6708,
      "comes": 6709,
      "comet": 6710,
      "comets": 6711,
      "comfort": 6712,
      "comfortable": 6713,
      "comic": 6714,
      "comics": 6715,
      "coming": 6716,
      "comm": 6717,
      "command": 6718,
      "commanded": 6719,
      "commander": 6720,
      "commanders": 6721,
      "commanding": 6722,
      "commando": 6723,
      "commands": 6724,
      "commemor": 6725,
      "commemorate": 6726,
      "commemorated": 6727,
      "commemorating": 6728,
      "commemorative": 6729,
      "commenced": 6730,
      "commencement": 6731,
      "commended": 6732,
      "comment": 6733,
      "commentaries": 6734,
      "commentary": 6735,
      "commentator": 6736,
      "commentators": 6737,
      "commented": 6738,
      "commenting": 6739,
      "comments": 6740,
      "commer": 6741,
      "commerc": 6742,
      "commerce": 6743,
      "commercial": 6744,
      "commercially": 6745,
      "commercials": 6746,
      "commission": 6747,
      "commissioned": 6748,
      "commissioner": 6749,
      "commissioners": 6750,
      "commissioning": 6751,
      "commissions": 6752,
      "commit": 6753,
      "commitment": 6754,
      "commitments": 6755,
      "committe": 6756,
      "committed": 6757,
      "committee": 6758,
      "committees": 6759,
      "committing": 6760,
      "commod": 6761,
      "commodore": 6762,
      "common": 6763,
      "commonly": 6764,
      "commons": 6765,
      "commonwe": 6766,
      "commonwealth": 6767,
      "commun": 6768,
      "communic": 6769,
      "communicate": 6770,
      "communication": 6771,
      "communications": 6772,
      "communism": 6773,
      "communist": 6774,
      "communists": 6775,
      "communities": 6776,
      "community": 6777,
      "commuter": 6778,
      "comp": 6779,
      "compact": 6780,
      "compan": 6781,
      "companies": 6782,
      "companion": 6783,
      "companions": 6784,
      "company": 6785,
      "compar": 6786,
      "comparable": 6787,
      "comparatively": 6788,
      "compare": 6789,
      "compared": 6790,
      "compares": 6791,
      "comparing": 6792,
      "comparison": 6793,
      "comparisons": 6794,
      "compart": 6795,
      "compass": 6796,
      "compat": 6797,
      "compatible": 6798,
      "compelled": 6799,
      "compelling": 6800,
      "compens": 6801,
      "compensation": 6802,
      "compet": 6803,
      "compete": 6804,
      "competed": 6805,
      "competing": 6806,
      "competition": 6807,
      "competitions": 6808,
      "competitive": 6809,
      "competitor": 6810,
      "competitors": 6811,
      "compil": 6812,
      "compilation": 6813,
      "compiled": 6814,
      "compl": 6815,
      "complained": 6816,
      "complaint": 6817,
      "complaints": 6818,
      "complement": 6819,
      "complet": 6820,
      "complete": 6821,
      "completed": 6822,
      "completely": 6823,
      "completing": 6824,
      "completion": 6825,
      "complex": 6826,
      "complexes": 6827,
      "complexity": 6828,
      "complic": 6829,
      "complicated": 6830,
      "complications": 6831,
      "compliment": 6832,
      "complimented": 6833,
      "comply": 6834,
      "component": 6835,
      "components": 6836,
      "compos": 6837,
      "compose": 6838,
      "composed": 6839,
      "composer": 6840,
      "composers": 6841,
      "composing": 6842,
      "composite": 6843,
      "composition": 6844,
      "compositions": 6845,
      "compound": 6846,
      "compounds": 6847,
      "compr": 6848,
      "comprehens": 6849,
      "comprehensive": 6850,
      "comprise": 6851,
      "comprised": 6852,
      "comprises": 6853,
      "comprising": 6854,
      "comprom": 6855,
      "compromise": 6856,
      "compton": 6857,
      "compuls": 6858,
      "compulsory": 6859,
      "computer": 6860,
      "computers": 6861,
      "computing": 6862,
      "comr": 6863,
      "con": 6864,
      "conan": 6865,
      "conc": 6866,
      "conce": 6867,
      "concealed": 6868,
      "conced": 6869,
      "conceded": 6870,
      "conceived": 6871,
      "concent": 6872,
      "concentrate": 6873,
      "concentrated": 6874,
      "concentration": 6875,
      "concentrations": 6876,
      "concept": 6877,
      "conception": 6878,
      "concepts": 6879,
      "concern": 6880,
      "concerned": 6881,
      "concerning": 6882,
      "concerns": 6883,
      "concert": 6884,
      "concerto": 6885,
      "concerts": 6886,
      "concession": 6887,
      "conclud": 6888,
      "conclude": 6889,
      "concluded": 6890,
      "concludes": 6891,
      "concluding": 6892,
      "conclus": 6893,
      "conclusion": 6894,
      "conclusions": 6895,
      "concord": 6896,
      "concrete": 6897,
      "concurr": 6898,
      "concurrency": 6899,
      "concurrent": 6900,
      "concurrently": 6901,
      "cond": 6902,
      "condem": 6903,
      "condemned": 6904,
      "condition": 6905,
      "conditioning": 6906,
      "conditions": 6907,
      "condoms": 6908,
      "conduct": 6909,
      "conducted": 6910,
      "conducting": 6911,
      "conductor": 6912,
      "conducts": 6913,
      "cone": 6914,
      "conf": 6915,
      "confeder": 6916,
      "confederacy": 6917,
      "confederate": 6918,
      "confederation": 6919,
      "confer": 6920,
      "conference": 6921,
      "conferences": 6922,
      "confess": 6923,
      "confession": 6924,
      "confidence": 6925,
      "confident": 6926,
      "config": 6927,
      "configuration": 6928,
      "confined": 6929,
      "confir": 6930,
      "confirm": 6931,
      "confirmation": 6932,
      "confirmed": 6933,
      "confisc": 6934,
      "confiscated": 6935,
      "confl": 6936,
      "conflict": 6937,
      "conflicting": 6938,
      "conflicts": 6939,
      "conform": 6940,
      "confron": 6941,
      "confront": 6942,
      "confrontation": 6943,
      "confronted": 6944,
      "confronts": 6945,
      "confused": 6946,
      "confusing": 6947,
      "confusion": 6948,
      "cong": 6949,
      "congest": 6950,
      "congestion": 6951,
      "congo": 6952,
      "congr": 6953,
      "congrat": 6954,
      "congreg": 6955,
      "congregation": 6956,
      "congregations": 6957,
      "congress": 6958,
      "congressional": 6959,
      "congressman": 6960,
      "conj": 6961,
      "conjunction": 6962,
      "conn": 6963,
      "connect": 6964,
      "connected": 6965,
      "connecticut": 6966,
      "connecting": 6967,
      "connection": 6968,
      "connections": 6969,
      "connector": 6970,
      "connects": 6971,
      "conning": 6972,
      "connor": 6973,
      "conqu": 6974,
      "conquer": 6975,
      "conquered": 6976,
      "conquest": 6977,
      "conrad": 6978,
      "cons": 6979,
      "consc": 6980,
      "conscience": 6981,
      "conscious": 6982,
      "consciousness": 6983,
      "consec": 6984,
      "consecutive": 6985,
      "consens": 6986,
      "consensus": 6987,
      "consent": 6988,
      "consequ": 6989,
      "consequence": 6990,
      "consequences": 6991,
      "consequently": 6992,
      "conserv": 6993,
      "conservation": 6994,
      "conservative": 6995,
      "conservatives": 6996,
      "consid": 6997,
      "consider": 6998,
      "considerable": 6999,
      "considerably": 7000,
      "consideration": 7001,
      "considerations": 7002,
      "considered": 7003,
      "considering": 7004,
      "considers": 7005,
      "consist": 7006,
      "consisted": 7007,
      "consistent": 7008,
      "consistently": 7009,
      "consisting": 7010,
      "consists": 7011,
      "console": 7012,
      "consoles": 7013,
      "consolid": 7014,
      "consolidated": 7015,
      "conson": 7016,
      "consort": 7017,
      "consortium": 7018,
      "consp": 7019,
      "conspic": 7020,
      "conspicuous": 7021,
      "conspir": 7022,
      "conspiracy": 7023,
      "const": 7024,
      "constable": 7025,
      "constant": 7026,
      "constantin": 7027,
      "constantine": 7028,
      "constantinople": 7029,
      "constantly": 7030,
      "constellation": 7031,
      "constit": 7032,
      "constitu": 7033,
      "constituency": 7034,
      "constituent": 7035,
      "constitute": 7036,
      "constituted": 7037,
      "constitution": 7038,
      "constitutional": 7039,
      "constraints": 7040,
      "construct": 7041,
      "constructed": 7042,
      "constructing": 7043,
      "construction": 7044,
      "consul": 7045,
      "consult": 7046,
      "consultant": 7047,
      "consulted": 7048,
      "consulting": 7049,
      "consum": 7050,
      "consume": 7051,
      "consumed": 7052,
      "consumer": 7053,
      "consumers": 7054,
      "consuming": 7055,
      "consumption": 7056,
      "cont": 7057,
      "contact": 7058,
      "contacted": 7059,
      "contacts": 7060,
      "contain": 7061,
      "contained": 7062,
      "container": 7063,
      "containing": 7064,
      "contains": 7065,
      "contamin": 7066,
      "contaminated": 7067,
      "contamination": 7068,
      "contem": 7069,
      "contempl": 7070,
      "contempor": 7071,
      "contemporaries": 7072,
      "contemporary": 7073,
      "contempt": 7074,
      "contender": 7075,
      "content": 7076,
      "contents": 7077,
      "contest": 7078,
      "contestant": 7079,
      "contestants": 7080,
      "contested": 7081,
      "contests": 7082,
      "context": 7083,
      "contin": 7084,
      "continent": 7085,
      "continental": 7086,
      "continents": 7087,
      "conting": 7088,
      "contingent": 7089,
      "continu": 7090,
      "continually": 7091,
      "continuation": 7092,
      "continue": 7093,
      "continued": 7094,
      "continues": 7095,
      "continuing": 7096,
      "continuity": 7097,
      "continuo": 7098,
      "continuous": 7099,
      "continuously": 7100,
      "contr": 7101,
      "contract": 7102,
      "contracted": 7103,
      "contractor": 7104,
      "contracts": 7105,
      "contrad": 7106,
      "contradict": 7107,
      "contrary": 7108,
      "contrast": 7109,
      "contrasted": 7110,
      "contrib": 7111,
      "contribute": 7112,
      "contributed": 7113,
      "contributing": 7114,
      "contribution": 7115,
      "contributions": 7116,
      "contributor": 7117,
      "contro": 7118,
      "control": 7119,
      "controll": 7120,
      "controlled": 7121,
      "controller": 7122,
      "controlling": 7123,
      "controls": 7124,
      "controvers": 7125,
      "controversial": 7126,
      "controversy": 7127,
      "conv": 7128,
      "convection": 7129,
      "conven": 7130,
      "convened": 7131,
      "convention": 7132,
      "conventional": 7133,
      "conventions": 7134,
      "conver": 7135,
      "convers": 7136,
      "conversation": 7137,
      "conversations": 7138,
      "conversely": 7139,
      "conversion": 7140,
      "convert": 7141,
      "converted": 7142,
      "converting": 7143,
      "convex": 7144,
      "convey": 7145,
      "convict": 7146,
      "convicted": 7147,
      "conviction": 7148,
      "convin": 7149,
      "convinc": 7150,
      "convince": 7151,
      "convinced": 7152,
      "convincing": 7153,
      "convoy": 7154,
      "convoys": 7155,
      "conway": 7156,
      "cook": 7157,
      "cooke": 7158,
      "cooked": 7159,
      "cooking": 7160,
      "cool": 7161,
      "cooler": 7162,
      "coolidge": 7163,
      "cooling": 7164,
      "cooper": 7165,
      "cooperation": 7166,
      "cooperative": 7167,
      "coordin": 7168,
      "coordinate": 7169,
      "coordinated": 7170,
      "coordination": 7171,
      "coordinator": 7172,
      "cop": 7173,
      "cope": 7174,
      "copenhagen": 7175,
      "copies": 7176,
      "copper": 7177,
      "copy": 7178,
      "copyr": 7179,
      "copyright": 7180,
      "coqu": 7181,
      "cor": 7182,
      "coral": 7183,
      "cord": 7184,
      "core": 7185,
      "corinth": 7186,
      "cork": 7187,
      "corn": 7188,
      "cornell": 7189,
      "corner": 7190,
      "corners": 7191,
      "cornish": 7192,
      "cornwall": 7193,
      "cornwallis": 7194,
      "coron": 7195,
      "coronation": 7196,
      "corp": 7197,
      "corpor": 7198,
      "corporal": 7199,
      "corporate": 7200,
      "corporation": 7201,
      "corporations": 7202,
      "corps": 7203,
      "corpse": 7204,
      "corpus": 7205,
      "correct": 7206,
      "corrected": 7207,
      "correction": 7208,
      "correctly": 7209,
      "correl": 7210,
      "corresp": 7211,
      "correspond": 7212,
      "correspondence": 7213,
      "correspondent": 7214,
      "corresponding": 7215,
      "corresponds": 7216,
      "corrid": 7217,
      "corridor": 7218,
      "corrosion": 7219,
      "corrupt": 7220,
      "corruption": 7221,
      "cort": 7222,
      "corv": 7223,
      "cory": 7224,
      "cos": 7225,
      "cosm": 7226,
      "cosmic": 7227,
      "cost": 7228,
      "costa": 7229,
      "costly": 7230,
      "costs": 7231,
      "costume": 7232,
      "costumes": 7233,
      "cot": 7234,
      "cott": 7235,
      "cottage": 7236,
      "cotton": 7237,
      "cou": 7238,
      "coul": 7239,
      "could": 7240,
      "couldn": 7241,
      "coun": 7242,
      "council": 7243,
      "councill": 7244,
      "councillors": 7245,
      "councils": 7246,
      "counsel": 7247,
      "count": 7248,
      "countdown": 7249,
      "counted": 7250,
      "counter": 7251,
      "counteratt": 7252,
      "counterpart": 7253,
      "counterparts": 7254,
      "counters": 7255,
      "counties": 7256,
      "countries": 7257,
      "country": 7258,
      "countryside": 7259,
      "counts": 7260,
      "county": 7261,
      "coup": 7262,
      "couple": 7263,
      "coupled": 7264,
      "couples": 7265,
      "cour": 7266,
      "courage": 7267,
      "course": 7268,
      "courses": 7269,
      "court": 7270,
      "courthouse": 7271,
      "courts": 7272,
      "courtship": 7273,
      "courty": 7274,
      "courtyard": 7275,
      "cous": 7276,
      "cousin": 7277,
      "cousins": 7278,
      "cov": 7279,
      "cove": 7280,
      "covenant": 7281,
      "covent": 7282,
      "cover": 7283,
      "coverage": 7284,
      "covered": 7285,
      "covering": 7286,
      "covers": 7287,
      "cow": 7288,
      "cowboys": 7289,
      "cox": 7290,
      "cp": 7291,
      "cr": 7292,
      "cra": 7293,
      "crab": 7294,
      "crack": 7295,
      "cracks": 7296,
      "craft": 7297,
      "crafts": 7298,
      "craig": 7299,
      "cran": 7300,
      "crane": 7301,
      "crash": 7302,
      "crashed": 7303,
      "crashes": 7304,
      "crater": 7305,
      "craters": 7306,
      "craw": 7307,
      "crawford": 7308,
      "crazy": 7309,
      "cre": 7310,
      "cream": 7311,
      "creat": 7312,
      "create": 7313,
      "created": 7314,
      "creates": 7315,
      "creating": 7316,
      "creation": 7317,
      "creative": 7318,
      "creator": 7319,
      "creators": 7320,
      "creature": 7321,
      "creatures": 7322,
      "cred": 7323,
      "credit": 7324,
      "credited": 7325,
      "credits": 7326,
      "cree": 7327,
      "creek": 7328,
      "crem": 7329,
      "crescent": 7330,
      "crest": 7331,
      "crested": 7332,
      "cret": 7333,
      "cretaceous": 7334,
      "crew": 7335,
      "crewmen": 7336,
      "crews": 7337,
      "crick": 7338,
      "cricket": 7339,
      "cricketer": 7340,
      "cricketers": 7341,
      "crim": 7342,
      "crime": 7343,
      "crimes": 7344,
      "crimin": 7345,
      "criminal": 7346,
      "criminals": 7347,
      "crimson": 7348,
      "cris": 7349,
      "crisis": 7350,
      "crist": 7351,
      "crit": 7352,
      "criter": 7353,
      "criteria": 7354,
      "critic": 7355,
      "critical": 7356,
      "critically": 7357,
      "criticised": 7358,
      "criticism": 7359,
      "criticisms": 7360,
      "criticized": 7361,
      "criticizing": 7362,
      "critics": 7363,
      "cro": 7364,
      "croat": 7365,
      "croatia": 7366,
      "croatian": 7367,
      "croc": 7368,
      "crocod": 7369,
      "crom": 7370,
      "crop": 7371,
      "crops": 7372,
      "cros": 7373,
      "crosby": 7374,
      "cross": 7375,
      "crossed": 7376,
      "crosses": 7377,
      "crossing": 7378,
      "crossover": 7379,
      "crow": 7380,
      "crowd": 7381,
      "crowded": 7382,
      "crowds": 7383,
      "crown": 7384,
      "crowned": 7385,
      "cru": 7386,
      "cruc": 7387,
      "crucial": 7388,
      "crude": 7389,
      "cruel": 7390,
      "cruise": 7391,
      "cruiser": 7392,
      "cruisers": 7393,
      "crus": 7394,
      "crusade": 7395,
      "crusaders": 7396,
      "crush": 7397,
      "crushed": 7398,
      "crust": 7399,
      "cruz": 7400,
      "cry": 7401,
      "crypt": 7402,
      "cryst": 7403,
      "crystal": 7404,
      "crystall": 7405,
      "crystals": 7406,
      "cs": 7407,
      "ct": 7408,
      "cu": 7409,
      "cub": 7410,
      "cuba": 7411,
      "cuban": 7412,
      "cubic": 7413,
      "cubs": 7414,
      "cuis": 7415,
      "cuisine": 7416,
      "cul": 7417,
      "cull": 7418,
      "culmin": 7419,
      "culminated": 7420,
      "culminating": 7421,
      "cult": 7422,
      "cultiv": 7423,
      "cultivated": 7424,
      "cultivation": 7425,
      "cultural": 7426,
      "culture": 7427,
      "cultures": 7428,
      "cum": 7429,
      "cumberland": 7430,
      "cunning": 7431,
      "cunningham": 7432,
      "cup": 7433,
      "cups": 7434,
      "cur": 7435,
      "cure": 7436,
      "curie": 7437,
      "curious": 7438,
      "curr": 7439,
      "currency": 7440,
      "current": 7441,
      "currently": 7442,
      "currents": 7443,
      "curriculum": 7444,
      "curs": 7445,
      "curse": 7446,
      "curt": 7447,
      "curtain": 7448,
      "curtis": 7449,
      "curve": 7450,
      "curved": 7451,
      "curves": 7452,
      "cus": 7453,
      "cust": 7454,
      "custody": 7455,
      "custom": 7456,
      "customer": 7457,
      "customers": 7458,
      "customs": 7459,
      "cut": 7460,
      "cuts": 7461,
      "cutting": 7462,
      "cw": 7463,
      "cy": 7464,
      "cyan": 7465,
      "cyber": 7466,
      "cycl": 7467,
      "cycle": 7468,
      "cycles": 7469,
      "cycling": 7470,
      "cyclists": 7471,
      "cyclone": 7472,
      "cyclones": 7473,
      "cyl": 7474,
      "cylind": 7475,
      "cylinder": 7476,
      "cylinders": 7477,
      "cyn": 7478,
      "cyp": 7479,
      "cyprus": 7480,
      "cyr": 7481,
      "cyrus": 7482,
      "cyt": 7483,
      "cz": 7484,
      "czech": 7485,
      "czechosl": 7486,
      "czechoslovakia": 7487,
      "da": 7488,
      "dad": 7489,
      "dag": 7490,
      "dahl": 7491,
      "dail": 7492,
      "daily": 7493,
      "dair": 7494,
      "dairy": 7495,
      "dak": 7496,
      "dakota": 7497,
      "dal": 7498,
      "dale": 7499,
      "daley": 7500,
      "dall": 7501,
      "dallas": 7502,
      "dam": 7503,
      "damage": 7504,
      "damaged": 7505,
      "damages": 7506,
      "damaging": 7507,
      "damasc": 7508,
      "damascus": 7509,
      "dame": 7510,
      "damon": 7511,
      "damp": 7512,
      "dams": 7513,
      "dan": 7514,
      "dana": 7515,
      "danc": 7516,
      "dance": 7517,
      "dancer": 7518,
      "dancers": 7519,
      "dances": 7520,
      "dancing": 7521,
      "dang": 7522,
      "danger": 7523,
      "dangerous": 7524,
      "dangers": 7525,
      "daniel": 7526,
      "daniels": 7527,
      "danish": 7528,
      "danny": 7529,
      "danube": 7530,
      "dar": 7531,
      "dark": 7532,
      "darker": 7533,
      "darkness": 7534,
      "darren": 7535,
      "dart": 7536,
      "dartmouth": 7537,
      "darwin": 7538,
      "das": 7539,
      "dash": 7540,
      "dat": 7541,
      "data": 7542,
      "datab": 7543,
      "database": 7544,
      "date": 7545,
      "dated": 7546,
      "dates": 7547,
      "dating": 7548,
      "daugh": 7549,
      "daughter": 7550,
      "daughters": 7551,
      "dav": 7552,
      "dave": 7553,
      "daven": 7554,
      "davenport": 7555,
      "david": 7556,
      "davidson": 7557,
      "davies": 7558,
      "davis": 7559,
      "daw": 7560,
      "dawn": 7561,
      "dawson": 7562,
      "day": 7563,
      "daylight": 7564,
      "days": 7565,
      "daytime": 7566,
      "dayton": 7567,
      "dc": 7568,
      "dd": 7569,
      "de": 7570,
      "dead": 7571,
      "deadline": 7572,
      "deadly": 7573,
      "deaf": 7574,
      "deal": 7575,
      "dealer": 7576,
      "dealing": 7577,
      "deals": 7578,
      "dealt": 7579,
      "dean": 7580,
      "dear": 7581,
      "death": 7582,
      "deaths": 7583,
      "deb": 7584,
      "debate": 7585,
      "debated": 7586,
      "debates": 7587,
      "debris": 7588,
      "debt": 7589,
      "debts": 7590,
      "debut": 7591,
      "debuted": 7592,
      "dec": 7593,
      "decade": 7594,
      "decades": 7595,
      "decay": 7596,
      "dece": 7597,
      "deceased": 7598,
      "december": 7599,
      "decent": 7600,
      "deception": 7601,
      "decide": 7602,
      "decided": 7603,
      "decides": 7604,
      "deciding": 7605,
      "decim": 7606,
      "decision": 7607,
      "decisions": 7608,
      "decisive": 7609,
      "deck": 7610,
      "decl": 7611,
      "declar": 7612,
      "declaration": 7613,
      "declare": 7614,
      "declared": 7615,
      "declares": 7616,
      "declaring": 7617,
      "decline": 7618,
      "declined": 7619,
      "declining": 7620,
      "decomm": 7621,
      "decommissioned": 7622,
      "decomp": 7623,
      "decompression": 7624,
      "decor": 7625,
      "decorated": 7626,
      "decoration": 7627,
      "decorations": 7628,
      "decorative": 7629,
      "decre": 7630,
      "decrease": 7631,
      "decreased": 7632,
      "decreases": 7633,
      "decreasing": 7634,
      "decree": 7635,
      "ded": 7636,
      "dedic": 7637,
      "dedicated": 7638,
      "dedication": 7639,
      "deemed": 7640,
      "deep": 7641,
      "deeper": 7642,
      "deeply": 7643,
      "deer": 7644,
      "def": 7645,
      "default": 7646,
      "defe": 7647,
      "defeat": 7648,
      "defeated": 7649,
      "defeating": 7650,
      "defeats": 7651,
      "defects": 7652,
      "defenc": 7653,
      "defence": 7654,
      "defenceman": 7655,
      "defences": 7656,
      "defend": 7657,
      "defendant": 7658,
      "defendants": 7659,
      "defended": 7660,
      "defender": 7661,
      "defenders": 7662,
      "defending": 7663,
      "defense": 7664,
      "defenses": 7665,
      "defensive": 7666,
      "deficiency": 7667,
      "deficit": 7668,
      "defin": 7669,
      "define": 7670,
      "defined": 7671,
      "defines": 7672,
      "defining": 7673,
      "definitely": 7674,
      "definition": 7675,
      "definitions": 7676,
      "definitive": 7677,
      "defl": 7678,
      "deform": 7679,
      "defunct": 7680,
      "deg": 7681,
      "degener": 7682,
      "degr": 7683,
      "degree": 7684,
      "degrees": 7685,
      "dei": 7686,
      "deities": 7687,
      "deity": 7688,
      "del": 7689,
      "delaware": 7690,
      "delay": 7691,
      "delayed": 7692,
      "delays": 7693,
      "dele": 7694,
      "deleg": 7695,
      "delegate": 7696,
      "delegates": 7697,
      "delegation": 7698,
      "deleted": 7699,
      "delhi": 7700,
      "deliber": 7701,
      "deliberate": 7702,
      "deliberately": 7703,
      "delicate": 7704,
      "delight": 7705,
      "deliv": 7706,
      "deliver": 7707,
      "delivered": 7708,
      "delivering": 7709,
      "delivery": 7710,
      "delta": 7711,
      "delux": 7712,
      "deluxe": 7713,
      "dem": 7714,
      "demand": 7715,
      "demanded": 7716,
      "demanding": 7717,
      "demands": 7718,
      "demise": 7719,
      "demo": 7720,
      "democr": 7721,
      "democracy": 7722,
      "democrat": 7723,
      "democratic": 7724,
      "democrats": 7725,
      "demographic": 7726,
      "demol": 7727,
      "demolished": 7728,
      "demolition": 7729,
      "demon": 7730,
      "demonstr": 7731,
      "demonstrate": 7732,
      "demonstrated": 7733,
      "demonstrating": 7734,
      "demonstration": 7735,
      "demonstrations": 7736,
      "den": 7737,
      "denial": 7738,
      "denied": 7739,
      "denis": 7740,
      "denmark": 7741,
      "denn": 7742,
      "dennis": 7743,
      "denomin": 7744,
      "denomination": 7745,
      "denominations": 7746,
      "denounced": 7747,
      "dens": 7748,
      "dense": 7749,
      "densely": 7750,
      "density": 7751,
      "dent": 7752,
      "dental": 7753,
      "denver": 7754,
      "deny": 7755,
      "dep": 7756,
      "depart": 7757,
      "departed": 7758,
      "departing": 7759,
      "department": 7760,
      "departments": 7761,
      "departure": 7762,
      "depend": 7763,
      "depended": 7764,
      "dependent": 7765,
      "depending": 7766,
      "depends": 7767,
      "depict": 7768,
      "depicted": 7769,
      "depicting": 7770,
      "depiction": 7771,
      "depictions": 7772,
      "depicts": 7773,
      "deplet": 7774,
      "deplo": 7775,
      "deploy": 7776,
      "deployed": 7777,
      "deployment": 7778,
      "deport": 7779,
      "depos": 7780,
      "deposed": 7781,
      "deposit": 7782,
      "deposited": 7783,
      "deposition": 7784,
      "deposits": 7785,
      "depot": 7786,
      "depr": 7787,
      "depress": 7788,
      "depressed": 7789,
      "depression": 7790,
      "depth": 7791,
      "depths": 7792,
      "deput": 7793,
      "deputies": 7794,
      "deputy": 7795,
      "der": 7796,
      "derby": 7797,
      "dere": 7798,
      "derek": 7799,
      "deriv": 7800,
      "derivative": 7801,
      "derive": 7802,
      "derived": 7803,
      "derives": 7804,
      "des": 7805,
      "desc": 7806,
      "descend": 7807,
      "descendant": 7808,
      "descendants": 7809,
      "descended": 7810,
      "descending": 7811,
      "descent": 7812,
      "describ": 7813,
      "describe": 7814,
      "described": 7815,
      "describes": 7816,
      "describing": 7817,
      "description": 7818,
      "descriptions": 7819,
      "desert": 7820,
      "deserted": 7821,
      "design": 7822,
      "designated": 7823,
      "designation": 7824,
      "designed": 7825,
      "designer": 7826,
      "designers": 7827,
      "designing": 7828,
      "designs": 7829,
      "desirable": 7830,
      "desire": 7831,
      "desired": 7832,
      "desk": 7833,
      "desp": 7834,
      "desper": 7835,
      "desperate": 7836,
      "despite": 7837,
      "dest": 7838,
      "destination": 7839,
      "destinations": 7840,
      "destiny": 7841,
      "destro": 7842,
      "destroy": 7843,
      "destroyed": 7844,
      "destroyer": 7845,
      "destroyers": 7846,
      "destroying": 7847,
      "destruct": 7848,
      "destruction": 7849,
      "destructive": 7850,
      "det": 7851,
      "detached": 7852,
      "detachment": 7853,
      "detail": 7854,
      "detailed": 7855,
      "detailing": 7856,
      "details": 7857,
      "detain": 7858,
      "detained": 7859,
      "detect": 7860,
      "detected": 7861,
      "detection": 7862,
      "detective": 7863,
      "detention": 7864,
      "deter": 7865,
      "deterior": 7866,
      "deteriorated": 7867,
      "determ": 7868,
      "determination": 7869,
      "determine": 7870,
      "determined": 7871,
      "determining": 7872,
      "deton": 7873,
      "detroit": 7874,
      "deut": 7875,
      "dev": 7876,
      "devast": 7877,
      "devastated": 7878,
      "devastating": 7879,
      "develop": 7880,
      "developed": 7881,
      "developer": 7882,
      "developers": 7883,
      "developing": 7884,
      "development": 7885,
      "developmental": 7886,
      "developments": 7887,
      "develops": 7888,
      "devi": 7889,
      "device": 7890,
      "devices": 7891,
      "devil": 7892,
      "devils": 7893,
      "devised": 7894,
      "devon": 7895,
      "devot": 7896,
      "devoted": 7897,
      "devotion": 7898,
      "dew": 7899,
      "dex": 7900,
      "dexter": 7901,
      "dh": 7902,
      "di": 7903,
      "diabet": 7904,
      "diabetes": 7905,
      "diag": 7906,
      "diagn": 7907,
      "diagnosed": 7908,
      "diagnosis": 7909,
      "dial": 7910,
      "dialect": 7911,
      "dialects": 7912,
      "dialogue": 7913,
      "diam": 7914,
      "diameter": 7915,
      "diamond": 7916,
      "diamonds": 7917,
      "dian": 7918,
      "diana": 7919,
      "diane": 7920,
      "diary": 7921,
      "dick": 7922,
      "dickinson": 7923,
      "dict": 7924,
      "diction": 7925,
      "dictionary": 7926,
      "did": 7927,
      "didn": 7928,
      "die": 7929,
      "died": 7930,
      "diego": 7931,
      "diem": 7932,
      "dies": 7933,
      "diesel": 7934,
      "diet": 7935,
      "dietary": 7936,
      "dif": 7937,
      "diff": 7938,
      "differ": 7939,
      "differed": 7940,
      "difference": 7941,
      "differences": 7942,
      "different": 7943,
      "differential": 7944,
      "differently": 7945,
      "differing": 7946,
      "differs": 7947,
      "difficult": 7948,
      "difficulties": 7949,
      "difficulty": 7950,
      "diffusion": 7951,
      "dig": 7952,
      "digest": 7953,
      "digging": 7954,
      "digit": 7955,
      "digital": 7956,
      "digitally": 7957,
      "dign": 7958,
      "dignity": 7959,
      "dil": 7960,
      "dim": 7961,
      "dimension": 7962,
      "dimensional": 7963,
      "dimensions": 7964,
      "dimin": 7965,
      "diminished": 7966,
      "din": 7967,
      "ding": 7968,
      "dining": 7969,
      "dinner": 7970,
      "dinosaur": 7971,
      "dinosaurs": 7972,
      "dio": 7973,
      "dioc": 7974,
      "diocese": 7975,
      "dioxide": 7976,
      "dip": 7977,
      "dipl": 7978,
      "diplom": 7979,
      "diplomatic": 7980,
      "dir": 7981,
      "dire": 7982,
      "direct": 7983,
      "directed": 7984,
      "directing": 7985,
      "direction": 7986,
      "directions": 7987,
      "directly": 7988,
      "director": 7989,
      "directorial": 7990,
      "directors": 7991,
      "dirt": 7992,
      "dirty": 7993,
      "dis": 7994,
      "disabilities": 7995,
      "disability": 7996,
      "disabled": 7997,
      "disadv": 7998,
      "disadvant": 7999,
      "disag": 8000,
      "disagre": 8001,
      "disagree": 8002,
      "disagreed": 8003,
      "disagreement": 8004,
      "disapp": 8005,
      "disappear": 8006,
      "disappearance": 8007,
      "disappeared": 8008,
      "disappears": 8009,
      "disappoint": 8010,
      "disappointed": 8011,
      "disappointing": 8012,
      "disappointment": 8013,
      "disappro": 8014,
      "disast": 8015,
      "disaster": 8016,
      "disasters": 8017,
      "disastrous": 8018,
      "disb": 8019,
      "disbanded": 8020,
      "disc": 8021,
      "discarded": 8022,
      "dischar": 8023,
      "discharge": 8024,
      "discharged": 8025,
      "discip": 8026,
      "discipl": 8027,
      "discipline": 8028,
      "disciplines": 8029,
      "discl": 8030,
      "disco": 8031,
      "discontin": 8032,
      "discontinued": 8033,
      "discour": 8034,
      "discover": 8035,
      "discovered": 8036,
      "discoveries": 8037,
      "discovering": 8038,
      "discovers": 8039,
      "discovery": 8040,
      "discretion": 8041,
      "discrimin": 8042,
      "discrimination": 8043,
      "discs": 8044,
      "discuss": 8045,
      "discussed": 8046,
      "discusses": 8047,
      "discussing": 8048,
      "discussion": 8049,
      "discussions": 8050,
      "diseas": 8051,
      "disease": 8052,
      "diseases": 8053,
      "disg": 8054,
      "disgr": 8055,
      "disgu": 8056,
      "disguised": 8057,
      "dish": 8058,
      "dishes": 8059,
      "disintegr": 8060,
      "disk": 8061,
      "disl": 8062,
      "disliked": 8063,
      "dism": 8064,
      "dismant": 8065,
      "dismantled": 8066,
      "dismiss": 8067,
      "dismissal": 8068,
      "dismissed": 8069,
      "disney": 8070,
      "disord": 8071,
      "disorder": 8072,
      "disorders": 8073,
      "disp": 8074,
      "dispar": 8075,
      "dispat": 8076,
      "dispatched": 8077,
      "dispersed": 8078,
      "displ": 8079,
      "displaced": 8080,
      "displacement": 8081,
      "display": 8082,
      "displayed": 8083,
      "displaying": 8084,
      "displays": 8085,
      "dispos": 8086,
      "disposal": 8087,
      "dispute": 8088,
      "disputed": 8089,
      "disputes": 8090,
      "disqual": 8091,
      "disrupt": 8092,
      "disrupted": 8093,
      "disruption": 8094,
      "diss": 8095,
      "dissatis": 8096,
      "dissent": 8097,
      "dissipated": 8098,
      "dissipating": 8099,
      "dissol": 8100,
      "dissolution": 8101,
      "dissolved": 8102,
      "dist": 8103,
      "distance": 8104,
      "distances": 8105,
      "distant": 8106,
      "distinct": 8107,
      "distinction": 8108,
      "distinctive": 8109,
      "distingu": 8110,
      "distinguish": 8111,
      "distinguished": 8112,
      "distinguishing": 8113,
      "distract": 8114,
      "distress": 8115,
      "distrib": 8116,
      "distribute": 8117,
      "distributed": 8118,
      "distribution": 8119,
      "distributor": 8120,
      "district": 8121,
      "districts": 8122,
      "disturb": 8123,
      "disturbance": 8124,
      "disturbed": 8125,
      "disturbing": 8126,
      "dit": 8127,
      "ditch": 8128,
      "div": 8129,
      "dive": 8130,
      "diver": 8131,
      "diverg": 8132,
      "divers": 8133,
      "diverse": 8134,
      "diversity": 8135,
      "divert": 8136,
      "diverted": 8137,
      "divide": 8138,
      "divided": 8139,
      "dividing": 8140,
      "divine": 8141,
      "diving": 8142,
      "division": 8143,
      "divisional": 8144,
      "divisions": 8145,
      "divor": 8146,
      "divorce": 8147,
      "divorced": 8148,
      "dix": 8149,
      "dixon": 8150,
      "dj": 8151,
      "dl": 8152,
      "dm": 8153,
      "dna": 8154,
      "do": 8155,
      "doc": 8156,
      "dock": 8157,
      "docked": 8158,
      "docks": 8159,
      "dockyard": 8160,
      "doct": 8161,
      "doctor": 8162,
      "doctorate": 8163,
      "doctors": 8164,
      "doctr": 8165,
      "doctrine": 8166,
      "document": 8167,
      "documentary": 8168,
      "documentation": 8169,
      "documented": 8170,
      "documents": 8171,
      "dod": 8172,
      "dodd": 8173,
      "dodge": 8174,
      "dodgers": 8175,
      "does": 8176,
      "doesn": 8177,
      "dog": 8178,
      "doggett": 8179,
      "dogs": 8180,
      "doi": 8181,
      "doing": 8182,
      "dol": 8183,
      "doll": 8184,
      "dollar": 8185,
      "dollars": 8186,
      "dolls": 8187,
      "dolph": 8188,
      "dolphin": 8189,
      "dolphins": 8190,
      "dom": 8191,
      "domain": 8192,
      "dome": 8193,
      "domes": 8194,
      "domesday": 8195,
      "domestic": 8196,
      "domin": 8197,
      "dominance": 8198,
      "dominant": 8199,
      "dominate": 8200,
      "dominated": 8201,
      "domination": 8202,
      "doming": 8203,
      "dominican": 8204,
      "dominion": 8205,
      "domitian": 8206,
      "don": 8207,
      "donald": 8208,
      "donated": 8209,
      "donation": 8210,
      "donations": 8211,
      "done": 8212,
      "dong": 8213,
      "donkey": 8214,
      "donna": 8215,
      "doom": 8216,
      "door": 8217,
      "doors": 8218,
      "dop": 8219,
      "dor": 8220,
      "dorm": 8221,
      "dorothy": 8222,
      "dors": 8223,
      "dorsal": 8224,
      "dorset": 8225,
      "dos": 8226,
      "dose": 8227,
      "dot": 8228,
      "dou": 8229,
      "doub": 8230,
      "double": 8231,
      "doubled": 8232,
      "doubles": 8233,
      "doubt": 8234,
      "doubts": 8235,
      "doug": 8236,
      "dougl": 8237,
      "douglas": 8238,
      "dove": 8239,
      "dover": 8240,
      "dow": 8241,
      "down": 8242,
      "downed": 8243,
      "downlo": 8244,
      "download": 8245,
      "downloadable": 8246,
      "downloads": 8247,
      "downs": 8248,
      "downstream": 8249,
      "downtown": 8250,
      "dozen": 8251,
      "dozens": 8252,
      "dr": 8253,
      "dra": 8254,
      "draft": 8255,
      "drafted": 8256,
      "drag": 8257,
      "dragged": 8258,
      "dragon": 8259,
      "dragons": 8260,
      "drain": 8261,
      "drainage": 8262,
      "drained": 8263,
      "drake": 8264,
      "dram": 8265,
      "drama": 8266,
      "dramat": 8267,
      "dramatic": 8268,
      "dramatically": 8269,
      "draught": 8270,
      "draw": 8271,
      "drawing": 8272,
      "drawings": 8273,
      "drawn": 8274,
      "draws": 8275,
      "dre": 8276,
      "dread": 8277,
      "dreadn": 8278,
      "dreadnought": 8279,
      "dream": 8280,
      "dreams": 8281,
      "dred": 8282,
      "dress": 8283,
      "dressed": 8284,
      "dressing": 8285,
      "drew": 8286,
      "dried": 8287,
      "drif": 8288,
      "drift": 8289,
      "drilling": 8290,
      "drink": 8291,
      "drinking": 8292,
      "drinks": 8293,
      "drive": 8294,
      "driven": 8295,
      "driver": 8296,
      "drivers": 8297,
      "drives": 8298,
      "driving": 8299,
      "dro": 8300,
      "drop": 8301,
      "dropped": 8302,
      "dropping": 8303,
      "drops": 8304,
      "drought": 8305,
      "drove": 8306,
      "drowned": 8307,
      "dru": 8308,
      "drug": 8309,
      "drugs": 8310,
      "drum": 8311,
      "drummer": 8312,
      "drummond": 8313,
      "drums": 8314,
      "drunk": 8315,
      "dry": 8316,
      "ds": 8317,
      "du": 8318,
      "dual": 8319,
      "dub": 8320,
      "dubai": 8321,
      "dubbed": 8322,
      "dublin": 8323,
      "duch": 8324,
      "duches": 8325,
      "duchess": 8326,
      "duchovny": 8327,
      "duchy": 8328,
      "duck": 8329,
      "ducks": 8330,
      "duct": 8331,
      "dud": 8332,
      "dudley": 8333,
      "due": 8334,
      "duet": 8335,
      "duff": 8336,
      "dug": 8337,
      "duke": 8338,
      "dul": 8339,
      "dull": 8340,
      "dum": 8341,
      "dumb": 8342,
      "dump": 8343,
      "dun": 8344,
      "duncan": 8345,
      "dund": 8346,
      "dundee": 8347,
      "dunder": 8348,
      "dunge": 8349,
      "dungeons": 8350,
      "dunn": 8351,
      "dunstan": 8352,
      "duo": 8353,
      "dup": 8354,
      "duplic": 8355,
      "dur": 8356,
      "duration": 8357,
      "durham": 8358,
      "during": 8359,
      "dus": 8360,
      "dust": 8361,
      "dut": 8362,
      "dutch": 8363,
      "duties": 8364,
      "duty": 8365,
      "dv": 8366,
      "dvd": 8367,
      "dw": 8368,
      "dwarf": 8369,
      "dwarfs": 8370,
      "dwell": 8371,
      "dwelling": 8372,
      "dwight": 8373,
      "dy": 8374,
      "dying": 8375,
      "dylan": 8376,
      "dyn": 8377,
      "dynam": 8378,
      "dynamic": 8379,
      "dynamics": 8380,
      "dynasty": 8381,
      "dys": 8382,
      "e3": 8383,
      "each": 8384,
      "eag": 8385,
      "eager": 8386,
      "eagle": 8387,
      "eagles": 8388,
      "ear": 8389,
      "earl": 8390,
      "earlier": 8391,
      "earliest": 8392,
      "early": 8393,
      "earn": 8394,
      "earned": 8395,
      "earnest": 8396,
      "earning": 8397,
      "earnings": 8398,
      "earp": 8399,
      "ears": 8400,
      "earth": 8401,
      "earthqu": 8402,
      "earthquake": 8403,
      "earthquakes": 8404,
      "eas": 8405,
      "ease": 8406,
      "easier": 8407,
      "easily": 8408,
      "east": 8409,
      "eastbound": 8410,
      "easter": 8411,
      "eastern": 8412,
      "eastward": 8413,
      "easy": 8414,
      "eat": 8415,
      "eaten": 8416,
      "eating": 8417,
      "eb": 8418,
      "ec": 8419,
      "ecc": 8420,
      "eccentric": 8421,
      "eccles": 8422,
      "ecclesiast": 8423,
      "ecclesiastical": 8424,
      "ech": 8425,
      "echo": 8426,
      "echoes": 8427,
      "ecl": 8428,
      "eclip": 8429,
      "eclips": 8430,
      "eclipse": 8431,
      "ecological": 8432,
      "ecology": 8433,
      "econ": 8434,
      "econom": 8435,
      "economic": 8436,
      "economically": 8437,
      "economics": 8438,
      "economist": 8439,
      "economy": 8440,
      "ecos": 8441,
      "ecosystem": 8442,
      "ecosystems": 8443,
      "ecw": 8444,
      "ed": 8445,
      "edda": 8446,
      "eddie": 8447,
      "eddy": 8448,
      "eden": 8449,
      "edgar": 8450,
      "edge": 8451,
      "edges": 8452,
      "edible": 8453,
      "edin": 8454,
      "edinburgh": 8455,
      "edit": 8456,
      "edited": 8457,
      "edith": 8458,
      "editing": 8459,
      "edition": 8460,
      "editions": 8461,
      "editor": 8462,
      "editorial": 8463,
      "editors": 8464,
      "edmonton": 8465,
      "edmund": 8466,
      "educ": 8467,
      "educated": 8468,
      "education": 8469,
      "educational": 8470,
      "edward": 8471,
      "edwards": 8472,
      "edwin": 8473,
      "eff": 8474,
      "effect": 8475,
      "effective": 8476,
      "effectively": 8477,
      "effectiveness": 8478,
      "effects": 8479,
      "efficiency": 8480,
      "efficient": 8481,
      "effort": 8482,
      "efforts": 8483,
      "eg": 8484,
      "egg": 8485,
      "eggs": 8486,
      "egypt": 8487,
      "egyptian": 8488,
      "eight": 8489,
      "eighteen": 8490,
      "eighteenth": 8491,
      "eighth": 8492,
      "eighty": 8493,
      "ein": 8494,
      "einstein": 8495,
      "eis": 8496,
      "eisenh": 8497,
      "eisenhower": 8498,
      "either": 8499,
      "ejected": 8500,
      "ek": 8501,
      "el": 8502,
      "elabor": 8503,
      "elaborate": 8504,
      "eld": 8505,
      "elder": 8506,
      "elderly": 8507,
      "eldest": 8508,
      "ele": 8509,
      "eleanor": 8510,
      "elect": 8511,
      "elected": 8512,
      "election": 8513,
      "elections": 8514,
      "elector": 8515,
      "electoral": 8516,
      "electr": 8517,
      "electric": 8518,
      "electrical": 8519,
      "electricity": 8520,
      "electro": 8521,
      "electrom": 8522,
      "electromagnetic": 8523,
      "electron": 8524,
      "electronic": 8525,
      "electronics": 8526,
      "electrons": 8527,
      "eleg": 8528,
      "element": 8529,
      "elementary": 8530,
      "elements": 8531,
      "eleph": 8532,
      "elephant": 8533,
      "elephants": 8534,
      "elev": 8535,
      "elevated": 8536,
      "elevation": 8537,
      "elevator": 8538,
      "eleven": 8539,
      "eleventh": 8540,
      "eli": 8541,
      "eligible": 8542,
      "elim": 8543,
      "elimin": 8544,
      "eliminate": 8545,
      "eliminated": 8546,
      "eliminating": 8547,
      "elimination": 8548,
      "eliot": 8549,
      "elite": 8550,
      "eliz": 8551,
      "elizabeth": 8552,
      "elk": 8553,
      "ell": 8554,
      "ellen": 8555,
      "elliott": 8556,
      "ellip": 8557,
      "ellis": 8558,
      "elm": 8559,
      "elong": 8560,
      "elongated": 8561,
      "else": 8562,
      "elsewhere": 8563,
      "elvis": 8564,
      "ely": 8565,
      "em": 8566,
      "eman": 8567,
      "emanuel": 8568,
      "emb": 8569,
      "embark": 8570,
      "embarked": 8571,
      "embarr": 8572,
      "embass": 8573,
      "embassy": 8574,
      "embed": 8575,
      "embedded": 8576,
      "emble": 8577,
      "emblem": 8578,
      "embr": 8579,
      "embrace": 8580,
      "embraced": 8581,
      "embry": 8582,
      "emer": 8583,
      "emerald": 8584,
      "emerg": 8585,
      "emerge": 8586,
      "emerged": 8587,
      "emergence": 8588,
      "emergency": 8589,
      "emerging": 8590,
      "emerson": 8591,
      "emi": 8592,
      "emigr": 8593,
      "emigrated": 8594,
      "emil": 8595,
      "emily": 8596,
      "eminem": 8597,
      "emir": 8598,
      "emirates": 8599,
      "emission": 8600,
      "emissions": 8601,
      "emm": 8602,
      "emma": 8603,
      "emmy": 8604,
      "emot": 8605,
      "emotion": 8606,
      "emotional": 8607,
      "emotionally": 8608,
      "emotions": 8609,
      "emp": 8610,
      "emper": 8611,
      "emperor": 8612,
      "emphas": 8613,
      "emphasis": 8614,
      "emphasize": 8615,
      "emphasized": 8616,
      "empire": 8617,
      "emplo": 8618,
      "employ": 8619,
      "employe": 8620,
      "employed": 8621,
      "employee": 8622,
      "employees": 8623,
      "employer": 8624,
      "employers": 8625,
      "employing": 8626,
      "employment": 8627,
      "employs": 8628,
      "empress": 8629,
      "empt": 8630,
      "empty": 8631,
      "en": 8632,
      "enable": 8633,
      "enabled": 8634,
      "enables": 8635,
      "enabling": 8636,
      "enact": 8637,
      "enacted": 8638,
      "enc": 8639,
      "encl": 8640,
      "enclosed": 8641,
      "enclosure": 8642,
      "encompass": 8643,
      "encompasses": 8644,
      "encoun": 8645,
      "encounter": 8646,
      "encountered": 8647,
      "encounters": 8648,
      "encour": 8649,
      "encourage": 8650,
      "encouraged": 8651,
      "encouragement": 8652,
      "encourages": 8653,
      "encouraging": 8654,
      "encycl": 8655,
      "encyclop": 8656,
      "encyclopedia": 8657,
      "end": 8658,
      "endang": 8659,
      "endangered": 8660,
      "ende": 8661,
      "endeav": 8662,
      "ended": 8663,
      "endemic": 8664,
      "ending": 8665,
      "endors": 8666,
      "endorsed": 8667,
      "endorsement": 8668,
      "endow": 8669,
      "endowment": 8670,
      "ends": 8671,
      "endurance": 8672,
      "enduring": 8673,
      "enemies": 8674,
      "enemy": 8675,
      "energ": 8676,
      "energet": 8677,
      "energetic": 8678,
      "energy": 8679,
      "enfor": 8680,
      "enforce": 8681,
      "enforced": 8682,
      "enforcement": 8683,
      "eng": 8684,
      "engage": 8685,
      "engaged": 8686,
      "engagement": 8687,
      "engagements": 8688,
      "engaging": 8689,
      "engine": 8690,
      "engineer": 8691,
      "engineering": 8692,
      "engineers": 8693,
      "engines": 8694,
      "england": 8695,
      "english": 8696,
      "engr": 8697,
      "enh": 8698,
      "enhan": 8699,
      "enhance": 8700,
      "enhanced": 8701,
      "enix": 8702,
      "enjo": 8703,
      "enjoy": 8704,
      "enjoyed": 8705,
      "enjoying": 8706,
      "enjoys": 8707,
      "enl": 8708,
      "enlar": 8709,
      "enlarged": 8710,
      "enlight": 8711,
      "enlighten": 8712,
      "enlist": 8713,
      "enlisted": 8714,
      "enorm": 8715,
      "enormous": 8716,
      "enough": 8717,
      "enqu": 8718,
      "enric": 8719,
      "enroll": 8720,
      "enrolled": 8721,
      "enrollment": 8722,
      "enron": 8723,
      "ens": 8724,
      "ensemble": 8725,
      "ensign": 8726,
      "ensuing": 8727,
      "ensure": 8728,
      "ensured": 8729,
      "ensuring": 8730,
      "ent": 8731,
      "enter": 8732,
      "entered": 8733,
      "entering": 8734,
      "enterp": 8735,
      "enterprise": 8736,
      "enterprises": 8737,
      "enters": 8738,
      "entertain": 8739,
      "entertaining": 8740,
      "entertainment": 8741,
      "enth": 8742,
      "enthus": 8743,
      "enthusi": 8744,
      "enthusias": 8745,
      "enthusiasm": 8746,
      "enthusiastic": 8747,
      "entire": 8748,
      "entirely": 8749,
      "entirety": 8750,
      "entities": 8751,
      "entitled": 8752,
      "entity": 8753,
      "entr": 8754,
      "entrance": 8755,
      "entre": 8756,
      "entreprene": 8757,
      "entries": 8758,
      "entry": 8759,
      "env": 8760,
      "envelop": 8761,
      "environ": 8762,
      "environment": 8763,
      "environmental": 8764,
      "environments": 8765,
      "envision": 8766,
      "envisioned": 8767,
      "enzym": 8768,
      "enzyme": 8769,
      "enzymes": 8770,
      "eon": 8771,
      "ep": 8772,
      "epic": 8773,
      "epid": 8774,
      "epidemic": 8775,
      "epile": 8776,
      "epileps": 8777,
      "epilepsy": 8778,
      "epis": 8779,
      "episcop": 8780,
      "episcopal": 8781,
      "episode": 8782,
      "episodes": 8783,
      "epit": 8784,
      "epithet": 8785,
      "eponymous": 8786,
      "eps": 8787,
      "epstein": 8788,
      "equ": 8789,
      "equal": 8790,
      "equality": 8791,
      "equally": 8792,
      "equation": 8793,
      "equations": 8794,
      "equator": 8795,
      "equest": 8796,
      "equestrian": 8797,
      "equil": 8798,
      "equilibrium": 8799,
      "equip": 8800,
      "equipment": 8801,
      "equipped": 8802,
      "equity": 8803,
      "equival": 8804,
      "equivalent": 8805,
      "er": 8806,
      "era": 8807,
      "erect": 8808,
      "erected": 8809,
      "eric": 8810,
      "erie": 8811,
      "erik": 8812,
      "erin": 8813,
      "ern": 8814,
      "ernest": 8815,
      "ernst": 8816,
      "erod": 8817,
      "eroded": 8818,
      "erosion": 8819,
      "erotic": 8820,
      "err": 8821,
      "error": 8822,
      "errors": 8823,
      "erupt": 8824,
      "erupted": 8825,
      "eruption": 8826,
      "eruptions": 8827,
      "es": 8828,
      "esc": 8829,
      "escal": 8830,
      "escape": 8831,
      "escaped": 8832,
      "escapes": 8833,
      "escaping": 8834,
      "escort": 8835,
      "escorted": 8836,
      "esp": 8837,
      "espec": 8838,
      "especially": 8839,
      "espn": 8840,
      "ess": 8841,
      "essay": 8842,
      "essays": 8843,
      "essence": 8844,
      "essential": 8845,
      "essentially": 8846,
      "essex": 8847,
      "est": 8848,
      "estab": 8849,
      "establ": 8850,
      "establish": 8851,
      "established": 8852,
      "establishing": 8853,
      "establishment": 8854,
      "estate": 8855,
      "estates": 8856,
      "este": 8857,
      "estim": 8858,
      "estimate": 8859,
      "estimated": 8860,
      "estimates": 8861,
      "estonia": 8862,
      "estuary": 8863,
      "et": 8864,
      "etc": 8865,
      "eternal": 8866,
      "eth": 8867,
      "ethan": 8868,
      "ethanol": 8869,
      "ethical": 8870,
      "ethics": 8871,
      "ethiop": 8872,
      "ethn": 8873,
      "ethnic": 8874,
      "etty": 8875,
      "eu": 8876,
      "euc": 8877,
      "eucl": 8878,
      "eug": 8879,
      "eugen": 8880,
      "eugene": 8881,
      "eul": 8882,
      "eur": 8883,
      "euras": 8884,
      "eurasian": 8885,
      "euro": 8886,
      "europ": 8887,
      "europa": 8888,
      "europe": 8889,
      "european": 8890,
      "europeans": 8891,
      "eurovision": 8892,
      "eust": 8893,
      "ev": 8894,
      "eva": 8895,
      "evac": 8896,
      "evacuate": 8897,
      "evacuated": 8898,
      "evacuation": 8899,
      "eval": 8900,
      "evaluated": 8901,
      "evaluation": 8902,
      "evan": 8903,
      "evangel": 8904,
      "evans": 8905,
      "evap": 8906,
      "eve": 8907,
      "even": 8908,
      "evening": 8909,
      "event": 8910,
      "events": 8911,
      "eventual": 8912,
      "eventually": 8913,
      "ever": 8914,
      "everett": 8915,
      "everton": 8916,
      "every": 8917,
      "everybody": 8918,
      "everyday": 8919,
      "everyone": 8920,
      "everything": 8921,
      "everywhere": 8922,
      "evid": 8923,
      "evidence": 8924,
      "evident": 8925,
      "evil": 8926,
      "evol": 8927,
      "evolution": 8928,
      "evolutionary": 8929,
      "evolve": 8930,
      "evolved": 8931,
      "ex": 8932,
      "exact": 8933,
      "exactly": 8934,
      "exagger": 8935,
      "exaggerated": 8936,
      "exam": 8937,
      "examination": 8938,
      "examine": 8939,
      "examined": 8940,
      "examining": 8941,
      "examp": 8942,
      "example": 8943,
      "examples": 8944,
      "exc": 8945,
      "excav": 8946,
      "excavated": 8947,
      "excavation": 8948,
      "excavations": 8949,
      "exceed": 8950,
      "exceeded": 8951,
      "exceeding": 8952,
      "excell": 8953,
      "excellence": 8954,
      "excellent": 8955,
      "except": 8956,
      "exception": 8957,
      "exceptional": 8958,
      "exceptionally": 8959,
      "exceptions": 8960,
      "excerpt": 8961,
      "excess": 8962,
      "excessive": 8963,
      "exchange": 8964,
      "exchanged": 8965,
      "excited": 8966,
      "excitement": 8967,
      "exciting": 8968,
      "excl": 8969,
      "exclud": 8970,
      "excluded": 8971,
      "excluding": 8972,
      "exclus": 8973,
      "exclusion": 8974,
      "exclusive": 8975,
      "exclusively": 8976,
      "exec": 8977,
      "execut": 8978,
      "executed": 8979,
      "execution": 8980,
      "executions": 8981,
      "executive": 8982,
      "executives": 8983,
      "exempl": 8984,
      "exempt": 8985,
      "exerc": 8986,
      "exercise": 8987,
      "exercised": 8988,
      "exercises": 8989,
      "exert": 8990,
      "exeter": 8991,
      "exha": 8992,
      "exhaust": 8993,
      "exhausted": 8994,
      "exhib": 8995,
      "exhibit": 8996,
      "exhibited": 8997,
      "exhibition": 8998,
      "exhibitions": 8999,
      "exhibits": 9000,
      "exile": 9001,
      "exiled": 9002,
      "exist": 9003,
      "existed": 9004,
      "existence": 9005,
      "existing": 9006,
      "exists": 9007,
      "exit": 9008,
      "exits": 9009,
      "exotic": 9010,
      "exp": 9011,
      "expand": 9012,
      "expanded": 9013,
      "expanding": 9014,
      "expans": 9015,
      "expansion": 9016,
      "expect": 9017,
[...]
