{
  "version": "1.0",
  "truncation": null,
  "padding": null,
  "added_tokens": [],
  "normalizer": null,
  "pre_tokenizer": {
    "type": "Whitespace"
  },
  "post_processor": null,
  "decoder": {
    "type": "WordPiece",
    "prefix": "##",
    "cleanup": true
  },
  "model": {
    "type": "WordPiece",
    "unk_token": "[UNK]",
    "continuing_subword_prefix": "##",
    "max_input_chars_per_word": 100,
    "vocab": {
      "instructs": 0,
      "pea": 1,
      "baptisms": 2,
      "questionnaire": 3,
      "incendiary": 4,
      "messina": 5,
      "clackamas": 6,
      "novigrad": 7,
      "rampart": 8,
      "indulging": 9,
      "monster": 10,
      "exams": 11,
      "toshiyuki": 12,
      "maser": 13,
      "acquainted": 14,
      "reth": 15,
      "petrosino": 16,
      "ufc": 17,
      "mechanization": 18,
      "auber": 19,
      "kohn": 20,
      "monosyllabic": 21,
      "lazare": 22,
      "mimetic": 23,
      "desm": 24,
      "helsing": 25,
      "##anational": 26,
      "##ol": 28,
      "##mins": 29,
      "bully": 30,
      "ciw": 31,
      "clinch": 32,
      "392": 33,
      "##iang": 34,
      "##avirus": 35,
      "spiral": 36,
      "bot": 37,
      "aristotelian": 38,
      "brande": 39,
      "johannessen": 40,
      "third": 41,
      "##religious": 42,
      "sharps": 43,
      "##icients": 44,
      "hydroxyl": 45,
      "meagre": 46,
      "weatherfield": 47,
      "lem": 48,
      "alterations": 49,
      "incompetent": 50,
      "infrast": 51,
      "sanday": 52,
      "noises": 53,
      "##heera": 54,
      "narwa": 55,
      "malin": 56,
      "microsc": 57,
      "polyd": 58,
      "peaked": 59,
      "competitively": 60,
      "a33": 61,
      "blackouts": 62,
      "hoops": 63,
      "##alement": 64,
      "##rete": 65,
      "fluctuation": 66,
      "delson": 67,
      "dunnville": 68,
      "blackwall": 69,
      "oldest": 70,
      "alcicornis": 71,
      "h2o": 72,
      "mantis": 73,
      "jugurtha": 74,
      "nightcl": 75,
      "seh": 76,
      "mcdou": 78,
      "supervise": 79,
      "niederm": 80,
      "grope": 81,
      "themist": 82,
      "##cart": 83,
      "physicality": 84,
      "##repres": 85,
      "adver": 86,
      "qui": 87,
      "agreeing": 88,
      "bargain": 89,
      "737s": 90,
      "jotnar": 91,
      "adapter": 92,
      "limit": 93,
      "##bott": 94,
      "mellitus": 95,
      "rastignac": 96,
      "ostr": 97,
      "carell": 98,
      "##oshi": 99,
      "sult": 100,
      "marysville": 101,
      "rodgers": 102,
      "deems": 103,
      "fatah": 104,
      "shipboard": 105,
      "powerman": 106,
      "caper": 107,
      "##idity": 108,
      "hindquarters": 109,
      "vapor": 110,
      "ancest": 111,
      "##arid": 112,
      "adam": 113,
      "som": 114,
      "immemorial": 115,
      "maximize": 116,
      "hamsters": 117,
      "##boygan": 118,
      "actu": 119,
      "##acchar": 120,
      "##ope": 121,
      "focussing": 122,
      "lapland": 123,
      "orci": 124,
      "clever": 125,
      "corinthian": 126,
      "poisoning": 127,
      "ellie": 128,
      "##urgis": 129,
      "##aceous": 130,
      "colanton": 131,
      "substance": 132,
      "arter": 133,
      "nat": 134,
      "1940s": 135,
      "##isively": 136,
      "voted": 137,
      "upro": 138,
      "forties": 139,
      "weddell": 141,
      "105": 142,
      "vo": 143,
      "dormitory": 144,
      "clarify": 145,
      "sundews": 146,
      "shellfire": 147,
      "nasl": 148,
      "infiltrate": 149,
      "##ucky": 150,
      "##geist": 151,
      "yuki": 152,
      "heliop": 153,
      "reciprocal": 154,
      "hearths": 155,
      "undisp": 156,
      "avocado": 157,
      "speech": 158,
      "interpreters": 159,
      "hesitates": 160,
      "wildwood": 161,
      "muninn": 162,
      "anglo": 163,
      "befriend": 164,
      "bitter": 165,
      "epigenetic": 166,
      "##ør": 167,
      "shuk": 168,
      "dietrich": 169,
      "bathhouses": 170,
      "corman": 171,
      "ancona": 172,
      "##quoise": 173,
      "viz": 174,
      "malhot": 175,
      "maximise": 176,
      "rhode": 177,
      "##rasch": 178,
      "delaware": 179,
      "brad": 180,
      "uri": 181,
      "reperto": 182,
      "misgivings": 183,
      "blunt": 184,
      "intercity": 185,
      "inwardly": 186,
      "carre": 187,
      "banging": 188,
      "foundry": 189,
      "correction": 190,
      "slug": 191,
      "noses": 192,
      "stun": 193,
      "herren": 194,
      "##hed": 195,
      "heals": 196,
      "tempted": 197,
      "spilled": 198,
      "mudslide": 199,
      "leibniz": 200,
      "ventilation": 201,
      "risked": 202,
      "##via": 203,
      "227": 204,
      "renault": 205,
      "minors": 206,
      "optics": 207,
      "##iati": 208,
      "echl": 209,
      "enclave": 210,
      "freya": 211,
      "##ibbin": 212,
      "jog": 213,
      "##olves": 214,
      "crimson": 215,
      "mirkin": 216,
      "seagull": 217,
      "933": 218,
      "raided": 219,
      "##mur": 220,
      "ss19": 221,
      "lothringen": 222,
      "despond": 223,
      "##rs": 224,
      "redistributed": 225,
      "isuka": 226,
      "voina": 228,
      "employment": 229,
      "##clough": 230,
      "folly": 231,
      "hos": 232,
      "prerequisites": 233,
      "conducive": 234,
      "wendi": 235,
      "caesare": 236,
      "seidler": 237,
      "coup": 238,
      "explanations": 239,
      "paralleled": 240,
      "southeastward": 241,
      "buckeyes": 242,
      "brennus": 243,
      "aphid": 244,
      "##hamsted": 245,
      "gull": 246,
      "gracefully": 247,
      "mornings": 248,
      "apprehending": 249,
      "stukeley": 250,
      "waxwing": 251,
      "auguste": 252,
      "122": 253,
      "beauchamp": 254,
      "elissa": 255,
      "conlon": 256,
      "dioscorides": 257,
      "shiro": 258,
      "marrakech": 259,
      "##rum": 260,
      "horowitz": 261,
      "ogl": 262,
      "byways": 263,
      "suit": 264,
      "##bri": 266,
      "wrongdo": 267,
      "morland": 268,
      "engagements": 269,
      "myrrh": 270,
      "batavier": 271,
      "injustices": 272,
      "monoxide": 273,
      "skillful": 274,
      "ct": 275,
      "cæd": 276,
      "hurlbut": 277,
      "alibi": 278,
      "rapper": 279,
      "slo": 280,
      "##artechea": 281,
      "valdes": 282,
      "leaders": 283,
      "fanatic": 284,
      "##ghouse": 285,
      "runway": 286,
      "typography": 287,
      "##esz": 288,
      "alist": 289,
      "ivb": 290,
      "mede": 291,
      "##ocy": 292,
      "alligator": 293,
      "mendelsohn": 294,
      "editors": 295,
      "attributing": 296,
      "1882": 297,
      "cinyras": 298,
      "ファイ": 299,
      "saloon": 300,
      "##øyen": 301,
      "rhein": 302,
      "intrac": 303,
      "supercell": 304,
      "alden": 305,
      "peterborough": 306,
      "spaceships": 307,
      "primo": 308,
      "##lendorf": 309,
      "mosienko": 310,
      "possessor": 311,
      "airstrikes": 312,
      "##anes": 313,
      "##sticks": 314,
      "riedesel": 315,
      "reduces": 316,
      "##acion": 317,
      "mclaury": 318,
      "ige": 319,
      "abductees": 320,
      "chris": 321,
      "cuckoo": 322,
      "17th": 323,
      "malibu": 324,
      "vols": 325,
      "severin": 326,
      "1930": 327,
      "amidst": 328,
      "##ext": 329,
      "delmarva": 330,
      "bondage": 331,
      "brauchitsch": 332,
      "##artolo": 333,
      "fluctuated": 334,
      "echinoderms": 335,
      "satisfactorily": 336,
      "enorm": 337,
      "diagnosis": 338,
      "dire": 339,
      "##athers": 340,
      "wheelbase": 341,
      "assimil": 342,
      "treated": 343,
      "##iste": 344,
      "judgment": 345,
      "prescription": 346,
      "flattening": 347,
      "315": 348,
      "proport": 349,
      "digesting": 350,
      "anatolia": 351,
      "kodansha": 352,
      "mohanlal": 353,
      "breat": 354,
      "belief": 355,
      "recurr": 356,
      "resistant": 357,
      "allegiance": 358,
      "tester": 359,
      "craftsmen": 360,
      "racine": 361,
      "discoveries": 362,
      "induc": 363,
      "dunkerque": 364,
      "assef": 365,
      "ixodes": 366,
      "1654": 367,
      "814": 368,
      "cobb": 369,
      "##crest": 370,
      "hydrocar": 371,
      "demag": 372,
      "##teams": 373,
      "scuba": 374,
      "censure": 375,
      "##chmidt": 376,
      "selen": 377,
      "djam": 378,
      "trunks": 379,
      "phenomen": 380,
      "abe": 381,
      "dur": 382,
      "##avoy": 383,
      "edition": 384,
      "swine": 385,
      "##rism": 386,
      "##luson": 387,
      "lifts": 388,
      "##mini": 389,
      "##icron": 390,
      "apportion": 391,
      "##ack": 392,
      "cervantes": 393,
      "fom": 394,
      "vowel": 395,
      "osgood": 396,
      "improbable": 397,
      "ered": 398,
      "zealanders": 399,
      "motorcade": 400,
      "nah": 401,
      "c151": 402,
      "attributable": 403,
      "subplot": 404,
      "bigamous": 405,
      "##but": 406,
      "chicks": 407,
      "chiswick": 408,
      "confidant": 409,
      "sheikra": 410,
      "##rip": 411,
      "sargent": 412,
      "berard": 413,
      "polite": 414,
      "mochtar": 415,
      "laue": 416,
      "haber": 417,
      "purer": 418,
      "salina": 419,
      "nbn": 420,
      "insult": 421,
      "petey": 422,
      "reiter": 423,
      "drank": 424,
      "heartland": 425,
      "##olla": 426,
      "##moth": 427,
      "lucretia": 428,
      "rebu": 429,
      "aggregates": 430,
      "østfold": 431,
      "priori": 432,
      "stil": 433,
      "batted": 434,
      "lighted": 435,
      "yildirim": 436,
      "scrut": 437,
      "transit": 438,
      "undo": 439,
      "mycroft": 440,
      "proposals": 441,
      "963": 442,
      "byprod": 443,
      "682": 444,
      "kerosene": 445,
      "lettres": 446,
      "1688": 447,
      "##inform": 448,
      "stings": 449,
      "isot": 450,
      "runways": 451,
      "##iman": 452,
      "waldeck": 453,
      "recognitions": 454,
      "ghulam": 455,
      "##omot": 456,
      "waller": 457,
      "nugent": 458,
      "frederica": 459,
      "demirchyan": 460,
      "daly": 461,
      "sibl": 462,
      "hew": 463,
      "purr": 464,
      "concourse": 465,
      "isolating": 466,
      "patanjali": 467,
      "##chy": 468,
      "##aldy": 469,
      "rotc": 470,
      "cropped": 471,
      "heated": 472,
      "hutch": 473,
      "adams": 474,
      "emin": 475,
      "mk1": 476,
      "pustaka": 477,
      "chivalry": 478,
      "implants": 479,
      "miz": 480,
      "sins": 481,
      "88": 482,
      "koen": 483,
      "punishing": 484,
      "inciner": 485,
      "gage": 486,
      "hazelwood": 487,
      "vacc": 488,
      "vil": 489,
      "topless": 490,
      "125th": 491,
      "parishes": 492,
      "wiener": 493,
      "parliamentary": 494,
      "reichsk": 495,
      "##oon": 496,
      "##utant": 497,
      "glenelg": 498,
      "plantain": 499,
      "synchron": 500,
      "arrange": 501,
      "##ushima": 502,
      "pronouns": 503,
      "##mind": 504,
      "brugge": 505,
      "1d": 506,
      "dungeon": 507,
      "hart": 508,
      "fulmin": 509,
      "same": 510,
      "brol": 511,
      "pine": 512,
      "occlusion": 513,
      "cherry": 514,
      "recharge": 515,
      "surg": 516,
      "suillus": 517,
      "##alers": 518,
      "tok": 519,
      "fool": 520,
      "examp": 521,
      "evangelism": 522,
      "ui": 523,
      "summarily": 524,
      "fox": 525,
      "qualifiers": 526,
      "##andis": 527,
      "##izard": 528,
      "##uf": 529,
      "2π": 530,
      "##eling": 531,
      "scent": 532,
      "##eside": 533,
      "treatments": 534,
      "vic": 535,
      "sprays": 536,
      "restaurateur": 537,
      "jeopardy": 538,
      "coat": 539,
      "benefiting": 540,
      "boleyn": 541,
      "residue": 542,
      "wane": 543,
      "uncomfort": 544,
      "giza": 545,
      "gro": 546,
      "presumed": 547,
      "##edience": 548,
      "gepids": 549,
      "##ledon": 550,
      "scans": 551,
      "presented": 552,
      "colonna": 553,
      "gring": 554,
      "indira": 555,
      "portions": 556,
      "hypertension": 557,
      "squalls": 558,
      "transmitter": 559,
      "ecosystem": 560,
      "texaco": 562,
      "##omics": 563,
      "##gee": 564,
      "kain": 565,
      "raikk": 566,
      "surfacing": 567,
      "tulu": 568,
      "rizz": 569,
      "compensate": 570,
      "dunfermline": 571,
      "631": 572,
      "pound": 573,
      "peer": 574,
      "contraception": 575,
      "longitudinal": 576,
      "quot": 577,
      "dogwood": 578,
      "hardscrab": 580,
      "symbolizing": 581,
      "##autions": 582,
      "wister": 583,
      "##arden": 584,
      "1446": 585,
      "protoplanetary": 586,
      "##abh": 587,
      "stalker": 588,
      "elimination": 589,
      "ramnagar": 590,
      "đur": 591,
      "broker": 592,
      "disapprove": 593,
      "##ardello": 594,
      "martialled": 595,
      "speeches": 596,
      "dominoes": 597,
      "midship": 598,
      "quarrymen": 599,
      "sited": 600,
      "balan": 601,
      "wilczek": 602,
      "lehzen": 603,
      "##agoidea": 604,
      "aristocrats": 605,
      "mathis": 606,
      "wahl": 607,
      "allowance": 608,
      "shill": 609,
      "##asket": 610,
      "soldering": 611,
      "ruthlessly": 612,
      "mosquitoes": 613,
      "##regas": 614,
      "dorn": 615,
      "πο": 616,
      "alphabetically": 617,
      "modernizing": 618,
      "dynasties": 619,
      "biographers": 620,
      "healthier": 621,
      "ochre": 622,
      "culminate": 623,
      "##bard": 624,
      "oqu": 625,
      "relaxation": 626,
      "tosa": 627,
      "2800": 628,
      "forf": 629,
      "lin": 630,
      "technicolor": 631,
      "provisionally": 632,
      "liftoff": 633,
      "unplay": 634,
      "isid": 635,
      "kirkenes": 636,
      "xs": 637,
      "schiehall": 638,
      "rudely": 639,
      "fawn": 640,
      "greats": 641,
      "##iseach": 642,
      "caricatures": 643,
      "adonis": 644,
      "spitting": 645,
      "18b": 646,
      "inexpensive": 647,
      "exp": 648,
      "meetings": 649,
      "carchar": 650,
      "##iam": 651,
      "maulik": 652,
      "##waring": 653,
      "huntsman": 654,
      "##roslav": 655,
      "##astly": 656,
      "moulting": 657,
      "stout": 658,
      "hanshin": 659,
      "hoys": 660,
      "##oye": 661,
      "curses": 662,
      "anomal": 663,
      "befriends": 664,
      "lagerst": 665,
      "nixon": 666,
      "occur": 667,
      "placate": 668,
      "strata": 669,
      "schindler": 670,
      "##iqu": 671,
      "infat": 672,
      "koval": 673,
      "strap": 674,
      "harassment": 675,
      "##lick": 676,
      "voice": 677,
      "ariffien": 678,
      "stocking": 679,
      "jacqui": 680,
      "calc": 681,
      "##bones": 682,
      "##ander": 683,
      "allan": 684,
      "roadblocks": 685,
      "##assis": 686,
      "perfect": 687,
      "footing": 688,
      "waziristan": 689,
      "corall": 690,
      "orthopedic": 691,
      "barometer": 692,
      "##ultures": 693,
      "##ischer": 694,
      "flooring": 695,
      "justinian": 696,
      "sakh": 697,
      "manned": 698,
      "manpower": 699,
      "1153": 700,
      "##osts": 701,
      "trist": 702,
      "destroyers": 703,
      "kindly": 704,
      "seeding": 705,
      "rutledge": 706,
      "clums": 707,
      "sectionals": 708,
      "litan": 709,
      "moorefield": 710,
      "fraction": 711,
      "legit": 712,
      "regan": 713,
      "singh": 714,
      "goukouni": 715,
      "dispensaries": 716,
      "chakri": 717,
      "acrimonious": 718,
      "jewellers": 719,
      "hackett": 720,
      "aquifer": 721,
      "dsm": 722,
      "engagement": 723,
      "redeveloping": 724,
      "##mani": 725,
      "blond": 726,
      "disgusting": 727,
      "##looper": 728,
      "hepatoc": 729,
      "radiance": 730,
      "signaling": 731,
      "phi": 732,
      "km2": 733,
      "thang": 734,
      "##par": 735,
      "slu": 736,
      "##astics": 737,
      "##estimate": 738,
      "ersk": 739,
      "guardiola": 740,
      "##onymus": 741,
      "sprung": 742,
      "##ostic": 743,
      "narvik": 744,
      "purchased": 745,
      "vel": 746,
      "gulfton": 747,
      "zool": 748,
      "symphonic": 749,
      "##amere": 750,
      "##reme": 751,
      "adan": 752,
      "southwards": 753,
      "saybrook": 754,
      "275": 755,
      "cohabiting": 756,
      "sansom": 757,
      "integrating": 758,
      "polemical": 759,
      "intertidal": 760,
      "singapore": 761,
      "kalimp": 762,
      "frenchman": 763,
      "corresp": 764,
      "oph": 765,
      "rhone": 766,
      "mckellar": 767,
      "mec": 768,
      "547": 769,
      "boggs": 770,
      "oscill": 771,
      "##ylvanians": 772,
      "steepest": 773,
      "octagon": 774,
      "twins": 775,
      "αυ": 776,
      "started": 777,
      "967": 778,
      "warfield": 779,
      "neuroph": 780,
      "bar": 781,
      "sney": 782,
      "darmstadt": 783,
      "herbicides": 784,
      "prosim": 785,
      "eisenh": 786,
      "gloucester": 787,
      "squeezing": 788,
      "811": 789,
      "privatised": 790,
      "victorious": 791,
      "stretcher": 792,
      "chenn": 793,
      "sky1": 794,
      "covet": 795,
      "tempered": 796,
      "discrep": 797,
      "cooperating": 798,
      "emerging": 799,
      "unabridged": 800,
      "##engt": 801,
      "##kapitan": 802,
      "stokowski": 803,
      "introduct": 804,
      "dalles": 805,
      "hedren": 806,
      "##heaster": 807,
      "bayreuth": 808,
      "favourable": 809,
      "just": 810,
      "interl": 811,
      "##bill": 812,
      "ælle": 813,
      "hc": 814,
      "nemegt": 815,
      "elisa": 816,
      "trialled": 817,
      "dimension": 818,
      "detracted": 819,
      "illiter": 821,
      "gillingham": 822,
      "joshi": 823,
      "reubens": 824,
      "haruna": 825,
      "sinhala": 826,
      "shr": 827,
      "enamel": 828,
      "sigurd": 829,
      "stoller": 830,
      "blockading": 831,
      "toyoharu": 832,
      "dashi": 833,
      "payn": 834,
      "leopoldville": 835,
      "barber": 836,
      "clocks": 837,
      "elect": 838,
      "tames": 839,
      "lovell": 840,
      "##neo": 841,
      "hillbilly": 842,
      "bian": 843,
      "assemblage": 844,
      "grange": 845,
      "motherhood": 846,
      "angevin": 847,
      "malady": 848,
      "##ability": 849,
      "influenced": 850,
      "taps": 851,
      "proportions": 852,
      "seleucids": 853,
      "sorrow": 854,
      "panelling": 855,
      "repres": 856,
      "dwindle": 857,
      "expectations": 858,
      "tcp": 859,
      "navigation": 860,
      "pak": 861,
      "zajdel": 862,
      "##avrata": 863,
      "##ists": 864,
      "individualism": 865,
      "nocs": 866,
      "gonna": 867,
      "interviewer": 868,
      "matt": 869,
      "coeducation": 870,
      "bottles": 871,
      "untold": 872,
      "macdonalds": 873,
      "##atip": 874,
      "davenport": 875,
      "##ethought": 876,
      "forces": 877,
      "##code": 878,
      "##ogallo": 879,
      "disorders": 880,
      "microscopically": 881,
      "infantryman": 882,
      "elstree": 883,
      "##isch": 884,
      "lightship": 885,
      "pangloss": 886,
      "gaze": 887,
      "longstreet": 888,
      "mesoscale": 889,
      "hominid": 890,
      "1708": 891,
      "sauce": 892,
      "repeats": 893,
      "viswanathan": 894,
      "rural": 895,
      "nfb": 896,
      "ulleval": 897,
      "68": 898,
      "pirate": 899,
      "deja": 900,
      "##ucion": 901,
      "individualized": 902,
      "pe": 903,
      "alameda": 904,
      "probably": 905,
      "peierls": 906,
      "mcclure": 907,
      "andalus": 908,
      "extensive": 909,
      "samir": 910,
      "octop": 911,
      "robberies": 912,
      "bedding": 913,
      "herndon": 914,
      "muhammed": 915,
      "elisabeth": 916,
      "joked": 917,
      "lagoons": 918,
      "staging": 919,
      "komnenian": 920,
      "##enshm": 921,
      "patrician": 922,
      "resultant": 923,
      "circulating": 924,
      "##uction": 925,
      "##iyar": 926,
      "dungen": 927,
      "patriarchs": 928,
      "aash": 929,
      "throat": 930,
      "bohol": 931,
      "okinawa": 932,
      "testified": 933,
      "olimp": 934,
      "sig": 935,
      "1600s": 936,
      "linus": 937,
      "obese": 938,
      "##uchin": 939,
      "gliese": 940,
      "daenerys": 941,
      "matha": 942,
      "edged": 943,
      "natur": 944,
      "americas": 945,
      "scarp": 946,
      "dib": 947,
      "heel": 948,
      "##oass": 949,
      "sobbing": 950,
      "shenandoah": 951,
      "##icits": 952,
      "thyl": 953,
      "terrace": 954,
      "avoided": 955,
      "reent": 956,
      "##itud": 957,
      "hawes": 958,
      "comcast": 959,
      "repurp": 960,
      "canvas": 961,
      "microorgan": 962,
      "blackrock": 963,
      "tos": 964,
      "weighed": 965,
      "ninety": 966,
      "redsh": 967,
      "kathmandu": 968,
      "meerkat": 969,
      "dichotomy": 970,
      "sounding": 971,
      "goggles": 972,
      "##ameha": 973,
      "int": 974,
      "##illois": 975,
      "zeal": 976,
      "##reet": 977,
      "project": 978,
      "shand": 979,
      "zoned": 980,
      "gou": 981,
      "burnished": 982,
      "trickery": 983,
      "shir": 984,
      "##ki": 985,
      "##ring": 986,
      "epa": 987,
      "niu": 988,
      "hangings": 989,
      "hdtv": 990,
      "jurist": 991,
      "##ef": 992,
      "coogan": 993,
      "flew": 994,
      "riding": 995,
      "foresters": 996,
      "tenth": 997,
      "##net": 998,
      "signor": 999,
      "cai": 1000,
      "##ud": 1001,
      "afores": 1002,
      "shadowrun": 1003,
      "whitefield": 1004,
      "tolerant": 1005,
      "unlocking": 1006,
      "##nn": 1007,
      "##aic": 1008,
      "depth": 1009,
      "blindness": 1010,
      "vaginal": 1011,
      "stepped": 1012,
      "strath": 1013,
      "walken": 1014,
      "lets": 1015,
      "longev": 1016,
      "##ieft": 1017,
      "gaelic": 1018,
      "ojibwa": 1019,
      "##atoos": 1020,
      "unexploded": 1021,
      "coalesced": 1022,
      "##ones": 1023,
      "##umatic": 1024,
      "intellect": 1025,
      "garrison": 1026,
      "goss": 1027,
      "shaikh": 1028,
      "representation": 1029,
      "maunsell": 1030,
      "188": 1031,
      "sixties": 1032,
      "gutenberg": 1033,
      "elevation": 1034,
      "##die": 1035,
      "copyr": 1036,
      "anglers": 1037,
      "shashthi": 1038,
      "devaluation": 1039,
      "458": 1040,
      "ballets": 1041,
      "troyes": 1042,
      "firewall": 1043,
      "##aa": 1044,
      "amplitude": 1045,
      "montclair": 1046,
      "bt": 1047,
      "experienced": 1048,
      "tarpan": 1049,
      "instyle": 1050,
      "demer": 1051,
      "lexical": 1052,
      "##uclides": 1053,
      "timorese": 1054,
      "##avent": 1055,
      "sey": 1056,
      "thatched": 1057,
      "polymer": 1058,
      "chasers": 1059,
      "peril": 1060,
      "84": 1061,
      "backl": 1062,
      "terrapins": 1063,
      "885": 1064,
      "##rau": 1065,
      "vhf": 1066,
      "macfarlane": 1067,
      "spokesp": 1068,
      "##opluteus": 1069,
      "charles": 1070,
      "obituary": 1072,
      "indicates": 1073,
      "milosevic": 1074,
      "ahl": 1075,
      "illusion": 1076,
      "aggressor": 1077,
      "alasdair": 1078,
      "asks": 1079,
      "hokie": 1080,
      "courland": 1081,
      "amenhotep": 1082,
      "kwajalein": 1083,
      "accessories": 1084,
      "##uaq": 1085,
      "phyllo": 1086,
      "puberty": 1087,
      "##does": 1088,
      "##electronic": 1089,
      "##ablish": 1090,
      "82nd": 1091,
      "vogt": 1092,
      "hatteras": 1093,
      "westerners": 1094,
      "##orial": 1095,
      "gort": 1096,
      "prospect": 1097,
      "876": 1098,
      "zayas": 1099,
      "tepid": 1100,
      "kimi": 1101,
      "##elike": 1102,
      "sacred": 1103,
      "machinist": 1104,
      "refin": 1105,
      "ikata": 1106,
      "cornfield": 1107,
      "twh": 1108,
      "##asta": 1109,
      "mccrack": 1110,
      "istvan": 1111,
      "##helieu": 1112,
      "faculties": 1113,
      "bates": 1114,
      "hela": 1115,
      "homeowner": 1116,
      "restor": 1117,
      "regimes": 1118,
      "apuleius": 1119,
      "quitting": 1120,
      "differenced": 1121,
      "shaar": 1122,
      "hoang": 1123,
      "##atina": 1125,
      "##uchea": 1126,
      "clarendon": 1127,
      "lepros": 1128,
      "concentrations": 1129,
      "rajang": 1130,
      "barrhead": 1131,
      "colleges": 1132,
      "deformity": 1133,
      "##trian": 1134,
      "expansion": 1135,
      "ror": 1136,
      "iph": 1137,
      "clockwise": 1138,
      "valeri": 1139,
      "turnp": 1140,
      "partenkirchen": 1141,
      "aura": 1142,
      "rises": 1143,
      "leis": 1144,
      "αυτ": 1145,
      "69": 1146,
      "##orship": 1147,
      "facil": 1148,
      "honorius": 1149,
      "bravo": 1150,
      "123": 1151,
      "stossel": 1152,
      "##quar": 1153,
      "extracurricular": 1154,
      "haupt": 1155,
      "##endorf": 1156,
      "funimation": 1157,
      "sitt": 1158,
      "chaim": 1159,
      "mailbox": 1160,
      "lordly": 1161,
      "seeger": 1162,
      "honeymoon": 1163,
      "kirk": 1164,
      "presse": 1165,
      "tyrwhitt": 1166,
      "charlotte": 1167,
      "beshear": 1168,
      "foll": 1169,
      "##ocet": 1170,
      "impercept": 1171,
      "##oway": 1172,
      "cutaneous": 1173,
      "hermitage": 1174,
      "648": 1175,
      "friede": 1176,
      "##abalu": 1177,
      "telly": 1178,
      "revolutionized": 1179,
      "casbah": 1180,
      "relatives": 1181,
      "maritime": 1182,
      "termed": 1183,
      "incarn": 1184,
      "##ized": 1185,
      "sinal": 1186,
      "squat": 1187,
      "ceremonial": 1188,
      "arpe": 1189,
      "amphip": 1190,
      "lineback": 1191,
      "ignacy": 1192,
      "zou": 1193,
      "tiller": 1194,
      "providers": 1195,
      "cologne": 1196,
      "sakhalin": 1197,
      "subter": 1198,
      "##ukas": 1199,
      "hangzhou": 1200,
      "teetot": 1201,
      "emotions": 1202,
      "eval": 1203,
      "live": 1204,
      "manufact": 1205,
      "radiation": 1206,
      "sek": 1207,
      "##coming": 1208,
      "##amo": 1209,
      "gila": 1210,
      "apprentices": 1211,
      "##cast": 1212,
      "andrey": 1213,
      "grip": 1214,
      "fregues": 1215,
      "crystallography": 1216,
      "regattas": 1217,
      "yaj": 1218,
      "rasping": 1219,
      "reiss": 1220,
      "##ecutter": 1221,
      "disadvantage": 1222,
      "ablation": 1223,
      "##veer": 1224,
      "algebraic": 1225,
      "unnecess": 1226,
      "snatched": 1227,
      "hipp": 1228,
      "mut": 1229,
      "mongrels": 1230,
      "cemented": 1231,
      "things": 1232,
      "##icker": 1233,
      "##agasy": 1234,
      "uncompressed": 1235,
      "##odiazep": 1236,
      "faltering": 1237,
      "brewp": 1238,
      "prison": 1239,
      "##se": 1240,
      "bear": 1241,
      "##kegaard": 1242,
      "tweed": 1243,
      "rossini": 1244,
      "sendai": 1245,
      "##bleau": 1246,
      "georgians": 1247,
      "inaus": 1248,
      "widowers": 1249,
      "blay": 1250,
      "##bas": 1251,
      "milligan": 1252,
      "##ead": 1253,
      "optimize": 1254,
      "jainism": 1255,
      "halpert": 1256,
      "retrospectives": 1257,
      "footballer": 1258,
      "freedom": 1259,
      "reconstruct": 1260,
      "billboard": 1261,
      "##odal": 1262,
      "frome": 1263,
      "adirond": 1264,
      "truffle": 1265,
      "gmaw": 1266,
      "mainshock": 1267,
      "initially": 1268,
      "spreads": 1269,
      "satirical": 1270,
      "1753": 1271,
      "patterned": 1272,
      "boutique": 1273,
      "recognised": 1274,
      "unbeaten": 1275,
      "kup": 1276,
      "1586": 1277,
      "transatlantic": 1278,
      "europeans": 1279,
      "circled": 1280,
      "laksh": 1281,
      "rhodesians": 1282,
      "lipsett": 1283,
      "potion": 1284,
      "sunda": 1285,
      "kimberley": 1286,
      "cine": 1287,
      "trou": 1288,
      "amenh": 1289,
      "gains": 1290,
      "1203": 1291,
      "lycee": 1292,
      "fits": 1293,
      "unveiled": 1294,
      "pandarus": 1295,
      "striations": 1296,
      "omnivorous": 1297,
      "promot": 1298,
      "##roduction": 1299,
      "caniff": 1300,
      "##engh": 1301,
      "fantaji": 1302,
      "dubstep": 1303,
      "##qvist": 1304,
      "##endine": 1305,
      "quirky": 1306,
      "##gilan": 1307,
      "discharges": 1308,
      "gallons": 1309,
      "oneness": 1310,
      "##ilic": 1311,
      "stre": 1312,
      "molitor": 1313,
      "byr": 1314,
      "dlc": 1315,
      "salton": 1316,
      "apec": 1317,
      "micror": 1318,
      "supersp": 1319,
      "hydnellum": 1320,
      "skye": 1321,
      "militias": 1322,
      "moham": 1323,
      "fascism": 1324,
      "invercargill": 1325,
      "barbours": 1326,
      "breyf": 1327,
      "thunder": 1328,
      "snapper": 1329,
      "agm": 1330,
      "##chellum": 1331,
      "hokkaido": 1332,
      "beller": 1333,
      "citygarden": 1334,
      "hauling": 1335,
      "embras": 1336,
      "##yny": 1337,
      "krishnam": 1338,
      "prototypical": 1339,
      "stasi": 1340,
      "plenary": 1341,
      "restores": 1342,
      "##ogi": 1343,
      "gridlock": 1344,
      "humanized": 1345,
      "##ysk": 1346,
      "dugout": 1347,
      "duss": 1348,
      "dorothy": 1349,
      "ledge": 1350,
      "virtually": 1351,
      "##osene": 1352,
      "griss": 1353,
      "guyon": 1354,
      "sidney": 1355,
      "wrestlemania": 1356,
      "gdansk": 1357,
      "morya": 1358,
      "bridgestone": 1359,
      "dard": 1360,
      "##urthy": 1361,
      "summers": 1362,
      "johannesburg": 1363,
      "##station": 1364,
      "pean": 1365,
      "piazza": 1366,
      "sect": 1367,
      "domineering": 1368,
      "curvature": 1369,
      "keefe": 1370,
      "goldman": 1371,
      "smallpox": 1372,
      "169": 1373,
      "tomita": 1374,
      "##izes": 1375,
      "scotch": 1376,
      "lance": 1377,
      "cockatoos": 1379,
      "equinoxes": 1380,
      "brighton": 1381,
      "bedsit": 1382,
      "fitzgerald": 1383,
      "benefactor": 1384,
      "948": 1385,
      "cambodian": 1386,
      "##itors": 1387,
      "##brit": 1388,
      "equations": 1389,
      "roxette": 1390,
      "cosimo": 1391,
      "posed": 1392,
      "sokol": 1393,
      "##lace": 1394,
      "##houb": 1395,
      "steinman": 1396,
      "fatima": 1397,
      "obliquity": 1398,
      "diogenes": 1399,
      "##ammell": 1400,
      "schooner": 1401,
      "harald": 1402,
      "##ced": 1403,
      "appra": 1404,
      "divination": 1405,
      "storylines": 1406,
      "hap": 1407,
      "glend": 1408,
      "##olzie": 1409,
      "##cc": 1410,
      "##orensis": 1411,
      "everywhere": 1412,
      "tapping": 1413,
      "minnie": 1414,
      "##zzles": 1415,
      "ceramics": 1416,
      "implication": 1417,
      "apologize": 1418,
      "stops": 1419,
      "historical": 1420,
      "ladder": 1421,
      "diagnosing": 1422,
      "bosni": 1423,
      "paralymp": 1424,
      "theodora": 1425,
      "lured": 1426,
      "##nde": 1427,
      "##roscopic": 1428,
      "delphine": 1429,
      "selfe": 1430,
      "rinc": 1431,
      "unionization": 1432,
      "karmas": 1433,
      "1750": 1434,
      "wallace": 1435,
      "signings": 1436,
      "janetti": 1437,
      "##obots": 1438,
      "humanoid": 1439,
      "deforestation": 1440,
      "amines": 1441,
      "dominated": 1442,
      "mesqu": 1443,
      "lan": 1444,
      "sur": 1445,
      "pursued": 1446,
      "scalp": 1447,
      "salz": 1448,
      "vanilla": 1449,
      "disqualify": 1450,
      "##idia": 1451,
      "tard": 1452,
      "puff": 1453,
      "padmini": 1454,
      "kies": 1455,
      "roofs": 1456,
      "ingested": 1457,
      "roadie": 1458,
      "##unt": 1459,
      "echid": 1460,
      "gasification": 1461,
      "inaccurately": 1462,
      "##adai": 1463,
      "##mp": 1464,
      "soloist": 1465,
      "yah": 1466,
      "imagine": 1467,
      "##2o": 1468,
      "accords": 1469,
      "glassmaking": 1470,
      "turrets": 1471,
      "brushes": 1472,
      "buries": 1473,
      "pundit": 1474,
      "buns": 1475,
      "morgenthau": 1476,
      "inha": 1477,
      "rukh": 1478,
      "mistresses": 1479,
      "rsp": 1480,
      "ligaments": 1481,
      "doherty": 1482,
      "pacts": 1483,
      "radzym": 1484,
      "583": 1485,
      "postcards": 1486,
      "hulled": 1487,
      "galleries": 1488,
      "unh": 1489,
      "opin": 1490,
      "superst": 1491,
      "endowed": 1492,
      "leslie": 1493,
      "islam": 1494,
      "##ero": 1495,
      "##ountry": 1496,
      "rastaf": 1497,
      "681": 1498,
      "burj": 1499,
      "fenest": 1500,
      "seniors": 1501,
      "loveshow": 1502,
      "forlag": 1503,
      "##wells": 1504,
      "kocharyan": 1505,
      "extirp": 1506,
      "alkalis": 1507,
      "acoust": 1508,
      "##rimus": 1509,
      "tampere": 1510,
      "lanark": 1511,
      "panning": 1512,
      "##merge": 1513,
      "shove": 1514,
      "##essori": 1515,
      "conquistadors": 1516,
      "headphones": 1517,
      "glaser": 1518,
      "retic": 1520,
      "glad": 1521,
      "flanders": 1522,
      "##oted": 1523,
      "perthshire": 1524,
      "ulle": 1525,
      "conjo": 1526,
      "##anzee": 1527,
      "assistant": 1528,
      "unsupported": 1529,
      "angry": 1530,
      "repetitions": 1531,
      "propane": 1532,
      "p2": 1533,
      "lytton": 1534,
      "knuck": 1535,
      "motocross": 1536,
      "longtime": 1537,
      "cott": 1538,
      "##uo": 1539,
      "oman": 1540,
      "##ovar": 1541,
      "illustration": 1542,
      "antico": 1543,
      "darwin": 1544,
      "tints": 1545,
      "dejected": 1546,
      "shaffer": 1547,
      "recit": 1548,
      "falun": 1549,
      "abandoning": 1550,
      "cammalleri": 1551,
      "203": 1552,
      "swin": 1553,
      "##oue": 1554,
      "leinster": 1555,
      "sleep": 1556,
      "drought": 1557,
      "##jong": 1558,
      "insects": 1559,
      "##aning": 1560,
      "prevalent": 1561,
      "framingham": 1562,
      "##emor": 1563,
      "afternoon": 1564,
      "##ittal": 1565,
      "shahr": 1566,
      "odors": 1567,
      "official": 1568,
      "##bulus": 1569,
      "14": 1570,
      "cfm5": 1571,
      "provisions": 1572,
      "creates": 1573,
      "##aceted": 1574,
      "eobr": 1575,
      "panjang": 1576,
      "kobayashi": 1577,
      "##lana": 1578,
      "anacapa": 1579,
      "abt": 1580,
      "lair": 1581,
      "victor": 1582,
      "24": 1583,
      "misrepres": 1584,
      "##oque": 1585,
      "chim": 1586,
      "perr": 1587,
      "##istically": 1588,
      "##sie": 1589,
      "dub": 1590,
      "canonised": 1591,
      "##ado": 1592,
      "drafte": 1593,
      "zx81": 1594,
      "buzzworthy": 1595,
      "sharun": 1596,
      "caruana": 1597,
      "tey": 1598,
      "squeals": 1599,
      "consul": 1600,
      "facundo": 1601,
      "radha": 1602,
      "permanently": 1603,
      "trev": 1604,
      "31": 1605,
      "interred": 1607,
      "equilib": 1608,
      "##ρος": 1609,
      "embarrassing": 1610,
      "pozieres": 1612,
      "cul": 1613,
      "breakers": 1614,
      "diarra": 1615,
      "pompeo": 1616,
      "refrain": 1617,
      "sideman": 1618,
      "##alypt": 1619,
      "annals": 1620,
      "tryptoph": 1621,
      "basidiomyc": 1622,
      "macadam": 1623,
      "nematodes": 1624,
      "ilium": 1625,
      "##wick": 1626,
      "##ivile": 1627,
      "inclined": 1628,
      "batty": 1629,
      "##uin": 1630,
      "shet": 1631,
      "substations": 1632,
      "tot": 1633,
      "uerl": 1634,
      "folkvangr": 1635,
      "shirelles": 1636,
      "##namese": 1637,
      "mph": 1638,
      "rosewater": 1639,
      "proxy": 1640,
      "astros": 1641,
      "prick": 1642,
      "footn": 1643,
      "nabi": 1644,
      "cards": 1645,
      "visions": 1646,
      "hyperco": 1647,
      "##stool": 1648,
      "shackleton": 1649,
      "outnumbered": 1650,
      "blythburgh": 1651,
      "tricky": 1652,
      "##grats": 1653,
      "743": 1654,
      "vils": 1655,
      "sensation": 1656,
      "koda": 1657,
      "bakker": 1658,
      "wittenberg": 1659,
      "ugo": 1660,
      "mediocrity": 1661,
      "nob": 1662,
      "alessandro": 1663,
      "evgen": 1664,
      "bog": 1665,
      "romanoff": 1666,
      "1806": 1667,
      "innervation": 1668,
      "anecdote": 1669,
      "exhibition": 1670,
      "telmatiaea": 1671,
      "forlorn": 1672,
      "disgruntled": 1673,
      "angus": 1674,
      "rachelle": 1675,
      "deak": 1676,
      "billed": 1677,
      "crowley": 1678,
      "wismer": 1679,
      "##adged": 1680,
      "##asses": 1681,
      "cataw": 1682,
      "denzel": 1683,
      "##coll": 1684,
      "aum": 1685,
      "michel": 1686,
      "##astrum": 1687,
      "wittels": 1688,
      "agitations": 1689,
      "handclaps": 1690,
      "aberhart": 1691,
      "plutoids": 1692,
      "hostilities": 1693,
      "apportionment": 1694,
      "mcgo": 1695,
      "gaping": 1696,
      "4th": 1697,
      "##picious": 1698,
      "suggests": 1699,
      "perspectives": 1700,
      "peirs": 1701,
      "##umn": 1702,
      "conserve": 1703,
      "claudia": 1704,
      "participating": 1705,
      "fishguard": 1706,
      "##atsugi": 1707,
      "##kreuz": 1708,
      "##enta": 1709,
      "kemal": 1710,
      "wyman": 1711,
      "disher": 1712,
      "mrs": 1713,
      "##wed": 1714,
      "photosynthetic": 1715,
      "burret": 1716,
      "blinking": 1717,
      "barbara": 1718,
      "boggy": 1719,
      "coalition": 1720,
      "unstable": 1721,
      "frigg": 1722,
      "undertaker": 1723,
      "##icum": 1724,
      "638": 1725,
      "needed": 1726,
      "##national": 1727,
      "romanization": 1728,
      "##phalia": 1729,
      "sheared": 1730,
      "deer": 1731,
      "collingwood": 1732,
      "morel": 1733,
      "toole": 1734,
      "120": 1735,
      "creams": 1736,
      "##zine": 1737,
      "parkways": 1738,
      "023": 1739,
      "depress": 1740,
      "##reatment": 1741,
      "samos": 1742,
      "ange": 1743,
      "barely": 1744,
      "peptides": 1745,
      "40k": 1746,
      "viviparous": 1747,
      "killarney": 1748,
      "##author": 1749,
      "##balls": 1750,
      "##hip": 1751,
      "monogamy": 1752,
      "causing": 1753,
      "maint": 1754,
      "striking": 1755,
      "dugdale": 1756,
      "##ripted": 1757,
      "vermilion": 1758,
      "beaub": 1759,
      "corpus": 1760,
      "judicious": 1761,
      "bernad": 1762,
      "moonwalk": 1763,
      "daniels": 1764,
      "##zah": 1765,
      "inflect": 1766,
      "beheaded": 1767,
      "lab": 1768,
      "numerically": 1769,
      "10": 1770,
      "cleo": 1771,
      "standalone": 1772,
      "jena": 1773,
      "##ograd": 1774,
      "aural": 1775,
      "smoot": 1776,
      "wooll": 1777,
      "regolith": 1778,
      "reproductive": 1779,
      "guards": 1780,
      "leningrad": 1781,
      "##ulence": 1782,
      "concede": 1783,
      "southend": 1784,
      "haworth": 1785,
      "urrea": 1786,
      "principality": 1787,
      "##apagos": 1788,
      "linked": 1789,
      "##width": 1790,
      "isley": 1791,
      "bastian": 1792,
      "440": 1793,
      "##bhum": 1794,
      "destructive": 1795,
      "##enheim": 1796,
      "lyotropic": 1797,
      "svetambara": 1798,
      "amador": 1799,
      "steered": 1800,
      "erratic": 1801,
      "circuitous": 1802,
      "annihilate": 1803,
      "machias": 1804,
      "ragusa": 1805,
      "naboo": 1806,
      "byte": 1807,
      "chy": 1808,
      "adjo": 1809,
      "ontonagon": 1810,
      "bosnia": 1811,
      "ottavian": 1812,
      "waterway": 1814,
      "resili": 1815,
      "regimen": 1816,
      "959": 1817,
      "bossy": 1818,
      "##osion": 1819,
      "palatine": 1820,
      "tapeworm": 1821,
      "128": 1822,
      "epithel": 1823,
      "tamper": 1824,
      "linga": 1825,
      "shapiro": 1826,
      "fright": 1827,
      "barbarism": 1828,
      "puzzling": 1829,
      "outl": 1830,
      "silhouetted": 1831,
      "falconer": 1832,
      "attempted": 1833,
      "check": 1834,
      "declaration": 1835,
      "drilling": 1836,
      "senshi": 1837,
      "scents": 1838,
      "honaker": 1839,
      "hmong": 1840,
      "pilot": 1841,
      "wayte": 1842,
      "ratna": 1843,
      "laurinaitis": 1844,
      "299": 1845,
      "##ethor": 1846,
      "reinterpreted": 1847,
      "271": 1848,
      "fragments": 1849,
      "spotnitz": 1850,
      "karabakh": 1851,
      "planted": 1852,
      "repayment": 1853,
      "virtu": 1854,
      "ruins": 1855,
      "##kirk": 1856,
      "##stoke": 1858,
      "maneth": 1859,
      "misidentified": 1860,
      "mundane": 1861,
      "warbrick": 1862,
      "realignment": 1863,
      "criminally": 1864,
      "deletions": 1865,
      "cute": 1866,
      "rayo": 1867,
      "metrodome": 1868,
      "meath": 1869,
      "##essa": 1870,
      "##anche": 1871,
      "meters": 1872,
      "budgeted": 1873,
      "##gem": 1874,
      "superfamily": 1875,
      "herrerasaurus": 1876,
      "2013": 1877,
      "pulsars": 1878,
      "nordland": 1879,
      "symeon": 1880,
      "16": 1881,
      "laguna": 1882,
      "thoracic": 1883,
      "parm": 1884,
      "abominations": 1885,
      "jumbotron": 1886,
      "discerned": 1887,
      "pneumonia": 1888,
      "emus": 1889,
      "##ulay": 1890,
      "schutz": 1891,
      "gottfried": 1892,
      "##one": 1893,
      "voiceless": 1894,
      "katori": 1895,
      "dupuy": 1896,
      "resourceful": 1897,
      "showy": 1898,
      "frequencies": 1899,
      "velvet": 1900,
      "quantization": 1901,
      "neutralized": 1902,
      "proteas": 1903,
      "marston": 1904,
      "wired": 1905,
      "orchids": 1906,
      "##rial": 1907,
      "choice": 1908,
      "##isei": 1909,
      "##icion": 1910,
      "ehime": 1911,
      "##igny": 1912,
      "marceline": 1913,
      "baynard": 1914,
      "##aine": 1915,
      "td": 1916,
      "devastating": 1917,
      "breguet": 1918,
      "attractions": 1919,
      "augen": 1920,
      "compute": 1921,
      "furst": 1922,
      "coolidge": 1923,
      "481": 1924,
      "##berinto": 1925,
      "geneticist": 1926,
      "woolly": 1927,
      "##enchant": 1928,
      "enlarge": 1929,
      "##ioedema": 1930,
      "telomer": 1931,
      "##say": 1932,
      "nagapattinam": 1933,
      "vanbrugh": 1934,
      "njorðr": 1935,
      "augusto": 1936,
      "noninter": 1937,
      "infomercial": 1938,
      "accounts": 1939,
      "embroidered": 1940,
      "norteno": 1941,
      "sewers": 1942,
      "modulated": 1943,
      "disgusted": 1944,
      "##wr": 1945,
      "skunks": 1946,
      "scissor": 1947,
      "disruptions": 1948,
      "##fries": 1949,
      "barr": 1950,
      "##ucium": 1951,
      "##eratops": 1952,
      "ponies": 1953,
      "beaks": 1954,
      "knowledge": 1955,
      "disbel": 1956,
      "girders": 1957,
      "simps": 1958,
      "peckham": 1959,
      "1a": 1960,
      "surrealism": 1961,
      "viviana": 1962,
      "##itel": 1963,
      "andersons": 1964,
      "motorb": 1965,
      "##usel": 1966,
      "tam": 1967,
      "sxsw": 1968,
      "##adically": 1969,
      "kham": 1970,
      "fad": 1971,
      "nightclubs": 1972,
      "rajoelina": 1973,
      "slowdown": 1974,
      "mcnab": 1975,
      "match": 1976,
      "gunnison": 1977,
      "kentuckian": 1978,
      "dekum": 1979,
      "louth": 1980,
      "catalog": 1981,
      "astra": 1982,
      "872": 1983,
      "sonoran": 1984,
      "##itan": 1985,
      "guerin": 1986,
      "mira": 1987,
      "duarte": 1988,
      "relaid": 1989,
      "hippe": 1990,
      "##mi": 1991,
      "distillation": 1992,
      "1658": 1993,
      "russ": 1994,
      "transuranium": 1995,
      "##ibrand": 1996,
      "attrition": 1997,
      "##anar": 1998,
      "flandez": 1999,
      "##ecs": 2000,
      "iain": 2001,
      "lorraine": 2002,
      "thoughtful": 2003,
      "tubular": 2004,
      "sucked": 2005,
      "upn": 2006,
      "epic": 2007,
      "anchored": 2008,
      "barring": 2009,
      "##yloid": 2010,
      "ba": 2011,
      "headdress": 2012,
      "interwar": 2013,
      "enid": 2014,
      "sceptics": 2015,
      "meadows": 2016,
      "anomalous": 2017,
      "bahamian": 2018,
      "unguarded": 2019,
      "alien": 2020,
      "reformer": 2021,
      "crypto": 2022,
      "pyro": 2023,
      "brahe": 2024,
      "miley": 2025,
      "nesting": 2026,
      "##waite": 2027,
      "trotters": 2028,
      "fermanagh": 2029,
      "sumac": 2030,
      "sequenced": 2031,
      "##iles": 2032,
      "offspring": 2033,
      "hae": 2034,
      "gorman": 2035,
      "saxe": 2036,
      "backuphddvd": 2037,
      "zar": 2038,
      "##cept": 2039,
      "ziguinch": 2040,
      "yester": 2041,
      "##robor": 2042,
      "##ps": 2043,
      "wigwam": 2044,
      "tabby": 2045,
      "##abank": 2046,
      "dismissing": 2047,
      "metastasis": 2048,
      "glacis": 2049,
      "use": 2050,
      "arise": 2051,
      "pretentious": 2052,
      "backbenc": 2053,
      "bhutanese": 2054,
      "##apped": 2055,
      "rubberized": 2056,
      "climbers": 2057,
      "modeled": 2058,
      "##reco": 2059,
      "tycoon": 2060,
      "ist": 2061,
      "oceanic": 2063,
      "strathearn": 2064,
      "bactrian": 2065,
      "cinemascope": 2066,
      "missions": 2067,
      "bandico": 2068,
      "reichsmarine": 2069,
      "caes": 2070,
      "##ession": 2071,
      "brer": 2072,
      "connects": 2073,
      "##mother": 2074,
      "wifi": 2075,
      "##elsas": 2076,
      "thereby": 2077,
      "covan": 2078,
      "quite": 2079,
      "sutor": 2080,
      "wad": 2081,
      "astrolabe": 2082,
      "toothed": 2083,
      "pione": 2084,
      "stalk": 2085,
      "##ername": 2086,
      "barbourville": 2087,
      "amur": 2088,
      "##icacy": 2089,
      "fair": 2090,
      "eras": 2091,
      "ghet": 2092,
      "##ovitz": 2093,
      "##garden": 2094,
      "delilah": 2095,
      "##harie": 2096,
      "panda": 2097,
      "falco": 2098,
      "rented": 2099,
      "aisled": 2100,
      "improved": 2101,
      "endicott": 2102,
      "##rope": 2103,
      "headlined": 2104,
      "picardy": 2105,
      "aristarchus": 2106,
      "farringdon": 2107,
      "blouse": 2108,
      "concoct": 2109,
      "frightful": 2110,
      "psychological": 2111,
      "1165": 2112,
      "militaries": 2113,
      "dwayne": 2114,
      "1380": 2115,
      "airframes": 2116,
      "southerners": 2117,
      "dutt": 2118,
      "mansfield": 2119,
      "deputies": 2120,
      "applause": 2121,
      "##ivan": 2122,
      "atch": 2123,
      "##ouses": 2124,
      "mindanao": 2125,
      "hash": 2126,
      "##ldau": 2127,
      "##sala": 2128,
      "timekeeper": 2129,
      "heterosexual": 2130,
      "osteochond": 2131,
      "##icist": 2132,
      "strada": 2133,
      "cuneatus": 2134,
      "shed": 2135,
      "nellis": 2136,
      "inflows": 2137,
      "plumage": 2138,
      "gunshots": 2139,
      "##ali": 2140,
      "subatomic": 2141,
      "##anese": 2143,
      "northerners": 2144,
      "10a": 2145,
      "southey": 2146,
      "help": 2147,
      "1770s": 2148,
      "bacliff": 2149,
      "nør": 2150,
      "behaviour": 2151,
      "ruther": 2152,
      "transported": 2153,
      "##zab": 2154,
      "esophagus": 2155,
      "fabricated": 2156,
      "ritual": 2157,
      "reimb": 2158,
      "errant": 2159,
      "sutan": 2160,
      "apsara": 2161,
      "slaugh": 2162,
      "cumber": 2163,
      "elmore": 2164,
      "spank": 2165,
      "##entive": 2166,
      "privy": 2167,
      "than": 2168,
      "skunkworks": 2169,
      "repetitive": 2170,
      "##ナル": 2171,
      "lond": 2172,
      "rory": 2173,
      "##ometric": 2174,
      "indirect": 2175,
      "##seed": 2176,
      "sulfate": 2177,
      "basidium": 2178,
      "fx": 2179,
      "palenque": 2180,
      "##ibilities": 2181,
      "bobble": 2182,
      "##wrens": 2183,
      "rah": 2185,
      "##ibo": 2186,
      "skink": 2187,
      "healing": 2188,
      "sugr": 2189,
      "koi": 2190,
      "1711": 2191,
      "kendrick": 2192,
      "gypsies": 2193,
      "taxay": 2194,
      "thalberg": 2195,
      "adalbert": 2196,
      "invader": 2197,
      "arose": 2198,
      "crustacean": 2199,
      "phenomenal": 2200,
      "##oust": 2201,
      "voluntary": 2202,
      "headlights": 2203,
      "bulbous": 2204,
      "tethered": 2205,
      "prices": 2206,
      "##innis": 2207,
      "gift": 2208,
      "poedjang": 2209,
      "illustrates": 2210,
      "fault": 2211,
      "seaward": 2212,
      "1584": 2213,
      "directives": 2214,
      "minuscule": 2215,
      "proclaimed": 2216,
      "palpat": 2217,
      "##ido": 2218,
      "napolitano": 2219,
      "uprisings": 2220,
      "meenakshi": 2221,
      "links": 2222,
      "bros": 2223,
      "notwith": 2224,
      "purports": 2225,
      "cry": 2226,
      "elephanta": 2227,
      "gurley": 2228,
      "noongar": 2229,
      "cartier": 2230,
      "rath": 2231,
      "aircraft": 2232,
      "habitation": 2233,
      "pinks": 2234,
      "##atron": 2235,
      "283": 2236,
      "48": 2237,
      "##akibara": 2238,
      "stear": 2239,
      "brook": 2241,
      "revelations": 2242,
      "collared": 2243,
      "torrie": 2244,
      "forum": 2245,
      "srin": 2246,
      "upheaval": 2247,
      "avionics": 2248,
      "ilaiy": 2249,
      "mysterious": 2250,
      "sympathy": 2251,
      "##tag": 2252,
      "andromedae": 2253,
      "xuanz": 2254,
      "anarchism": 2256,
      "ig": 2257,
      "statewide": 2258,
      "carmine": 2259,
      "tadeusz": 2260,
      "##opeck": 2261,
      "presum": 2262,
      "accepted": 2263,
      "coleman": 2264,
      "tati": 2265,
      "layered": 2266,
      "compensates": 2267,
      "sedition": 2268,
      "thaw": 2269,
      "afulah": 2270,
      "caudal": 2271,
      "fainted": 2272,
      "cajon": 2273,
      "lanchester": 2274,
      "##ulmon": 2275,
      "##ohn": 2276,
      "aphrodisiac": 2277,
      "gentle": 2278,
      "flint": 2279,
      "##awati": 2280,
      "protestant": 2281,
      "gives": 2282,
      "oec": 2283,
      "royds": 2284,
      "neody": 2285,
      "##istol": 2286,
      "photosynthesis": 2287,
      "raya": 2288,
      "ducking": 2289,
      "58th": 2290,
      "atm": 2291,
      "parkway": 2292,
      "helvellyn": 2293,
      "essend": 2294,
      "61": 2295,
      "##yps": 2296,
      "shanty": 2297,
      "meanest": 2298,
      "employe": 2299,
      "enrollments": 2300,
      "conglomerate": 2301,
      "flavius": 2302,
      "##oti": 2303,
      "songbird": 2304,
      "1410": 2305,
      "demoralized": 2306,
      "unsubstant": 2307,
      "dionys": 2308,
      "bruyneel": 2309,
      "odd": 2310,
      "topped": 2311,
      "mollusc": 2312,
      "hwa": 2313,
      "shoshone": 2314,
      "mimicry": 2315,
      "fegelein": 2316,
      "joust": 2317,
      "elong": 2318,
      "refurbishment": 2319,
      "##show": 2320,
      "##stoun": 2321,
      "worn": 2322,
      "catwoman": 2323,
      "stabilizing": 2324,
      "coastguard": 2325,
      "worshiping": 2326,
      "##imea": 2327,
      "conductor": 2328,
      "charnwood": 2329,
      "hemorrhage": 2330,
      "instalments": 2331,
      "despises": 2332,
      "wiggins": 2333,
      "aur": 2334,
      "838": 2335,
      "memorized": 2336,
      "##ashing": 2338,
      "indoor": 2339,
      "ductile": 2341,
      "longitudinally": 2342,
      "sulawesi": 2343,
      "smashes": 2344,
      "##inked": 2345,
      "wipeout": 2346,
      "##rimon": 2347,
      "blockade": 2348,
      "079": 2349,
      "##oloph": 2350,
      "biologically": 2351,
      "##ulieu": 2352,
      "614": 2353,
      "bel": 2354,
      "gilmour": 2355,
      "footh": 2356,
      "##elyt": 2357,
      "mississipp": 2358,
      "odwalla": 2359,
      "periast": 2361,
      "grumpy": 2362,
      "brewster": 2363,
      "allotrope": 2364,
      "osteopor": 2365,
      "##lein": 2366,
      "montanan": 2367,
      "ledger": 2368,
      "wort": 2369,
      "villeneuve": 2370,
      "immigrate": 2371,
      "chapelle": 2372,
      "plinth": 2373,
      "variations": 2374,
      "##alese": 2375,
      "##terman": 2376,
      "strips": 2377,
      "nauru": 2378,
      "hov": 2379,
      "adopt": 2380,
      "accosted": 2381,
      "turnovers": 2382,
      "arrows": 2383,
      "beaconsfield": 2384,
      "joule": 2385,
      "reece": 2386,
      "castellan": 2387,
      "approvals": 2388,
      "limiting": 2389,
      "rifleman": 2390,
      "475": 2391,
      "blunders": 2392,
      "wellington": 2393,
      "picks": 2394,
      "##aghetti": 2395,
      "capped": 2396,
      "pyth": 2397,
      "indie": 2398,
      "ropes": 2399,
      "greenwood": 2401,
      "maran": 2402,
      "##eca": 2403,
      "civic": 2404,
      "christabel": 2405,
      "harry": 2406,
      "fluoride": 2407,
      "initiate": 2408,
      "pelt": 2409,
      "clasica": 2410,
      "szekesfehervar": 2411,
      "##ensical": 2412,
      "intracellular": 2413,
      "hoffman": 2414,
      "somer": 2415,
      "shaded": 2416,
      "mcke": 2417,
      "##pill": 2418,
      "farmhouse": 2419,
      "valenc": 2420,
      "wodehouse": 2421,
      "neh": 2422,
      "county": 2423,
      "westwood": 2425,
      "pusan": 2426,
      "milano": 2427,
      "waterside": 2428,
      "gippsland": 2429,
      "kook": 2430,
      "prismatic": 2431,
      "chargers": 2432,
      "mosques": 2433,
      "this": 2434,
      "proselyt": 2435,
      "electrolysis": 2436,
      "cal": 2437,
      "genus": 2438,
      "rout": 2439,
      "kann": 2440,
      "kad": 2441,
      "egyptologist": 2442,
      "##ades": 2443,
      "energetically": 2444,
      "hurry": 2445,
      "##unn": 2446,
      "dunham": 2447,
      "annular": 2448,
      "slice": 2449,
      "jenny": 2450,
      "ops": 2451,
      "##ertain": 2452,
      "druckmann": 2453,
      "##akengard": 2454,
      "ionian": 2456,
      "chhinnamasta": 2457,
      "analyse": 2458,
      "tarnish": 2459,
      "703": 2460,
      "kirov": 2461,
      "bur": 2462,
      "nans": 2463,
      "mosqu": 2464,
      "widens": 2465,
      "genelia": 2466,
      "plank": 2467,
      "##pow": 2468,
      "kagama": 2469,
      "explained": 2470,
      "merino": 2471,
      "sibling": 2472,
      "thrush": 2473,
      "blun": 2474,
      "##agrap": 2475,
      "##ha": 2476,
      "inclem": 2477,
      "forecast": 2478,
      "racial": 2479,
      "siboney": 2480,
      "##meable": 2481,
      "cedric": 2482,
      "disproportion": 2483,
      "subset": 2484,
      "majority": 2485,
      "lat": 2486,
      "sho": 2487,
      "disinher": 2488,
      "##hyd": 2489,
      "alexa": 2490,
      "##alanine": 2491,
      "gomes": 2492,
      "dissim": 2493,
      "cortical": 2494,
      "staves": 2495,
      "hertz": 2496,
      "memberships": 2497,
      "##ich": 2498,
      "pareh": 2499,
      "hirohito": 2500,
      "abbe": 2501,
      "airways": 2502,
      "##atively": 2503,
      "fangs": 2504,
      "constraint": 2505,
      "lillestr": 2506,
      "mekong": 2507,
      "42nd": 2508,
      "strong": 2509,
      "sights": 2510,
      "rothbard": 2511,
      "##stand": 2512,
      "aunt": 2513,
      "airman": 2514,
      "kremer": 2515,
      "ramon": 2516,
      "elm": 2517,
      "carla": 2518,
      "training": 2519,
      "brighter": 2520,
      "otacon": 2521,
      "biol": 2522,
      "picture": 2523,
      "##enity": 2524,
      "##appy": 2525,
      "nadezhda": 2526,
      "##otros": 2527,
      "lakeshore": 2528,
      "exponent": 2529,
      "neuros": 2530,
      "country": 2531,
      "negation": 2532,
      "suzie": 2533,
      "memorabilia": 2534,
      "wolfram": 2535,
      "rebutted": 2536,
      "probing": 2537,
      "1684": 2538,
      "keturah": 2539,
      "overboard": 2540,
      "maup": 2541,
      "##kohl": 2542,
      "debutant": 2543,
      "##ieces": 2544,
      "versus": 2545,
      "carlotta": 2546,
      "##about": 2547,
      "satchel": 2548,
      "magazine": 2549,
      "indecent": 2550,
      "tensor": 2551,
      "foals": 2552,
      "cadron": 2553,
      "##shof": 2554,
      "misd": 2555,
      "maidenhead": 2556,
      "77": 2557,
      "snowmobiling": 2558,
      "decreased": 2559,
      "eternal": 2560,
      "yugoslavia": 2561,
      "595": 2562,
      "fixed": 2563,
      "##arry": 2564,
      "015": 2565,
      "sandro": 2566,
      "clath": 2567,
      "cheers": 2568,
      "2001": 2569,
      "outflanking": 2570,
      "gald": 2571,
      "budding": 2572,
      "aul": 2573,
      "wellard": 2574,
      "##lyph": 2575,
      "clashed": 2576,
      "444": 2577,
      "ni": 2578,
      "void": 2579,
      "wrangel": 2580,
      "hammers": 2581,
      "kv": 2582,
      "lg": 2583,
      "entrance": 2584,
      "crc": 2585,
      "tastes": 2586,
      "midloth": 2587,
      "##iparum": 2588,
      "prohibitively": 2589,
      "##eshow": 2590,
      "flames": 2591,
      "taker": 2592,
      "roch": 2593,
      "eager": 2594,
      "querc": 2595,
      "wcg": 2596,
      "baan": 2597,
      "entity": 2598,
      "voyk": 2599,
      "sommer": 2600,
      "dissenting": 2601,
      "cinemax": 2602,
      "##nock": 2603,
      "##gingly": 2604,
      "crediting": 2605,
      "courtly": 2606,
      "undocument": 2607,
      "1119": 2608,
      "mckeon": 2609,
      "vietnamese": 2610,
      "semantics": 2611,
      "##jana": 2612,
      "##uman": 2613,
      "elucidated": 2614,
      "learn": 2615,
      "amagi": 2616,
      "montgom": 2617,
      "oversee": 2618,
      "cadbury": 2619,
      "##cross": 2620,
      "ibr": 2621,
      "unrelenting": 2622,
      "primate": 2623,
      "##ark": 2624,
      "morea": 2625,
      "denning": 2626,
      "mariners": 2627,
      "erasure": 2628,
      "goteborg": 2629,
      "ethyl": 2630,
      "logue": 2631,
      "jacques": 2632,
      "1222": 2633,
      "hamad": 2634,
      "annun": 2635,
      "meeker": 2636,
      "bestsellers": 2637,
      "powerfully": 2638,
      "high": 2639,
      "warr": 2640,
      "ohsu": 2641,
      "##otrophic": 2642,
      "runaways": 2643,
      "wario": 2644,
      "gaster": 2645,
      "ankyl": 2646,
      "##eland": 2647,
      "fodder": 2648,
      "##rard": 2649,
      "alis": 2650,
      "invasive": 2651,
      "##owners": 2652,
      "bullet": 2653,
      "gravesite": 2654,
      "confuc": 2655,
      "compiegne": 2656,
      "pantograph": 2657,
      "jungles": 2658,
      "weaver": 2659,
      "irrig": 2660,
      "bb": 2661,
      "##actyl": 2662,
      "rumb": 2663,
      "hitch": 2664,
      "##rule": 2665,
      "electronegative": 2666,
      "savag": 2667,
      "kirker": 2668,
      "haraldsson": 2669,
      "distressed": 2670,
      "sly": 2671,
      "kopu": 2672,
      "reels": 2673,
      "varang": 2674,
      "hindi": 2675,
      "invariant": 2676,
      "burthen": 2677,
      "gild": 2678,
      "1920": 2679,
      "lactic": 2680,
      "milligram": 2681,
      "kassandra": 2682,
      "cass": 2683,
      "scribes": 2684,
      "##brun": 2686,
      "philippe": 2687,
      "fanciful": 2688,
      "park": 2689,
      "cipher": 2690,
      "dir": 2692,
      "shew": 2693,
      "010": 2694,
      "animatic": 2695,
      "##icek": 2696,
      "lanny": 2697,
      "sick": 2698,
      "takei": 2699,
      "appelle": 2700,
      "lloyd": 2701,
      "dissimilar": 2702,
      "smashers": 2703,
      "eisner": 2704,
      "tested": 2705,
      "louis": 2706,
      "##owe": 2707,
      "runaway": 2708,
      "kesselring": 2709,
      "gne": 2711,
      "1851": 2712,
      "krone": 2713,
      "intolerance": 2714,
      "playlist": 2715,
      "fuentes": 2716,
      "jarls": 2717,
      "chappell": 2718,
      "subic": 2719,
      "##racharya": 2720,
      "##abe": 2721,
      "hypotenuse": 2722,
      "##olution": 2723,
      "megab": 2724,
      "trillium": 2725,
      "closing": 2726,
      "spectacular": 2727,
      "mater": 2728,
      "semiaquatic": 2729,
      "##noth": 2730,
      "weird": 2731,
      "proks": 2732,
      "leicester": 2733,
      "##ined": 2734,
      "domed": 2735,
      "albeit": 2736,
      "rh": 2737,
      "newsc": 2738,
      "rousing": 2739,
      "massie": 2740,
      "##iances": 2741,
      "##andest": 2742,
      "eldredge": 2743,
      "##umer": 2744,
      "vinn": 2745,
      "##knight": 2746,
      "underrated": 2747,
      "eriksson": 2748,
      "incriminating": 2749,
      "hev": 2750,
      "1694": 2751,
      "##inshed": 2752,
      "##quet": 2753,
      "blew": 2754,
      "##ereau": 2755,
      "bowker": 2756,
      "pickingill": 2757,
      "livonia": 2758,
      "heyer": 2759,
      "denton": 2760,
      "##inkin": 2761,
      "##chess": 2762,
      "wallis": 2763,
      "##oman": 2764,
      "quebrada": 2765,
      "relo": 2766,
      "misplaced": 2767,
      "citi": 2769,
      "##oian": 2770,
      "worshipful": 2771,
      "updated": 2772,
      "surviv": 2773,
      "cag": 2774,
      "mootz": 2775,
      "ratcliffe": 2776,
      "corbin": 2777,
      "cinemas": 2778,
      "enfranch": 2779,
      "dye": 2780,
      "disple": 2781,
      "comforts": 2782,
      "##ivray": 2783,
      "succ": 2784,
      "europ": 2785,
      "1058": 2786,
      "scrambled": 2787,
      "boucherett": 2788,
      "fabricating": 2789,
      "chandra": 2790,
      "rotting": 2791,
      "busoni": 2792,
      "polygon": 2793,
      "awesome": 2794,
      "##agna": 2795,
      "pel": 2796,
      "overalls": 2797,
      "1703": 2798,
      "##season": 2799,
      "networks": 2800,
      "subservient": 2801,
      "lade": 2802,
      "timely": 2803,
      "##aun": 2804,
      "koch": 2805,
      "lawrence": 2806,
      "##undu": 2807,
      "##cars": 2808,
      "rebeli": 2809,
      "deconstruct": 2810,
      "##urient": 2811,
      "tad": 2812,
      "mud": 2813,
      "mongo": 2814,
      "semantically": 2815,
      "hussars": 2816,
      "shapinsay": 2817,
      "exceeded": 2818,
      "excelsis": 2819,
      "predispose": 2820,
      "rockford": 2821,
      "cartel": 2823,
      "franciscans": 2824,
      "9w": 2825,
      "annalen": 2826,
      "##juk": 2827,
      "selwood": 2828,
      "inconsistently": 2829,
      "##ential": 2830,
      "firefight": 2831,
      "unusable": 2832,
      "detect": 2833,
      "daven": 2834,
      "boden": 2835,
      "unconcerned": 2836,
      "lust": 2837,
      "compiling": 2838,
      "khas": 2839,
      "1910": 2840,
      "ree": 2841,
      "expressible": 2842,
      "##ipped": 2843,
      "colne": 2844,
      "sinh": 2845,
      "##enthal": 2846,
      "emphasise": 2847,
      "cristaldi": 2848,
      "hern": 2849,
      "kopp": 2850,
      "clarified": 2851,
      "books": 2852,
      "desal": 2853,
      "distinctions": 2854,
      "draining": 2855,
      "believers": 2856,
      "butterworth": 2857,
      "brainstorming": 2858,
      "aphthous": 2859,
      "bigh": 2860,
      "pequ": 2861,
      "afoot": 2862,
      "weatherford": 2863,
      "libris": 2864,
      "bevan": 2865,
      "vibes": 2866,
      "oryz": 2867,
      "fails": 2868,
      "indefensible": 2869,
      "nicoll": 2870,
      "wille": 2871,
      "awry": 2872,
      "invaluable": 2873,
      "verifying": 2875,
      "charts": 2876,
      "##iona": 2877,
      "contend": 2878,
      "hollow": 2879,
      "brah": 2880,
      "bentley": 2881,
      "danja": 2882,
      "slipway": 2883,
      "lion": 2884,
      "perplexed": 2885,
      "singapura": 2886,
      "forwards": 2887,
      "busking": 2888,
      "rossia": 2889,
      "carradine": 2890,
      "unable": 2891,
      "akbar": 2892,
      "##olds": 2893,
      "probate": 2894,
      "##bell": 2895,
      "eliminat": 2897,
      "shown": 2898,
      "fronten": 2899,
      "253": 2900,
      "ging": 2901,
      "photography": 2902,
      "lindner": 2903,
      "hasta": 2904,
      "lh": 2905,
      "pacino": 2906,
      "##omparable": 2907,
      "cisse": 2908,
      "consummated": 2909,
      "authorities": 2910,
      "cros": 2911,
      "hatt": 2912,
      "muscov": 2913,
      "##forms": 2914,
      "nano": 2915,
      "teri": 2916,
      "tropospheric": 2917,
      "joffrey": 2918,
      "haircut": 2919,
      "corrobor": 2920,
      "ken": 2921,
      "revival": 2922,
      "avrocar": 2923,
      "##choten": 2924,
      "##halde": 2925,
      "lacy": 2926,
      "physical": 2927,
      "##nah": 2928,
      "shortland": 2929,
      "asuncion": 2930,
      "##enthau": 2931,
      "##ieme": 2932,
      "storyline": 2933,
      "enantiomer": 2934,
      "##vs": 2935,
      "##ibillion": 2936,
      "hyenas": 2937,
      "250": 2938,
      "irrelevant": 2939,
      "kors": 2940,
      "harsh": 2941,
      "##are": 2942,
      "##lud": 2943,
      "stanley": 2944,
      "judgement": 2945,
      "acclamation": 2946,
      "1891": 2947,
      "##con": 2948,
      "astrologers": 2949,
      "pint": 2950,
      "castan": 2951,
      "yamaha": 2952,
      "perpetrated": 2953,
      "rehired": 2954,
      "##liff": 2955,
      "distort": 2956,
      "tina": 2957,
      "makinson": 2958,
      "0031": 2959,
      "allocator": 2960,
      "mcnally": 2961,
      "mosaics": 2962,
      "hord": 2963,
      "multiplier": 2964,
      "##oglobul": 2965,
      "cortege": 2966,
      "ferb": 2967,
      "tangent": 2968,
      "shore": 2969,
      "irreconcilable": 2970,
      "##ianon": 2971,
      "sweetheart": 2972,
      "calcare": 2973,
      "hollyoaks": 2974,
      "underlies": 2975,
      "rational": 2976,
      "##oker": 2977,
      "plantation": 2978,
      "##overs": 2979,
      "fragment": 2980,
      "kivilo": 2981,
      "##aina": 2982,
      "defenseman": 2983,
      "disagre": 2984,
      "##gender": 2985,
      "nort": 2986,
      "soaked": 2987,
      "##ement": 2988,
      "pot": 2989,
      "##end": 2990,
      "##rontal": 2991,
      "oriz": 2992,
      "cooperated": 2993,
      "offend": 2994,
      "##string": 2995,
      "urbanised": 2996,
      "chaco": 2997,
      "inducements": 2998,
      "chamberlain": 2999,
      "luton": 3000,
      "mathematicians": 3001,
      "monter": 3002,
      "necessitating": 3003,
      "##gric": 3004,
      "lacuna": 3005,
      "coaling": 3006,
      "kenaston": 3007,
      "##nden": 3008,
      "wigan": 3009,
      "hij": 3010,
      "1802": 3011,
      "ebor": 3012,
      "indispensable": 3013,
      "##ourg": 3014,
      "shrinking": 3015,
      "##tesfield": 3016,
      "starbuck": 3017,
      "knitta": 3018,
      "experts": 3019,
      "pendulous": 3020,
      "broderick": 3021,
      "cabaret": 3022,
      "1077": 3023,
      "filipino": 3024,
      "carbine": 3025,
      "wrapper": 3026,
      "chromate": 3027,
      "sahitya": 3028,
      "sketchy": 3029,
      "breech": 3030,
      "zum": 3031,
      "gales": 3032,
      "samberg": 3033,
      "geodetic": 3034,
      "221": 3035,
      "schlegel": 3036,
      "conceive": 3037,
      "scotts": 3038,
      "ascendancy": 3039,
      "christiana": 3040,
      "tass": 3041,
      "marck": 3042,
      "polyethylene": 3043,
      "argus": 3044,
      "symbiotic": 3045,
      "kgf": 3046,
      "1869": 3047,
      "stopband": 3048,
      "ghouta": 3049,
      "1837": 3050,
      "troi": 3051,
      "benefactors": 3052,
      "leinart": 3053,
      "pentecostal": 3054,
      "manifesting": 3055,
      "speed": 3056,
      "magically": 3057,
      "##erved": 3058,
      "87": 3059,
      "glamor": 3060,
      "northolt": 3061,
      "##cras": 3062,
      "flirting": 3063,
      "christy": 3064,
      "whores": 3065,
      "adorns": 3066,
      "chattering": 3067,
      "ji": 3068,
      "sverdrup": 3069,
      "psychosis": 3070,
      "starbreeze": 3071,
      "cheques": 3072,
      "currant": 3073,
      "nurs": 3074,
      "eruptions": 3075,
      "hillsides": 3076,
      "partitions": 3077,
      "jerzy": 3078,
      "haas": 3079,
      "atlee": 3080,
      "computed": 3081,
      "pcs": 3082,
      "pneumothorax": 3083,
      "cabbage": 3084,
      "m11": 3085,
      "shephard": 3086,
      "lore": 3087,
      "goalie": 3088,
      "competencies": 3089,
      "##arant": 3090,
      "gusting": 3091,
      "backbenchers": 3092,
      "##rings": 3093,
      "bellerophon": 3094,
      "relocation": 3095,
      "been": 3096,
      "nomadic": 3097,
      "bower": 3098,
      "ronaldsay": 3099,
      "coastline": 3100,
      "ibooks": 3101,
      "swedish": 3102,
      "sanctify": 3103,
      "2p": 3104,
      "nebulae": 3105,
      "eze": 3106,
      "yngling": 3107,
      "requis": 3108,
      "idiosyncras": 3110,
      "tym": 3111,
      "echaug": 3112,
      "bailed": 3113,
      "lonely": 3114,
      "ukrainians": 3115,
      "marshall": 3116,
      "milt": 3117,
      "newell": 3118,
      "chav": 3119,
      "abdomen": 3120,
      "hopkinton": 3121,
      "mead": 3122,
      "##eless": 3123,
      "138": 3124,
      "ascend": 3125,
      "woodblock": 3126,
      "napoli": 3127,
      "organization": 3128,
      "interlink": 3129,
      "hundred": 3130,
      "llang": 3131,
      "hober": 3132,
      "symbolist": 3133,
      "oerl": 3134,
      "##encester": 3135,
      "old": 3136,
      "fawkes": 3137,
      "daoism": 3138,
      "lithuanian": 3139,
      "woon": 3140,
      "helmut": 3141,
      "townsville": 3142,
      "arthurian": 3143,
      "reacted": 3144,
      "transocean": 3145,
      "wsp": 3146,
      "bojic": 3147,
      "exemplary": 3148,
      "milestone": 3149,
      "friendlier": 3150,
      "cotswold": 3151,
      "resilience": 3152,
      "transplanted": 3153,
      "landsberg": 3154,
      "reclaiming": 3155,
      "bulletin": 3156,
      "babylonians": 3157,
      "frictional": 3158,
      "ym": 3159,
      "instr": 3160,
      "worrying": 3161,
      "tall": 3162,
      "desens": 3163,
      "turns": 3164,
      "1781": 3165,
      "safeguarding": 3166,
      "biał": 3167,
      "scotti": 3168,
      "dimes": 3169,
      "foreseeable": 3170,
      "1264": 3171,
      "kosher": 3172,
      "addicted": 3173,
      "furman": 3174,
      "frod": 3175,
      "mu": 3176,
      "snowm": 3177,
      "pankhurst": 3178,
      "plastics": 3179,
      "##zie": 3180,
      "nymp": 3181,
      "shutouts": 3182,
      "cloaca": 3183,
      "sterb": 3184,
      "contemporaneously": 3185,
      "##nai": 3187,
      "glencoe": 3188,
      "##ographers": 3189,
      "xel": 3190,
      "mahone": 3191,
      "sash": 3192,
      "directors": 3193,
      "athos": 3194,
      "##onent": 3195,
      "##abad": 3196,
      "scob": 3198,
      "katyn": 3199,
      "signers": 3200,
      "mendic": 3201,
      "beech": 3202,
      "rainfor": 3203,
      "collectively": 3204,
      "taich": 3205,
      "mariam": 3206,
      "1219": 3207,
      "disparaged": 3208,
      "##uberc": 3209,
      "rosta": 3210,
      "homogen": 3211,
      "predetermined": 3212,
      "iroc": 3213,
      "##hn": 3214,
      "cares": 3215,
      "leasing": 3216,
      "strung": 3217,
      "##ptoph": 3218,
      "meteorological": 3219,
      "oriente": 3220,
      "##enerys": 3221,
      "##baud": 3222,
      "identify": 3223,
      "usher": 3224,
      "translit": 3225,
      "gymnasium": 3226,
      "springb": 3227,
      "buffers": 3228,
      "llo": 3229,
      "##xisting": 3230,
      "widmerpool": 3231,
      "agroforestry": 3232,
      "stressful": 3233,
      "chased": 3234,
      "molybdenum": 3235,
      "desc": 3236,
      "elim": 3237,
      "hitsugaya": 3238,
      "teammates": 3239,
      "whitemore": 3240,
      "bitterns": 3241,
      "sholom": 3242,
      "proceed": 3243,
      "theological": 3244,
      "vh1": 3245,
      "conditionally": 3246,
      "ponytail": 3247,
      "extension": 3248,
      "##garner": 3249,
      "##opop": 3250,
      "mustang": 3251,
      "fw": 3252,
      "immobilization": 3253,
      "loyola": 3254,
      "subgiant": 3255,
      "roof": 3256,
      "##nod": 3257,
      "nitrate": 3258,
      "dundalk": 3259,
      "deprecated": 3260,
      "stirl": 3261,
      "decltype": 3262,
      "ruisd": 3263,
      "betr": 3264,
      "additionally": 3265,
      "fork": 3266,
      "namely": 3267,
      "leake": 3268,
      "##write": 3269,
      "mahathir": 3270,
      "kidnappers": 3271,
      "minic": 3272,
      "barnaby": 3273,
      "aggregating": 3274,
      "maskelyne": 3275,
      "323": 3276,
      "w3c": 3277,
      "paleontological": 3278,
      "invoke": 3279,
      "##lets": 3280,
      "wildlife": 3281,
      "ambassad": 3282,
      "gentry": 3283,
      "malayan": 3284,
      "vertex": 3285,
      "spand": 3286,
      "1255": 3287,
      "##hound": 3288,
      "barrels": 3289,
      "ælfric": 3290,
      "complexion": 3291,
      "tutt": 3292,
      "##urrent": 3293,
      "stov": 3294,
      "marmal": 3295,
      "professionally": 3296,
      "##oton": 3297,
      "unlikely": 3298,
      "exh": 3299,
      "overran": 3300,
      "riddler": 3301,
      "eas": 3302,
      "alvaro": 3303,
      "##pius": 3304,
      "vaccine": 3305,
      "pav": 3306,
      "reminding": 3307,
      "undescribed": 3308,
      "franchises": 3309,
      "honeycomb": 3310,
      "##rels": 3311,
      "acanthocytes": 3312,
      "shinn": 3313,
      "ortega": 3314,
      "keir": 3315,
      "reverse": 3316,
      "scooter": 3317,
      "##rand": 3318,
      "emphasized": 3319,
      "pyre": 3320,
      "transportation": 3321,
      "baltistan": 3322,
      "carli": 3323,
      "pariah": 3324,
      "##emaker": 3325,
      "##ileo": 3326,
      "brunel": 3327,
      "psychiatry": 3328,
      "scalia": 3329,
      "##alpa": 3330,
      "discussion": 3331,
      "cano": 3332,
      "polygonal": 3333,
      "gallium": 3334,
      "coldrum": 3335,
      "ferg": 3336,
      "swimwear": 3337,
      "zepp": 3338,
      "vertue": 3339,
      "levers": 3340,
      "abkhaz": 3341,
      "liability": 3342,
      "##tar": 3343,
      "##iton": 3344,
      "silverman": 3345,
      "stutter": 3346,
      "vile": 3347,
      "carot": 3348,
      "turban": 3349,
      "fundra": 3350,
      "viscous": 3351,
      "omits": 3352,
      "newhall": 3353,
      "inhalation": 3354,
      "blazes": 3355,
      "##oux": 3356,
      "interludes": 3357,
      "mackay": 3358,
      "alert": 3359,
      "dolom": 3360,
      "prayers": 3361,
      "periscope": 3362,
      "airflow": 3363,
      "beaumont": 3364,
      "##ogo": 3365,
      "##eia": 3366,
      "shorelines": 3367,
      "quir": 3368,
      "entablature": 3369,
      "godmother": 3370,
      "##noy": 3371,
      "glamour": 3372,
      "emo": 3373,
      "recombinant": 3374,
      "grandchild": 3375,
      "cuticles": 3376,
      "bragi": 3377,
      "hagerstown": 3378,
      "aliens": 3379,
      "##alides": 3380,
      "awfully": 3381,
      "loggerhead": 3382,
      "fibr": 3383,
      "nect": 3384,
      "mendeleev": 3385,
      "differentiate": 3386,
      "cassandra": 3387,
      "prewar": 3388,
      "leveled": 3389,
      "marussia": 3390,
      "ascension": 3391,
      "warwick": 3392,
      "denard": 3393,
      "fluids": 3394,
      "31st": 3395,
      "cinematic": 3396,
      "520": 3397,
      "fledgling": 3398,
      "hospice": 3399,
      "congregationalists": 3400,
      "siti": 3401,
      "schneider": 3402,
      "similar": 3403,
      "##obi": 3404,
      "conclave": 3405,
      "##pac": 3406,
      "bour": 3407,
      "symantec": 3408,
      "citron": 3409,
      "katzenberg": 3410,
      "exempted": 3411,
      "cholangitis": 3412,
      "wsf": 3413,
      "csupo": 3414,
      "makar": 3415,
      "dormael": 3416,
      "corm": 3417,
      "##aint": 3418,
      "slaughterhouse": 3419,
      "swordsmanship": 3420,
      "proving": 3421,
      "##haan": 3422,
      "hardc": 3423,
      "eglinton": 3424,
      "solicitor": 3425,
      "spinster": 3426,
      "hyakutake": 3427,
      "harmful": 3428,
      "gabled": 3429,
      "ugandan": 3430,
      "auriga": 3431,
      "inj": 3432,
      "classmate": 3433,
      "millicent": 3434,
      "toba": 3435,
      "ceos": 3436,
      "announcing": 3437,
      "yoginis": 3438,
      "netbsd": 3439,
      "frost": 3440,
      "casinos": 3441,
      "prospector": 3442,
      "developments": 3443,
      "shoe": 3444,
      "##incham": 3445,
      "gala": 3446,
      "kong": 3447,
      "pruss": 3448,
      "gulag": 3449,
      "71": 3450,
      "dilute": 3451,
      "thornton": 3452,
      "rashtrak": 3453,
      "powered": 3454,
      "##ritical": 3455,
      "nhs": 3456,
      "jocelin": 3457,
      "harries": 3458,
      "commendation": 3459,
      "bagenholm": 3460,
      "related": 3461,
      "rounds": 3462,
      "rows": 3463,
      "thres": 3464,
      "roundly": 3465,
      "exoplan": 3466,
      "burlesque": 3467,
      "elven": 3469,
      "predicament": 3470,
      "acquiescence": 3471,
      "##othe": 3472,
      "legh": 3473,
      "fearlessness": 3474,
      "haringey": 3475,
      "montacute": 3476,
      "kanaan": 3477,
      "fiercely": 3478,
      "dup": 3480,
      "tightrope": 3481,
      "arrest": 3482,
      "yet": 3483,
      "grandville": 3484,
      "disuse": 3485,
      "sneyd": 3486,
      "traff": 3487,
      "handicap": 3488,
      "hershberger": 3489,
      "pined": 3490,
      "loretta": 3491,
      "thorium": 3492,
      "##oppy": 3493,
      "##hasa": 3494,
      "heckling": 3495,
      "hahn": 3496,
      "maulbets": 3497,
      "rehman": 3498,
      "##ortion": 3499,
      "##addy": 3500,
      "control": 3501,
      "clara": 3502,
      "cakes": 3503,
      "socialized": 3504,
      "salaam": 3505,
      "vermillion": 3506,
      "1890": 3507,
      "sot": 3508,
      "catalysed": 3509,
      "##okan": 3510,
      "commemoratives": 3511,
      "##udur": 3512,
      "baldorioty": 3513,
      "knopp": 3514,
      "nave": 3515,
      "##rukh": 3516,
      "pedest": 3517,
      "stott": 3518,
      "sakur": 3519,
      "surging": 3520,
      "##joy": 3521,
      "1013": 3522,
      "diac": 3523,
      "##marine": 3524,
      "segaran": 3525,
      "rearm": 3526,
      "unten": 3527,
      "houns": 3528,
      "unfocused": 3529,
      "iwm": 3530,
      "qualified": 3531,
      "##waffe": 3532,
      "##uation": 3533,
      "vegetative": 3534,
      "##aksin": 3535,
      "confessed": 3536,
      "vegan": 3537,
      "yamashiro": 3538,
      "woodswallow": 3539,
      "intramural": 3540,
      "see": 3541,
      "nascar": 3542,
      "antiquarian": 3543,
      "keeping": 3544,
      "asymmetrical": 3545,
      "recoup": 3546,
      "darwinism": 3547,
      "loh": 3548,
      "peada": 3549,
      "yav": 3550,
      "hypothetical": 3551,
      "eulogy": 3552,
      "##ked": 3553,
      "mandate": 3554,
      "isaac": 3555,
      "hacienda": 3556,
      "timo": 3557,
      "affecting": 3558,
      "conse": 3559,
      "farkas": 3560,
      "scaram": 3561,
      "scary": 3562,
      "contre": 3563,
      "trillion": 3564,
      "a12": 3565,
      "disfav": 3566,
      "meddling": 3567,
      "elector": 3568,
      "wads": 3569,
      "commune": 3570,
      "values": 3571,
      "millbrook": 3572,
      "content": 3573,
      "scou": 3574,
      "tanzanian": 3575,
      "retraced": 3576,
      "##ere": 3577,
      "freiburg": 3578,
      "mistakes": 3579,
      "povoa": 3580,
      "maxt": 3581,
      "mellor": 3582,
      "engross": 3583,
      "landsl": 3584,
      "tuscany": 3585,
      "latter": 3586,
      "aht": 3587,
      "bailiff": 3588,
      "param": 3589,
      "ravines": 3590,
      "salo": 3591,
      "countable": 3592,
      "1590": 3593,
      "asch": 3594,
      "##fish": 3595,
      "512": 3596,
      "aberystwyth": 3597,
      "mutate": 3598,
      "hensleigh": 3599,
      "modifying": 3600,
      "reinst": 3601,
      "enjoying": 3602,
      "melnick": 3603,
      "##anae": 3604,
      "francoist": 3605,
      "salem": 3606,
      "arnulf": 3607,
      "audit": 3608,
      "some": 3609,
      "showcasing": 3610,
      "##ndi": 3611,
      "honorary": 3612,
      "peiper": 3613,
      "harajuku": 3614,
      "leafs": 3615,
      "diefen": 3616,
      "aeron": 3617,
      "##aurie": 3618,
      "anatomically": 3619,
      "motto": 3620,
      "playthrough": 3621,
      "89": 3622,
      "thar": 3623,
      "refining": 3624,
      "abydos": 3625,
      "ohms": 3626,
      "nagorno": 3627,
      "asylums": 3628,
      "nehru": 3629,
      "kindergarten": 3630,
      "##pass": 3631,
      "futures": 3632,
      "dispassionate": 3633,
      "kuo": 3634,
      "truckee": 3635,
      "cochise": 3636,
      "loathe": 3638,
      "psalms": 3639,
      "hinted": 3640,
      "celebre": 3641,
      "640": 3642,
      "##press": 3643,
      "kingpin": 3644,
      "umm": 3645,
      "nhtsa": 3646,
      "warping": 3647,
      "adj": 3648,
      "decrypt": 3649,
      "avoc": 3650,
      "conch": 3651,
      "sensor": 3652,
      "brackets": 3653,
      "transformed": 3654,
      "carabane": 3656,
      "salvia": 3657,
      "chng": 3658,
      "spectra": 3659,
      "lockdown": 3660,
      "101st": 3661,
      "authoritative": 3662,
      "##scapes": 3663,
      "schieppati": 3664,
      "ravaging": 3665,
      "buoy": 3666,
      "cbbc": 3667,
      "felon": 3668,
      "residency": 3669,
      "retire": 3670,
      "sino": 3671,
      "configuration": 3672,
      "wyt": 3673,
      "karofsky": 3674,
      "##ouz": 3675,
      "haagen": 3676,
      "deregulated": 3677,
      "##abi": 3678,
      "korn": 3679,
      "felipe": 3680,
      "##ubel": 3681,
      "governs": 3682,
      "ets": 3683,
      "plag": 3684,
      "aluminum": 3685,
      "mailing": 3686,
      "##tron": 3687,
      "dev": 3688,
      "1659": 3689,
      "restoration": 3690,
      "##oregion": 3691,
      "duxbury": 3692,
      "militaristic": 3693,
      "rowntree": 3694,
      "##etum": 3695,
      "clowes": 3696,
      "wagons": 3697,
      "indec": 3698,
      "marathi": 3699,
      "inyo": 3700,
      "udet": 3701,
      "croft": 3702,
      "scion": 3703,
      "7s": 3704,
      "##ibe": 3705,
      "swapped": 3706,
      "##arka": 3707,
      "ons": 3708,
      "naked": 3709,
      "##ub": 3710,
      "garage": 3711,
      "excerpts": 3712,
      "bourget": 3713,
      "immunosupp": 3714,
      "mcelwain": 3715,
      "þjazi": 3716,
      "naum": 3717,
      "rurouni": 3718,
      "##ayer": 3719,
      "##cker": 3720,
      "copyright": 3721,
      "tumulus": 3722,
      "arches": 3723,
      "notre": 3724,
      "enquire": 3725,
      "lucha": 3726,
      "##onial": 3727,
      "imageworks": 3728,
      "vith": 3729,
      "assault": 3731,
      "conservatism": 3732,
      "raza": 3733,
      "huo": 3734,
      "##aroos": 3735,
      "yv": 3736,
      "arawe": 3737,
      "phlox": 3738,
      "cutting": 3739,
      "combining": 3740,
      "##ðarson": 3741,
      "olive": 3742,
      "mvp": 3743,
      "##idler": 3744,
      "apule": 3745,
      "bjor": 3746,
      "selects": 3747,
      "cam": 3748,
      "cheet": 3749,
      "##isons": 3750,
      "unfavorable": 3751,
      "bh": 3752,
      "epistol": 3753,
      "trebizond": 3754,
      "demanding": 3755,
      "seal": 3756,
      "queens": 3757,
      "puyallup": 3758,
      "millie": 3759,
      "martyrs": 3760,
      "jokes": 3761,
      "allardyce": 3762,
      "magicians": 3763,
      "unbuilt": 3764,
      "paweł": 3765,
      "menial": 3766,
      "goebbels": 3767,
      "insulting": 3768,
      "##yard": 3769,
      "sev": 3770,
      "fied": 3771,
      "spassky": 3772,
      "homogeneous": 3773,
      "slows": 3774,
      "alk": 3775,
      "knuckles": 3776,
      "squee": 3777,
      "bristle": 3778,
      "kilner": 3779,
      "762": 3780,
      "warship": 3781,
      "##seini": 3782,
      "hagan": 3783,
      "overflow": 3784,
      "compelling": 3785,
      "horseman": 3786,
      "campeche": 3787,
      "handley": 3788,
      "398": 3789,
      "sts": 3790,
      "inflamm": 3791,
      "complained": 3792,
      "chamakh": 3793,
      "viewed": 3794,
      "timeless": 3795,
      "cpr": 3796,
      "degas": 3797,
      "marija": 3798,
      "sedan": 3799,
      "##rode": 3800,
      "##blood": 3801,
      "astana": 3802,
      "brevet": 3803,
      "breaching": 3804,
      "manifested": 3805,
      "##baric": 3806,
      "planning": 3807,
      "galen": 3808,
      "ritualised": 3809,
      "seaworthy": 3810,
      "##irected": 3811,
      "nowitz": 3812,
      "sathy": 3813,
      "ivoire": 3815,
      "kawai": 3816,
      "linx": 3817,
      "equus": 3818,
      "crevecœur": 3819,
      "rood": 3820,
      "supervision": 3821,
      "shokaku": 3822,
      "shaman": 3823,
      "pusha": 3824,
      "gernsback": 3825,
      "prolific": 3826,
      "pda": 3827,
      "nats": 3828,
      "woodley": 3829,
      "assign": 3830,
      "implac": 3831,
      "escad": 3832,
      "confronts": 3833,
      "sheld": 3834,
      "##dan": 3835,
      "obbl": 3836,
      "inconsistent": 3837,
      "weisz": 3838,
      "galerius": 3839,
      "rehash": 3840,
      "pests": 3841,
      "haque": 3842,
      "##ahr": 3843,
      "fulgens": 3844,
      "medial": 3845,
      "wolfe": 3846,
      "dwindling": 3847,
      "recurred": 3848,
      "878": 3849,
      "asymmetry": 3850,
      "menace": 3851,
      "metacomet": 3852,
      "pakistan": 3854,
      "ferino": 3855,
      "nedic": 3856,
      "nunc": 3857,
      "##form": 3858,
      "bribe": 3859,
      "ʻi": 3860,
      "grieving": 3861,
      "portraits": 3862,
      "bors": 3863,
      "connot": 3864,
      "sultanate": 3865,
      "polyurethane": 3867,
      "constructors": 3868,
      "torah": 3869,
      "identically": 3870,
      "estrogen": 3871,
      "palaces": 3872,
      "apologises": 3873,
      "pooling": 3874,
      "##herne": 3875,
      "polaroid": 3876,
      "increased": 3877,
      "doink": 3878,
      "nuclides": 3879,
      "kerry": 3880,
      "laymen": 3881,
      "asag": 3882,
      "deangelo": 3883,
      "##amation": 3884,
      "pur": 3885,
      "vrba": 3886,
      "assignment": 3887,
      "firestorm": 3888,
      "doppelganger": 3889,
      "inundation": 3890,
      "sle": 3891,
      "##aprio": 3892,
      "khat": 3893,
      "##por": 3894,
      "nurseries": 3895,
      "##ellum": 3896,
      "apolog": 3897,
      "##ompanied": 3898,
      "rell": 3899,
      "popper": 3900,
      "mest": 3901,
      "sket": 3902,
      "proprietor": 3903,
      "treecreepers": 3904,
      "caulfield": 3905,
      "appian": 3906,
      "introduction": 3907,
      "automobiles": 3908,
      "kinston": 3909,
      "roxburgh": 3910,
      "steals": 3911,
      "bankhead": 3912,
      "specie": 3913,
      "nida": 3914,
      "spindler": 3915,
      "##ste": 3916,
      "tydings": 3917,
      "remuner": 3918,
      "allocate": 3919,
      "disorient": 3920,
      "gibbes": 3921,
      "##ass": 3922,
      "##esel": 3923,
      "lucio": 3924,
      "##nava": 3925,
      "graces": 3926,
      "infra": 3927,
      "headstones": 3928,
      "whitebeam": 3929,
      "##arctic": 3930,
      "jerseys": 3931,
      "lavey": 3932,
      "lieu": 3933,
      "piano": 3934,
      "seashore": 3935,
      "beanbean": 3936,
      "##eta": 3937,
      "jiao": 3938,
      "meter": 3939,
      "2020": 3940,
      "evansville": 3941,
      "effected": 3942,
      "recuperated": 3943,
      "dohring": 3944,
      "convicted": 3945,
      "olives": 3946,
      "sap": 3947,
      "eileen": 3948,
      "foundational": 3949,
      "##pponi": 3950,
      "transparent": 3951,
      "yarmouth": 3952,
      "##onna": 3953,
      "williamsburg": 3954,
      "olympians": 3955,
      "##leader": 3956,
      "perennials": 3957,
      "amiable": 3958,
      "piedmont": 3959,
      "savage": 3960,
      "details": 3961,
      "atangana": 3962,
      "quicks": 3963,
      "st": 3964,
      "civilization": 3965,
      "tattooed": 3966,
      "sluice": 3967,
      "federalism": 3968,
      "advocacy": 3969,
      "melodifestival": 3970,
      "teep": 3971,
      "swarm": 3972,
      "1396": 3973,
      "dormer": 3974,
      "reminder": 3975,
      "aide": 3976,
      "patten": 3977,
      "reverberation": 3978,
      "vicente": 3979,
      "##orse": 3980,
      "phytophthora": 3981,
      "braw": 3982,
      "rend": 3983,
      "owed": 3984,
      "leveson": 3985,
      "endorsed": 3986,
      "382": 3988,
      "salman": 3989,
      "stylings": 3990,
      "tawang": 3991,
      "sprawling": 3992,
      "##uplication": 3993,
      "spears": 3995,
      "naf": 3996,
      "remnants": 3997,
      "gags": 3998,
      "jaws": 3999,
      "galvanized": 4000,
      "wiltshire": 4001,
      "remedial": 4002,
      "uni": 4003,
      "corrigan": 4004,
      "##alog": 4005,
      "motorcycl": 4007,
      "##86": 4008,
      "removal": 4009,
      "skit": 4010,
      "vortigaunt": 4011,
      "tommaso": 4012,
      "jurisd": 4013,
      "microc": 4014,
      "asper": 4015,
      "##bo": 4016,
      "sibelius": 4017,
      "reich": 4018,
      "saran": 4019,
      "meiss": 4020,
      "regional": 4021,
      "kapadia": 4022,
      "ornl": 4023,
      "indica": 4024,
      "grocer": 4025,
      "##aview": 4026,
      "beiderbecke": 4027,
      "dimensional": 4028,
      "wildfowl": 4029,
      "armor": 4030,
      "clouded": 4031,
      "cbt": 4032,
      "##oxia": 4033,
      "1650": 4034,
      "trud": 4035,
      "##uate": 4036,
      "clooney": 4037,
      "correspond": 4038,
      "sige": 4039,
      "##aines": 4040,
      "premiering": 4041,
      "minig": 4042,
      "deseret": 4043,
      "drexler": 4044,
      "bacteria": 4045,
      "budweiser": 4046,
      "method": 4047,
      "manheim": 4048,
      "victimization": 4049,
      "amalgamated": 4050,
      "##asaw": 4051,
      "towels": 4052,
      "qant": 4053,
      "avit": 4054,
      "scarf": 4055,
      "kelvins": 4056,
      "reappearance": 4057,
      "warlpiri": 4058,
      "reduction": 4059,
      "lepidus": 4060,
      "germanium": 4061,
      "reichs": 4062,
      "stratford": 4063,
      "recitals": 4064,
      "##fronts": 4065,
      "reinforcement": 4066,
      "licensed": 4067,
      "originates": 4068,
      "maintained": 4069,
      "scrapped": 4070,
      "chry": 4071,
      "tutoring": 4072,
      "kalp": 4073,
      "wanted": 4074,
      "capturing": 4075,
      "misguided": 4076,
      "hydropower": 4077,
      "schu": 4078,
      "932": 4079,
      "pharo": 4080,
      "wrax": 4081,
      "tun": 4082,
      "14th": 4083,
      "pesos": 4084,
      "aligh": 4085,
      "##onega": 4086,
      "skaldic": 4087,
      "##nington": 4088,
      "1482": 4089,
      "gast": 4090,
      "aland": 4091,
      "xml": 4092,
      "kenji": 4093,
      "jamestown": 4094,
      "##arcinoma": 4095,
      "parked": 4096,
      "##igate": 4097,
      "henbury": 4098,
      "redone": 4099,
      "moss": 4100,
      "harland": 4101,
      "draconian": 4102,
      "sheep": 4103,
      "triathlon": 4104,
      "hdr": 4105,
      "hezbollah": 4106,
      "preliminaries": 4107,
      "merritt": 4108,
      "wol": 4109,
      "accomplishments": 4110,
      "seconded": 4111,
      "1616": 4112,
      "williamson": 4113,
      "##ome": 4114,
      "inbet": 4115,
      "albanians": 4116,
      "paterson": 4117,
      "cnr": 4118,
      "##rigg": 4119,
      "bsd": 4120,
      "seasonally": 4121,
      "##lication": 4122,
      "overwhelmingly": 4123,
      "##aurus": 4124,
      "propriety": 4125,
      "sturdy": 4126,
      "ridgeway": 4127,
      "horrida": 4128,
      "afield": 4129,
      "sqex": 4131,
      "##elt": 4132,
      "miramax": 4133,
      "fury": 4134,
      "organizers": 4135,
      "recapt": 4136,
      "adri": 4137,
      "4000": 4138,
      "pff": 4139,
      "reneged": 4140,
      "mafiosi": 4141,
      "convicts": 4142,
      "cannae": 4143,
      "incompetence": 4144,
      "biplane": 4145,
      "fought": 4146,
      "sibu": 4147,
      "tonners": 4148,
      "suzuki": 4149,
      "##ooge": 4150,
      "##heets": 4151,
      "bagg": 4152,
      "waddesdon": 4153,
      "##oni": 4154,
      "duo": 4155,
      "dining": 4156,
      "brou": 4157,
      "righteousness": 4158,
      "retailed": 4159,
      "earning": 4160,
      "sewerage": 4161,
      "ephraim": 4162,
      "shows": 4163,
      "shoals": 4164,
      "believable": 4165,
      "matthau": 4166,
      "saluting": 4167,
      "aziz": 4168,
      "extinction": 4169,
      "rej": 4170,
      "gruppe": 4171,
      "##hen": 4172,
      "nicky": 4173,
      "morale": 4174,
      "##ugli": 4175,
      "##udez": 4176,
      "grisham": 4177,
      "mexico": 4178,
      "##igroup": 4179,
      "parsecs": 4180,
      "musicnotes": 4181,
      "glac": 4182,
      "finkel": 4183,
      "##rawn": 4184,
      "##ota": 4185,
      "eastleigh": 4186,
      "goall": 4187,
      "rehn": 4188,
      "nantucket": 4189,
      "asians": 4190,
      "1968": 4191,
      "storm": 4192,
      "confucius": 4193,
      "##aics": 4194,
      "oncology": 4195,
      "kenny": 4196,
      "knife": 4197,
      "ultravi": 4198,
      "trina": 4199,
      "unfairness": 4200,
      "##imus": 4201,
      "##rodome": 4202,
      "browsers": 4203,
      "664": 4204,
      "##inth": 4205,
      "leia": 4206,
      "karank": 4207,
      "pork": 4208,
      "509th": 4209,
      "cies": 4210,
      "forebears": 4211,
      "proportionately": 4212,
      "##osc": 4213,
      "audio": 4214,
      "rangef": 4215,
      "ray": 4216,
      "ordinate": 4217,
      "##chs": 4218,
      "shif": 4219,
      "cloverleaf": 4220,
      "yamasaki": 4221,
      "neigh": 4222,
      "schreiber": 4223,
      "rambabu": 4224,
      "mechanics": 4225,
      "##ike": 4226,
      "paints": 4227,
      "recitation": 4228,
      "reintroducing": 4229,
      "selectivity": 4230,
      "accol": 4231,
      "stabilizes": 4232,
      "parcell": 4233,
      "trajan": 4234,
      "our": 4235,
      "concentration": 4236,
      "##atta": 4237,
      "##first": 4238,
      "brides": 4239,
      "inbound": 4240,
      "mantell": 4241,
      "nine": 4242,
      "cell": 4243,
      "helical": 4244,
      "warmest": 4245,
      "seducing": 4246,
      "moline": 4247,
      "thrower": 4248,
      "murmans": 4249,
      "shafi": 4250,
      "gondwana": 4251,
      "##cof": 4252,
      "escher": 4253,
      "##aford": 4254,
      "harvests": 4255,
      "bacc": 4256,
      "carpeting": 4257,
      "bored": 4258,
      "shattered": 4259,
      "gambier": 4260,
      "boleslaw": 4261,
      "minaj": 4262,
      "mortals": 4263,
      "229": 4264,
      "anxieties": 4265,
      "famili": 4266,
      "kuz": 4267,
      "sundance": 4268,
      "notations": 4269,
      "batu": 4270,
      "apologizing": 4271,
      "outsourcing": 4272,
      "##acular": 4273,
      "societ": 4274,
      "expenditures": 4275,
      "opioids": 4276,
      "iverson": 4277,
      "concertmaster": 4278,
      "mccul": 4279,
      "paramil": 4280,
      "solomon": 4281,
      "officiate": 4282,
      "shifted": 4283,
      "brez": 4284,
      "gesang": 4285,
      "stoddart": 4286,
      "poehler": 4287,
      "shanti": 4288,
      "organofluor": 4289,
      "carvings": 4290,
      "sims": 4291,
      "character": 4292,
      "infrageneric": 4293,
      "glory": 4294,
      "voye": 4295,
      "countout": 4296,
      "##accio": 4297,
      "grunwald": 4298,
      "facets": 4299,
      "exoskel": 4300,
      "techno": 4301,
      "1989": 4302,
      "shanm": 4303,
      "knocking": 4304,
      "libert": 4305,
      "##ensory": 4306,
      "mez": 4307,
      "psalter": 4308,
      "regroup": 4309,
      "1mal": 4311,
      "remind": 4312,
      "tats": 4313,
      "showgirl": 4314,
      "##hon": 4315,
      "waived": 4316,
      "terminating": 4317,
      "regim": 4318,
      "khad": 4319,
      "embell": 4320,
      "noida": 4321,
      "athenians": 4322,
      "unreliability": 4323,
      "##oths": 4324,
      "##iful": 4325,
      "porth": 4326,
      "convincing": 4327,
      "ecst": 4328,
      "amylostere": 4329,
      "sculptors": 4331,
      "unborn": 4332,
      "##lycerides": 4333,
      "san": 4334,
      "skated": 4335,
      "##yad": 4336,
      "backwards": 4337,
      "816": 4338,
      "southall": 4339,
      "commendable": 4340,
      "indisc": 4341,
      "boxes": 4342,
      "##hin": 4343,
      "wil": 4344,
      "754": 4345,
      "griffey": 4346,
      "##aport": 4347,
      "platoon": 4348,
      "merges": 4349,
      "walk": 4350,
      "management": 4351,
      "eventual": 4352,
      "iridion": 4353,
      "dae": 4354,
      "baseless": 4355,
      "##ecess": 4356,
      "windmills": 4357,
      "affects": 4358,
      "vom": 4359,
      "myles": 4360,
      "graup": 4361,
      "reenact": 4362,
      "unlock": 4363,
      "bookkeeper": 4364,
      "okabe": 4365,
      "shapley": 4366,
      "captures": 4367,
      "crowding": 4368,
      "ridgway": 4369,
      "vay": 4370,
      "atom": 4371,
      "timbered": 4372,
      "polyhedra": 4373,
      "popular": 4374,
      "corp": 4375,
      "##brenner": 4376,
      "nj": 4377,
      "1018": 4378,
      "hawking": 4379,
      "disloyal": 4380,
      "shaughnessy": 4381,
      "crossfire": 4382,
      "stances": 4383,
      "endear": 4384,
      "mica": 4385,
      "ps2": 4386,
      "pudding": 4387,
      "recur": 4388,
      "famines": 4389,
      "whitechapel": 4390,
      "entrusted": 4391,
      "##ograph": 4392,
      "chubby": 4393,
      "authorship": 4394,
      "obst": 4395,
      "imbr": 4396,
      "between": 4397,
      "thought": 4398,
      "monotonous": 4399,
      "trojans": 4400,
      "carmack": 4401,
      "aides": 4402,
      "rapproche": 4403,
      "apiary": 4404,
      "preside": 4405,
      "cured": 4406,
      "storms": 4407,
      "lineker": 4408,
      "##anno": 4409,
      "menstrual": 4410,
      "yash": 4411,
      "crows": 4412,
      "psal": 4413,
      "ethiopia": 4414,
      "kitchen": 4415,
      "z3": 4416,
      "##ance": 4417,
      "parentage": 4418,
      "slaughtered": 4419,
      "bonvent": 4420,
      "clues": 4421,
      "ode": 4422,
      "massive": 4423,
      "engle": 4424,
      "multiracial": 4425,
      "assid": 4426,
      "##emn": 4427,
      "gland": 4428,
      "patras": 4429,
      "dilapidated": 4430,
      "provisioning": 4431,
      "exercising": 4432,
      "geord": 4433,
      "cenwalh": 4434,
      "cherries": 4435,
      "trendy": 4436,
      "frs": 4437,
      "johns": 4438,
      "catskill": 4439,
      "##opsis": 4440,
      "schmidt": 4441,
      "fanzines": 4442,
      "##aita": 4443,
      "reloaded": 4444,
      "cmb": 4445,
      "apprenticeship": 4446,
      "denny": 4447,
      "glazer": 4448,
      "fallujah": 4449,
      "truths": 4450,
      "##axis": 4451,
      "ded": 4452,
      "goofy": 4453,
      "virile": 4454,
      "excl": 4455,
      "trailing": 4456,
      "thistle": 4457,
      "##rison": 4458,
      "spokeswoman": 4459,
      "orte": 4460,
      "relying": 4461,
      "##oule": 4462,
      "ashland": 4463,
      "gibbs": 4464,
      "beltway": 4465,
      "1430": 4466,
      "tambellini": 4467,
      "##teilung": 4468,
      "lovel": 4469,
      "halotus": 4470,
      "##ody": 4471,
      "noor": 4472,
      "##estorm": 4473,
      "ep": 4474,
      "eradication": 4475,
      "deadman": 4476,
      "##ingfield": 4477,
      "carousel": 4478,
      "edmond": 4479,
      "ich": 4480,
      "aurig": 4481,
      "unseat": 4482,
      "prioritised": 4483,
      "decoys": 4484,
      "##nets": 4485,
      "domo": 4486,
      "solicitors": 4487,
      "##herz": 4488,
      "olimpico": 4489,
      "rhododend": 4490,
      "takashi": 4491,
      "##gle": 4492,
      "##romb": 4493,
      "singer": 4494,
      "brake": 4495,
      "##ogenous": 4496,
      "repelled": 4497,
      "##estro": 4498,
      "monten": 4499,
      "##zel": 4500,
      "scur": 4501,
      "primit": 4502,
      "astudillo": 4503,
      "warlike": 4504,
      "ripening": 4505,
      "guardians": 4506,
      "continent": 4507,
      "mh": 4508,
      "mihrab": 4509,
      "m249": 4510,
      "##ven": 4511,
      "infestations": 4512,
      "nouvel": 4513,
      "dunmore": 4514,
      "oribe": 4515,
      "##ikarp": 4516,
      "wap": 4517,
      "origin": 4518,
      "disassoci": 4519,
      "replying": 4520,
      "empath": 4521,
      "##85": 4522,
      "bretagne": 4523,
      "sputum": 4524,
      "##aev": 4525,
      "brothel": 4526,
      "emplac": 4527,
      "heathens": 4528,
      "bandleader": 4529,
      "retreating": 4530,
      "umbo": 4531,
      "resolute": 4532,
      "##yr": 4533,
      "worsens": 4534,
      "##igniew": 4535,
      "kiowa": 4536,
      "lawsuit": 4537,
      "hynes": 4538,
      "logging": 4539,
      "pitting": 4540,
      "harrell": 4541,
      "evacuating": 4542,
      "yourself": 4543,
      "debartolo": 4544,
      "7th": 4545,
      "continues": 4546,
      "hrabri": 4547,
      "lala": 4548,
      "indulgence": 4549,
      "rrna": 4550,
      "preparedness": 4551,
      "rel": 4552,
      "westray": 4553,
      "admissions": 4554,
      "keef": 4555,
      "pontific": 4556,
      "maris": 4557,
      "1639": 4558,
      "##udia": 4559,
      "7a": 4560,
      "miranda": 4561,
      "wearing": 4562,
      "honoured": 4563,
      "collings": 4564,
      "consult": 4565,
      "patrol": 4566,
      "reimer": 4567,
      "shoulder": 4568,
      "tasks": 4569,
      "##aller": 4570,
      "tant": 4571,
      "nicht": 4572,
      "ewart": 4573,
      "excellence": 4574,
      "abusive": 4575,
      "nonethel": 4576,
      "atatur": 4577,
      "thut": 4578,
      "##đevic": 4579,
      "photos": 4580,
      "sofie": 4581,
      "m87": 4582,
      "legislator": 4583,
      "wawr": 4584,
      "attainable": 4585,
      "##amped": 4586,
      "karan": 4587,
      "masha": 4588,
      "##itary": 4589,
      "nematic": 4590,
      "dox": 4591,
      "fuzzy": 4592,
      "##aharl": 4593,
      "chaste": 4594,
      "conversing": 4595,
      "strecker": 4596,
      "woolf": 4597,
      "uanna": 4598,
      "peculiarities": 4599,
      "ref": 4600,
      "colfax": 4601,
      "mckellen": 4602,
      "723": 4603,
      "antibodies": 4604,
      "masterplan": 4605,
      "hellen": 4606,
      "beyer": 4607,
      "troughs": 4608,
      "tasmania": 4609,
      "toon": 4610,
      "gm": 4611,
      "indent": 4612,
      "kuykendall": 4613,
      "paltz": 4614,
      "garnish": 4615,
      "emph": 4616,
      "neto": 4617,
      "refraining": 4618,
      "cosplay": 4619,
      "inconce": 4620,
      "grandes": 4621,
      "##bedded": 4622,
      "wodrow": 4623,
      "mocks": 4624,
      "depots": 4625,
      "loathed": 4627,
      "messing": 4628,
      "novus": 4629,
      "##ossessed": 4630,
      "hatillo": 4631,
      "torpedoes": 4632,
      "##enium": 4633,
      "relationship": 4634,
      "##atem": 4635,
      "circuit": 4636,
      "pvc": 4637,
      "calves": 4638,
      "conditions": 4639,
      "veniz": 4640,
      "##inin": 4642,
      "build": 4643,
      "automaton": 4644,
      "blows": 4645,
      "1514": 4646,
      "nominees": 4647,
      "penang": 4648,
      "##orno": 4649,
      "anecdotes": 4650,
      "rainer": 4651,
      "##orio": 4652,
      "wn": 4653,
      "avro": 4654,
      "vigilantes": 4655,
      "motionless": 4656,
      "gokhale": 4657,
      "magellanic": 4658,
      "satirize": 4659,
      "ecotourism": 4660,
      "garderm": 4661,
      "pathetic": 4662,
      "ibm": 4663,
      "centimeters": 4664,
      "buddytv": 4665,
      "scanlan": 4666,
      "holstein": 4667,
      "gimme": 4668,
      "garz": 4669,
      "arrhyth": 4670,
      "twirling": 4672,
      "inks": 4673,
      "underwhel": 4674,
      "##obon": 4675,
      "tessellation": 4676,
      "disseminate": 4677,
      "championnat": 4678,
      "##boim": 4679,
      "brasilia": 4680,
      "beetles": 4681,
      "plywood": 4682,
      "pouches": 4683,
      "eggleston": 4684,
      "coercion": 4685,
      "yiddish": 4686,
      "##itashvili": 4687,
      "methanol": 4688,
      "procession": 4689,
      "##omorphy": 4690,
      "rebelling": 4691,
      "vocalizations": 4692,
      "denominational": 4693,
      "dignitaries": 4694,
      "##ithe": 4695,
      "affixes": 4696,
      "munoz": 4697,
      "guillaume": 4698,
      "kap": 4699,
      "##ressed": 4700,
      "spic": 4701,
      "orissa": 4702,
      "adjour": 4703,
      "rss": 4704,
      "445": 4705,
      "hospitals": 4706,
      "##ospores": 4707,
      "sala": 4708,
      "admiring": 4709,
      "sakurai": 4710,
      "personnel": 4711,
      "prair": 4712,
      "1093": 4713,
      "airlift": 4714,
      "hackers": 4715,
      "grouped": 4716,
      "snippets": 4717,
      "##oriety": 4718,
      "overre": 4719,
      "arafiles": 4720,
      "oahu": 4721,
      "##chool": 4722,
      "##rams": 4723,
      "elgar": 4724,
      "authentication": 4725,
      "midgets": 4726,
      "tast": 4727,
      "admittedly": 4728,
      "leuk": 4729,
      "a380s": 4730,
      "ecstasy": 4731,
      "sox": 4732,
      "parise": 4733,
      "##rown": 4734,
      "preposition": 4735,
      "##ilders": 4736,
      "dianna": 4737,
      "##itos": 4738,
      "eugenia": 4739,
      "##ely": 4740,
      "##azed": 4741,
      "clare": 4742,
      "##ivably": 4743,
      "heuton": 4744,
      "cinematographer": 4745,
      "mimoyecques": 4746,
      "paradigm": 4747,
      "dagen": 4748,
      "##abu": 4749,
      "assemblyman": 4750,
      "##aley": 4751,
      "padstow": 4752,
      "acquiesced": 4753,
      "##anking": 4754,
      "longer": 4755,
      "feathered": 4756,
      "impr": 4757,
      "instrumentals": 4758,
      "hypertensive": 4759,
      "reprint": 4760,
      "implications": 4761,
      "incarc": 4762,
      "wacha": 4763,
      "monophyly": 4764,
      "##ilight": 4765,
      "##atility": 4766,
      "##belle": 4767,
      "choreograph": 4768,
      "punic": 4769,
      "achieves": 4770,
      "adject": 4771,
      "theodox": 4772,
      "errone": 4773,
      "##guarded": 4774,
      "chromatin": 4775,
      "unbeat": 4776,
      "stopover": 4777,
      "activating": 4778,
      "##kmini": 4779,
      "akademi": 4780,
      "swash": 4781,
      "gosport": 4782,
      "colours": 4784,
      "cav": 4785,
      "##osauro": 4786,
      "perro": 4788,
      "ligue": 4789,
      "machinations": 4790,
      "altars": 4791,
      "subgraph": 4792,
      "984": 4793,
      "##agall": 4794,
      "tundra": 4795,
      "francophone": 4796,
      "kawasaki": 4797,
      "##irp": 4798,
      "dilling": 4799,
      "##other": 4800,
      "##chil": 4801,
      "##jevsky": 4803,
      "brooking": 4804,
      "##whurst": 4805,
      "begging": 4806,
      "##ikk": 4807,
      "hopf": 4808,
      "algebras": 4809,
      "##ove": 4810,
      "thinker": 4811,
      "conglomer": 4812,
      "championed": 4813,
      "quolls": 4814,
      "travelling": 4815,
      "gat": 4816,
      "gend": 4817,
      "nailed": 4818,
      "commonalities": 4819,
      "emper": 4820,
      "ebers": 4821,
      "##eness": 4822,
      "sulfide": 4823,
      "context": 4824,
      "hobbs": 4825,
      "bunch": 4826,
      "whiteout": 4827,
      "write": 4828,
      "paola": 4829,
      "fidelity": 4830,
      "##aroo": 4831,
      "traffic": 4832,
      "endosymbiotic": 4833,
      "carinae": 4834,
      "dare": 4835,
      "wæ": 4836,
      "kadhal": 4837,
      "##lovsk": 4838,
      "assimilated": 4839,
      "##isters": 4840,
      "elsa": 4841,
      "laundering": 4842,
      "walsall": 4843,
      "hither": 4844,
      "overlo": 4845,
      "##lanes": 4846,
      "fringes": 4847,
      "##onacci": 4848,
      "thumping": 4849,
      "reid": 4850,
      "novelette": 4851,
      "jews": 4852,
      "grauman": 4853,
      "hyped": 4854,
      "hed": 4855,
      "watermills": 4856,
      "wanda": 4857,
      "1248": 4858,
      "tanamb": 4859,
      "##aiman": 4860,
      "æthel": 4861,
      "jau": 4862,
      "carcetti": 4863,
      "buoyed": 4864,
      "airings": 4865,
      "lath": 4866,
      "shann": 4867,
      "prc": 4868,
      "exerts": 4869,
      "vito": 4870,
      "oeuvre": 4871,
      "postgraduate": 4872,
      "decimal": 4873,
      "farnsworth": 4874,
      "artists": 4875,
      "flagpole": 4876,
      "membranous": 4877,
      "characters": 4878,
      "1015": 4879,
      "onwards": 4880,
      "harden": 4881,
      "trond": 4882,
      "##alsat": 4883,
      "discontented": 4884,
      "##hu": 4886,
      "littlefield": 4887,
      "minehead": 4888,
      "studebaker": 4889,
      "1674": 4890,
      "duffield": 4891,
      "nationalities": 4892,
      "209458": 4894,
      "edrich": 4895,
      "recognising": 4896,
      "uzanne": 4897,
      "raiders": 4898,
      "scrubs": 4899,
      "##res": 4900,
      "fords": 4901,
      "janez": 4902,
      "domm": 4903,
      "nidal": 4904,
      "##agoza": 4905,
      "882": 4906,
      "eaters": 4907,
      "awe": 4908,
      "eucharistic": 4909,
      "1609": 4910,
      "zimmerman": 4911,
      "sightse": 4912,
      "bock": 4913,
      "pancreatic": 4914,
      "sassy": 4915,
      "tud": 4916,
      "delir": 4917,
      "##thik": 4918,
      "protests": 4919,
      "heparin": 4920,
      "foaled": 4921,
      "##ordered": 4922,
      "gasp": 4923,
      "cherrill": 4924,
      "##ollah": 4925,
      "rensselaer": 4926,
      "tych": 4927,
      "##abl": 4928,
      "amenable": 4929,
      "linienschiffsleutnant": 4930,
      "628": 4931,
      "ruth": 4932,
      "tungsten": 4933,
      "brunswick": 4934,
      "exemption": 4935,
      "forbids": 4936,
      "avoid": 4937,
      "d4": 4938,
      "these": 4939,
      "##swr": 4940,
      "stole": 4941,
      "height": 4942,
      "turbocharged": 4943,
      "wistert": 4944,
      "##ezy": 4945,
      "southwark": 4946,
      "mckee": 4947,
      "intersection": 4948,
      "##uretic": 4949,
      "fue": 4950,
      "este": 4951,
      "turmoil": 4952,
      "fluorescent": 4953,
      "phillip": 4954,
      "charon": 4955,
      "illus": 4956,
      "manh": 4957,
      "surgery": 4958,
      "clothing": 4959,
      "clerestory": 4960,
      "labuan": 4961,
      "dependency": 4962,
      "smed": 4963,
      "sully": 4964,
      "mockumentary": 4965,
      "hikayat": 4966,
      "##lot": 4967,
      "abortion": 4968,
      "headwaters": 4969,
      "1080p": 4970,
      "frankfort": 4971,
      "episodic": 4972,
      "connect": 4973,
      "unmoved": 4974,
      "seung": 4975,
      "knochlein": 4976,
      "planters": 4977,
      "poulenc": 4978,
      "##tte": 4979,
      "sydney": 4980,
      "blaen": 4981,
      "evocation": 4982,
      "sedimentation": 4983,
      "##iments": 4985,
      "applications": 4986,
      "forthright": 4987,
      "##olon": 4988,
      "balked": 4989,
      "album": 4990,
      "dnieper": 4991,
      "equivocal": 4992,
      "lm": 4993,
      "purposefully": 4994,
      "ente": 4995,
      "vacated": 4996,
      "undoub": 4997,
      "divisor": 4998,
      "therese": 4999,
      "##lap": 5000,
      "strømmen": 5002,
      "pluck": 5003,
      "fallen": 5005,
      "celebrating": 5006,
      "##anty": 5007,
      "q2": 5008,
      "##abar": 5009,
      "almos": 5010,
      "calam": 5011,
      "roving": 5012,
      "lute": 5013,
      "medallist": 5014,
      "gas": 5015,
      "nonc": 5016,
      "mhc": 5017,
      "rebranding": 5018,
      "##agro": 5019,
      "sensational": 5020,
      "bottled": 5021,
      "norm": 5022,
      "john": 5023,
      "calcareous": 5024,
      "berryman": 5025,
      "performance": 5026,
      "sebum": 5027,
      "havmand": 5028,
      "dude": 5029,
      "steen": 5030,
      "liberian": 5031,
      "acquisitions": 5032,
      "##ulatus": 5033,
      "snouts": 5034,
      "1827": 5035,
      "jenk": 5036,
      "senate": 5037,
      "##aborg": 5038,
      "gunpow": 5039,
      "nmp": 5040,
      "tact": 5041,
      "sorra": 5042,
      "semic": 5043,
      "loosen": 5044,
      "liberia": 5045,
      "accl": 5046,
      "agriculture": 5047,
      "basketmaker": 5048,
      "chases": 5049,
      "##rochem": 5050,
      "ridgefield": 5051,
      "orfeo": 5052,
      "hodges": 5053,
      "biscayne": 5054,
      "ramanuja": 5055,
      "impasse": 5056,
      "fog": 5057,
      "unqu": 5058,
      "jokingly": 5059,
      "##aterial": 5060,
      "mcdowall": 5061,
      "pasties": 5062,
      "##assi": 5063,
      "bhagav": 5064,
      "##uj": 5065,
      "giants": 5066,
      "##tys": 5067,
      "interchangeably": 5068,
      "chul": 5069,
      "gyal": 5070,
      "cousins": 5071,
      "towns": 5072,
      "##bourne": 5073,
      "##enridge": 5074,
      "thrust": 5075,
      "begr": 5076,
      "363": 5077,
      "ditch": 5078,
      "discouraging": 5079,
      "manch": 5080,
      "maori": 5081,
      "immutable": 5082,
      "cambra": 5083,
      "court": 5084,
      "obstacle": 5085,
      "insisting": 5086,
      "nmr": 5087,
      "terrell": 5088,
      "phaser": 5089,
      "peculiar": 5090,
      "##haha": 5091,
      "stuntman": 5092,
      "##izeau": 5093,
      "champoton": 5094,
      "adjoining": 5095,
      "threni": 5096,
      "trolleys": 5097,
      "##iliar": 5098,
      "##ital": 5099,
      "gehrig": 5100,
      "interfere": 5101,
      "guitar": 5102,
      "papp": 5103,
      "cantatas": 5104,
      "lean": 5105,
      "passeng": 5106,
      "modernized": 5107,
      "nrc": 5108,
      "grad": 5109,
      "finschhafen": 5110,
      "##och": 5111,
      "aki": 5112,
      "aldrich": 5113,
      "unknowingly": 5114,
      "somerton": 5115,
      "microprose": 5116,
      "amedo": 5117,
      "pacelli": 5118,
      "nuyts": 5119,
      "traps": 5120,
      "##ocomo": 5121,
      "normalised": 5122,
      "stretch": 5123,
      "sadd": 5124,
      "##abre": 5125,
      "enforcers": 5126,
      "##illae": 5127,
      "mecc": 5128,
      "proxim": 5129,
      "woven": 5130,
      "##soever": 5131,
      "vr": 5132,
      "instinct": 5133,
      "included": 5134,
      "decapitated": 5135,
      "##irk": 5136,
      "imitators": 5137,
      "akon": 5138,
      "fees": 5139,
      "miscellany": 5140,
      "americana": 5141,
      "mgb": 5142,
      "##chow": 5143,
      "formulating": 5144,
      "darabont": 5145,
      "##ride": 5146,
      "vishal": 5147,
      "nationale": 5148,
      "mylan": 5149,
      "##rij": 5150,
      "##abil": 5151,
      "transits": 5152,
      "plan": 5153,
      "rhond": 5154,
      "fiat": 5155,
      "749": 5156,
      "barclay": 5157,
      "ornaments": 5158,
      "transact": 5159,
      "merciless": 5160,
      "bleacher": 5161,
      "lioness": 5162,
      "helga": 5163,
      "schiller": 5164,
      "camb": 5165,
      "rcmp": 5166,
      "##isie": 5167,
      "sorraia": 5168,
      "corpse": 5169,
      "swedbank": 5170,
      "874": 5171,
      "funnels": 5172,
      "lebes": 5173,
      "keweenaw": 5174,
      "##aterials": 5175,
      "infielder": 5176,
      "offbeat": 5177,
      "celery": 5178,
      "reuters": 5179,
      "marseillois": 5180,
      "##bla": 5181,
      "innovative": 5182,
      "res": 5183,
      "røst": 5184,
      "mnm": 5185,
      "##sept": 5186,
      "allegorical": 5187,
      "footnotes": 5188,
      "sophia": 5189,
      "cotter": 5190,
      "##ayt": 5191,
      "##ometer": 5192,
      "blazon": 5193,
      "##uncture": 5194,
      "warren": 5195,
      "##cop": 5196,
      "##heid": 5197,
      "obregon": 5198,
      "itinerant": 5199,
      "satyamurthy": 5200,
      "yorker": 5201,
      "huckle": 5202,
      "gluon": 5203,
      "canucks": 5204,
      "adrenal": 5205,
      "parachute": 5206,
      "1434": 5207,
      "angels": 5208,
      "hectares": 5209,
      "creation": 5210,
      "intricately": 5211,
      "woolen": 5212,
      "chiapas": 5213,
      "##ocort": 5214,
      "computerized": 5215,
      "renegade": 5216,
      "cockro": 5217,
      "proportional": 5218,
      "mcmurdo": 5219,
      "keigh": 5220,
      "ingmar": 5221,
      "subsumed": 5222,
      "motoring": 5223,
      "##aryll": 5224,
      "sabrina": 5225,
      "cascio": 5226,
      "##ikar": 5227,
      "deplored": 5228,
      "maryland": 5229,
      "breakdown": 5230,
      "1424": 5231,
      "morganstown": 5232,
      "penh": 5233,
      "maia": 5234,
      "thwart": 5235,
      "defect": 5236,
      "macquarie": 5237,
      "polygynous": 5238,
      "ibadan": 5239,
      "1346": 5240,
      "broadhurst": 5241,
      "ghent": 5242,
      "hr": 5243,
      "breweries": 5244,
      "ampl": 5245,
      "arctic": 5246,
      "appendectomy": 5247,
      "skaters": 5248,
      "prosp": 5249,
      "ctc": 5250,
      "azimuth": 5251,
      "railroad": 5252,
      "perl": 5253,
      "dway": 5254,
      "##oe": 5255,
      "beltline": 5256,
      "duet": 5257,
      "uprising": 5258,
      "##unken": 5259,
      "volition": 5260,
      "rivalled": 5261,
      "population": 5262,
      "kindness": 5263,
      "push": 5264,
      "051": 5265,
      "orso": 5266,
      "revisit": 5267,
      "mamb": 5269,
      "isolate": 5270,
      "popularization": 5271,
      "reykjavik": 5272,
      "antimal": 5273,
      "cardinale": 5274,
      "argu": 5275,
      "##vig": 5276,
      "giuliani": 5277,
      "vomits": 5278,
      "django": 5279,
      "##rue": 5280,
      "keisha": 5281,
      "boll": 5282,
      "##oven": 5283,
      "ches": 5284,
      "petrov": 5285,
      "pristine": 5286,
      "warners": 5287,
      "boshin": 5288,
      "colep": 5289,
      "##arcin": 5290,
      "popes": 5291,
      "shumlin": 5292,
      "##ensing": 5293,
      "conjoined": 5294,
      "ramesses": 5295,
      "loman": 5296,
      "narrates": 5297,
      "deduct": 5298,
      "irrespons": 5300,
      "frick": 5301,
      "komisarjevsky": 5302,
      "butts": 5303,
      "mandelson": 5304,
      "macbeth": 5305,
      "peas": 5306,
      "shorten": 5307,
      "massimo": 5308,
      "takechi": 5309,
      "ripon": 5310,
      "verstapp": 5311,
      "tempus": 5312,
      "lungs": 5313,
      "biof": 5314,
      "nurn": 5315,
      "notoriety": 5316,
      "nap": 5317,
      "outboard": 5318,
      "macroscopic": 5319,
      "bagdad": 5320,
      "fraud": 5321,
      "acqu": 5322,
      "##unkett": 5323,
      "flashlight": 5324,
      "institute": 5325,
      "minutemen": 5326,
      "marketers": 5327,
      "enterp": 5328,
      "sare": 5329,
      "##uffled": 5330,
      "protozoa": 5331,
      "maldonado": 5332,
      "86th": 5333,
      "mcclend": 5334,
      "fingern": 5335,
      "believes": 5336,
      "##dened": 5337,
      "hench": 5338,
      "addictions": 5339,
      "burgundians": 5340,
      "conurb": 5341,
      "eucalypt": 5342,
      "hesitated": 5343,
      "chaudhuri": 5344,
      "##aution": 5345,
      "overrule": 5346,
      "aggarwal": 5347,
      "lnc": 5348,
      "tactic": 5349,
      "macrinus": 5350,
      "##olate": 5351,
      "kou": 5352,
      "giveamanakick": 5353,
      "hershey": 5354,
      "airpower": 5355,
      "asked": 5356,
      "herein": 5357,
      "resentment": 5358,
      "prefig": 5360,
      "aleutians": 5361,
      "wilcke": 5362,
      "##desdon": 5363,
      "queensberry": 5364,
      "disconnect": 5365,
      "volva": 5366,
      "waterways": 5367,
      "bradford": 5368,
      "oak": 5369,
      "sargsyan": 5370,
      "quartering": 5371,
      "##ifug": 5372,
      "##gili": 5373,
      "measurable": 5374,
      "##iberte": 5375,
      "dhoni": 5376,
      "waka": 5377,
      "weinman": 5378,
      "argo": 5379,
      "sprinkler": 5380,
      "skaði": 5381,
      "kud": 5383,
      "##zim": 5384,
      "traditionalists": 5385,
      "upbeat": 5386,
      "bight": 5387,
      "gyl": 5388,
      "##inding": 5389,
      "kovacs": 5390,
      "cola": 5391,
      "1582": 5392,
      "sps": 5393,
      "lifeforms": 5394,
      "holborne": 5395,
      "delany": 5396,
      "##entiary": 5397,
      "javel": 5398,
      "piles": 5399,
      "007": 5400,
      "simone": 5401,
      "coaching": 5402,
      "detective": 5403,
      "intertropical": 5404,
      "angled": 5405,
      "lafayette": 5406,
      "povenmire": 5407,
      "disintegrate": 5408,
      "evaded": 5409,
      "59": 5410,
      "studied": 5411,
      "formalised": 5412,
      "at": 5413,
      "nepenthes": 5414,
      "eared": 5415,
      "megal": 5416,
      "revolvers": 5417,
      "clearcutting": 5418,
      "rubble": 5419,
      "vipers": 5420,
      "assassinations": 5421,
      "herefordshire": 5422,
      "gaumont": 5423,
      "headset": 5424,
      "mauve": 5425,
      "deriving": 5426,
      "achieving": 5427,
      "friendships": 5428,
      "novella": 5429,
      "mep": 5431,
      "hotchkiss": 5432,
      "bulldoz": 5433,
      "unhe": 5434,
      "1014": 5435,
      "dispar": 5436,
      "lengthwise": 5437,
      "loeb": 5438,
      "fundraisers": 5439,
      "morp": 5440,
      "##istocene": 5441,
      "##atar": 5442,
      "nll": 5443,
      "arshad": 5444,
      "divested": 5445,
      "contested": 5446,
      "clippers": 5447,
      "hecker": 5448,
      "dissection": 5449,
      "congregated": 5450,
      "mistle": 5451,
      "politico": 5452,
      "beit": 5454,
      "johnston": 5455,
      "buyrate": 5456,
      "##bodies": 5457,
      "racy": 5458,
      "##loin": 5459,
      "deluge": 5460,
      "##ieve": 5461,
      "filitti": 5462,
      "onboard": 5463,
      "1848": 5464,
      "hydroxide": 5465,
      "getze": 5466,
      "antisem": 5467,
      "endemic": 5468,
      "vanbies": 5469,
      "eer": 5470,
      "oglesby": 5471,
      "impet": 5472,
      "aboard": 5473,
      "martyred": 5474,
      "##guards": 5475,
      "kindred": 5476,
      "everlasting": 5477,
      "jodie": 5478,
      "kalonji": 5479,
      "anticoagulant": 5480,
      "bravery": 5481,
      "verg": 5482,
      "bessie": 5483,
      "weevil": 5484,
      "##thora": 5485,
      "rfu": 5486,
      "untidy": 5487,
      "manoa": 5488,
      "pretensions": 5489,
      "journeys": 5490,
      "invocation": 5491,
      "noise": 5492,
      "deux": 5493,
      "tamp": 5494,
      "land": 5496,
      "bohr": 5497,
      "disapproval": 5498,
      "##mona": 5499,
      "hoping": 5500,
      "glaze": 5501,
      "##orean": 5502,
      "shadows": 5503,
      "urchin": 5504,
      "leav": 5505,
      "command": 5506,
      "chesney": 5507,
      "moiety": 5508,
      "maynard": 5509,
      "memos": 5510,
      "kille": 5511,
      "additive": 5512,
      "insomniac": 5513,
      "conversation": 5514,
      "foundered": 5515,
      "gettysburg": 5516,
      "cyclogenesis": 5517,
      "kawartha": 5518,
      "peerage": 5519,
      "gravesend": 5520,
      "stuyves": 5521,
      "##iberg": 5522,
      "quarrelled": 5523,
      "dehydrogen": 5524,
      "suspicion": 5525,
      "jacobs": 5526,
      "kond": 5527,
      "scl": 5529,
      "ordinary": 5530,
      "chameleons": 5531,
      "genitive": 5532,
      "slide": 5533,
      "suan": 5534,
      "rarest": 5535,
      "##artee": 5536,
      "impeded": 5537,
      "antimalarial": 5538,
      "##odils": 5539,
      "##roch": 5540,
      "moonraker": 5541,
      "forfeit": 5542,
      "ribos": 5543,
      "tumour": 5544,
      "##league": 5545,
      "##alik": 5546,
      "immunodef": 5547,
      "prefabricated": 5548,
      "mark": 5549,
      "orange": 5550,
      "exuberant": 5551,
      "aspergillus": 5552,
      "winners": 5553,
      "ched": 5554,
      "precursors": 5555,
      "allel": 5556,
      "samurai": 5557,
      "dangerous": 5558,
      "layman": 5559,
      "archdeaconry": 5560,
      "hotspot": 5561,
      "supporting": 5562,
      "serow": 5563,
      "fade": 5564,
      "smithers": 5565,
      "bahrain": 5566,
      "inexperience": 5567,
      "imped": 5568,
      "##apoo": 5569,
      "unicode": 5570,
      "ks": 5571,
      "sting": 5572,
      "literally": 5573,
      "yummy": 5574,
      "gadsden": 5575,
      "gita": 5576,
      "adept": 5577,
      "##ivelu": 5578,
      "rectal": 5579,
      "herbiv": 5580,
      "protagonist": 5581,
      "terang": 5582,
      "1087": 5583,
      "ceti": 5584,
      "rosh": 5585,
      "75": 5586,
      "tragedies": 5587,
      "sena": 5588,
      "decorum": 5589,
      "currents": 5590,
      "prep": 5591,
      "helms": 5592,
      "oreal": 5593,
      "##orily": 5594,
      "gorbachev": 5595,
      "diem": 5596,
      "##ilworth": 5597,
      "marsden": 5598,
      "flankers": 5599,
      "speared": 5600,
      "navarro": 5601,
      "hagiography": 5602,
      "lefevre": 5603,
      "wendover": 5604,
      "typified": 5605,
      "submerge": 5606,
      "##amble": 5608,
      "camden": 5609,
      "wonderful": 5610,
      "injury": 5611,
      "shearwaters": 5612,
      "summation": 5613,
      "temporal": 5614,
      "##through": 5615,
      "##beak": 5616,
      "##izan": 5617,
      "peuge": 5618,
      "talia": 5619,
      "tribute": 5620,
      "amphibian": 5621,
      "firings": 5622,
      "margulies": 5623,
      "frees": 5624,
      "swayed": 5625,
      "redisc": 5626,
      "mental": 5627,
      "kirkwall": 5628,
      "unconstitution": 5629,
      "archrival": 5630,
      "alleviate": 5631,
      "gunmen": 5632,
      "braided": 5633,
      "expanding": 5634,
      "assembling": 5635,
      "resolving": 5636,
      "cns": 5637,
      "charing": 5638,
      "ridg": 5639,
      "seddon": 5640,
      "predators": 5641,
      "jammer": 5642,
      "torto": 5643,
      "guidebooks": 5644,
      "##iil": 5645,
      "redshifts": 5646,
      "japan": 5647,
      "aka": 5648,
      "572": 5649,
      "##agraha": 5650,
      "brownell": 5651,
      "password": 5652,
      "parallax": 5653,
      "loyal": 5654,
      "outfits": 5655,
      "forefather": 5656,
      "caius": 5657,
      "##izs": 5658,
      "tko": 5659,
      "orf": 5660,
      "shafts": 5661,
      "grayson": 5662,
      "##javur": 5663,
      "froissart": 5664,
      "##akert": 5665,
      "calib": 5666,
      "castle": 5667,
      "##iana": 5668,
      "negativity": 5669,
      "erhard": 5670,
      "tyntesfield": 5671,
      "recruiter": 5672,
      "##calf": 5673,
      "swenson": 5674,
      "impedances": 5675,
      "dengue": 5677,
      "beatles": 5678,
      "alo": 5679,
      "korg": 5680,
      "aggression": 5681,
      "rymkus": 5682,
      "1912": 5683,
      "ingred": 5684,
      "restrooms": 5685,
      "homer": 5686,
      "hem": 5687,
      "crore": 5688,
      "washes": 5689,
      "indefinitely": 5690,
      "forfeits": 5691,
      "danced": 5692,
      "##enhauer": 5693,
      "monistic": 5694,
      "wallsend": 5695,
      "rko": 5696,
      "##ata": 5697,
      "suns": 5698,
      "tubman": 5699,
      "credible": 5700,
      "opposites": 5701,
      "meandering": 5702,
      "##yer": 5703,
      "uninjured": 5704,
      "avalanches": 5705,
      "a20": 5706,
      "beng": 5707,
      "said": 5708,
      "stricken": 5709,
      "norns": 5710,
      "pestic": 5711,
      "trash": 5712,
      "circumference": 5713,
      "state": 5714,
      "similarly": 5715,
      "##iked": 5716,
      "baptized": 5717,
      "lieutenancy": 5718,
      "grandsons": 5719,
      "transponder": 5720,
      "##buck": 5721,
      "tatasciore": 5722,
      "husayn": 5723,
      "##entius": 5724,
      "exposures": 5725,
      "homozygous": 5726,
      "despotate": 5727,
      "tollway": 5728,
      "structures": 5729,
      "southside": 5730,
      "conclusion": 5731,
      "specified": 5732,
      "carted": 5733,
      "aeschylus": 5734,
      "1543": 5735,
      "biota": 5736,
      "##iliation": 5737,
      "millil": 5738,
      "gendar": 5739,
      "stairs": 5740,
      "755": 5741,
      "paka": 5742,
      "seditious": 5743,
      "weld": 5744,
      "eye": 5745,
      "hogun": 5746,
      "procedural": 5747,
      "devonport": 5748,
      "##mya": 5749,
      "##atori": 5750,
      "##migo": 5751,
      "chamonix": 5752,
      "moves": 5753,
      "074": 5754,
      "bowyer": 5755,
      "defeating": 5756,
      "orangutans": 5757,
      "søren": 5758,
      "amis": 5759,
      "##cooked": 5760,
      "modesto": 5761,
      "offerman": 5762,
      "ciel": 5763,
      "##usset": 5764,
      "cray": 5765,
      "##ila": 5766,
      "##entenary": 5767,
      "lives": 5768,
      "cortisol": 5769,
      "wentworth": 5770,
      "acrob": 5771,
      "defor": 5772,
      "##ometry": 5773,
      "lightly": 5774,
      "##appl": 5775,
      "allsp": 5776,
      "triadic": 5777,
      "##ettin": 5778,
      "taxiing": 5779,
      "shudder": 5780,
      "yarrow": 5781,
      "degenerative": 5782,
      "seo": 5783,
      "remembr": 5784,
      "lamps": 5785,
      "sequential": 5786,
      "idw": 5787,
      "terre": 5788,
      "comique": 5789,
      "##irus": 5790,
      "tempo": 5791,
      "jacoby": 5792,
      "deported": 5793,
      "rites": 5794,
      "overriding": 5795,
      "chidambar": 5797,
      "academic": 5798,
      "altitudes": 5799,
      "monotony": 5800,
      "jordanhill": 5801,
      "heir": 5802,
      "##ometallic": 5803,
      "polybius": 5804,
      "lancey": 5805,
      "lapp": 5806,
      "913": 5807,
      "##bands": 5808,
      "ooo": 5809,
      "##leen": 5810,
      "hospitaller": 5811,
      "nana": 5812,
      "ranade": 5813,
      "##ma": 5814,
      "##zua": 5815,
      "hereford": 5816,
      "betsim": 5817,
      "donlevy": 5818,
      "##yds": 5819,
      "malmedy": 5820,
      "pitted": 5821,
      "dome": 5822,
      "lahaina": 5823,
      "frigates": 5824,
      "parthians": 5825,
      "venting": 5826,
      "sack": 5827,
      "ut": 5828,
      "unfriendly": 5829,
      "##rio": 5830,
      "bis": 5831,
      "undercar": 5832,
      "gellius": 5833,
      "bloomer": 5834,
      "palgrave": 5835,
      "shacht": 5836,
      "cancellations": 5837,
      "ayyubid": 5838,
      "flores": 5839,
      "noble": 5840,
      "linoleum": 5841,
      "##ecompany": 5842,
      "rockef": 5843,
      "364": 5844,
      "subd": 5845,
      "silesia": 5846,
      "conditioning": 5847,
      "1612": 5848,
      "##bs": 5849,
      "esoter": 5850,
      "lobby": 5851,
      "koo": 5852,
      "pyrenees": 5853,
      "lochte": 5854,
      "aligned": 5855,
      "##guard": 5856,
      "seabird": 5857,
      "couldn": 5858,
      "decken": 5859,
      "bookstore": 5860,
      "prescott": 5861,
      "##ectors": 5862,
      "gye": 5863,
      "overseas": 5864,
      "seduce": 5865,
      "985": 5866,
      "wherry": 5867,
      "ily": 5868,
      "pervaded": 5869,
      "dante": 5870,
      "fixer": 5871,
      "howlin": 5872,
      "xilai": 5873,
      "chartered": 5874,
      "compliance": 5875,
      "sigma": 5876,
      "##ibel": 5877,
      "228": 5878,
      "rappers": 5879,
      "reorganizing": 5880,
      "lots": 5881,
      "perjury": 5882,
      "hijacking": 5883,
      "geester": 5884,
      "honduran": 5885,
      "insub": 5886,
      "tying": 5887,
      "hybr": 5888,
      "rever": 5889,
      "embr": 5890,
      "forest": 5891,
      "starch": 5892,
      "folklor": 5893,
      "duped": 5894,
      "stoker": 5895,
      "imbalance": 5896,
      "arterial": 5897,
      "marcher": 5898,
      "birkett": 5899,
      "##ription": 5900,
      "rapanui": 5901,
      "wasted": 5902,
      "betel": 5903,
      "taxi": 5905,
      "eighths": 5906,
      "##ovsk": 5907,
      "##fected": 5908,
      "fontana": 5909,
      "ælf": 5910,
      "fincher": 5911,
      "laybourne": 5912,
      "mesurier": 5913,
      "708": 5914,
      "indiscrimin": 5915,
      "steamships": 5916,
      "stingrays": 5917,
      "accretion": 5918,
      "protactinium": 5919,
      "watercol": 5920,
      "hesit": 5921,
      "ludlow": 5922,
      "animaux": 5923,
      "indicated": 5924,
      "firepower": 5925,
      "tugboats": 5926,
      "bridesmaid": 5927,
      "wagggs": 5928,
      "dissect": 5929,
      "empowerment": 5930,
      "##acer": 5931,
      "vigilance": 5932,
      "decreasing": 5933,
      "##meg": 5934,
      "##cett": 5935,
      "##sc": 5936,
      "##uing": 5937,
      "wantage": 5938,
      "magda": 5939,
      "dunkery": 5940,
      "rigor": 5941,
      "concentrates": 5942,
      "undoubted": 5943,
      "offer": 5944,
      "irrad": 5945,
      "saucers": 5946,
      "scotia": 5947,
      "mix": 5948,
      "disagreed": 5949,
      "swami": 5950,
      "vhs": 5951,
      "counterfeits": 5952,
      "algerian": 5953,
      "antimicrobial": 5954,
      "saxton": 5955,
      "##inus": 5956,
      "altam": 5957,
      "humus": 5958,
      "cauliflower": 5959,
      "kilometers": 5960,
      "tablets": 5961,
      "harv": 5962,
      "videos": 5963,
      "undersecretary": 5964,
      "doping": 5965,
      "alternates": 5966,
      "nell": 5967,
      "inspected": 5968,
      "mumb": 5969,
      "##umbent": 5970,
      "leitmotifs": 5971,
      "##rata": 5972,
      "ranches": 5973,
      "mana": 5974,
      "downfall": 5975,
      "baron": 5976,
      "reeves": 5977,
      "merriam": 5978,
      "##chre": 5979,
      "bosses": 5980,
      "vac": 5981,
      "retrieval": 5982,
      "snake": 5983,
      "directory": 5984,
      "chance": 5985,
      "levied": 5986,
      "camacho": 5987,
      "conquer": 5988,
      "hamstring": 5989,
      "barrymore": 5990,
      "loggerheads": 5991,
      "zee": 5992,
      "elastic": 5993,
      "shutters": 5994,
      "torrens": 5995,
      "##onos": 5996,
      "shamanic": 5997,
      "criminalized": 5998,
      "4chan": 5999,
      "turnpike": 6000,
      "##mam": 6001,
      "unlike": 6002,
      "durant": 6003,
      "##econd": 6004,
      "aeronautics": 6005,
      "try": 6006,
      "brittleness": 6007,
      "wah": 6008,
      "##oved": 6009,
      "fas": 6010,
      "##domyolysis": 6011,
      "##ンス": 6012,
      "suite": 6013,
      "printers": 6014,
      "soed": 6015,
      "curators": 6016,
      "capua": 6017,
      "translated": 6018,
      "superstore": 6019,
      "cornelia": 6020,
      "doctrinal": 6021,
      "valbuena": 6022,
      "shoemaker": 6023,
      "xiii": 6024,
      "apologizes": 6025,
      "sufficiency": 6026,
      "prerogative": 6027,
      "halfway": 6028,
      "##boa": 6029,
      "cronulla": 6030,
      "hark": 6031,
      "455": 6032,
      "sust": 6033,
      "constitu": 6034,
      "1227": 6035,
      "eccles": 6036,
      "maker": 6037,
      "hoon": 6038,
      "neuroblast": 6039,
      "artefact": 6040,
      "xp": 6041,
      "backfires": 6042,
      "thrives": 6043,
      "ernie": 6044,
      "soln": 6045,
      "randolph": 6046,
      "##hev": 6047,
      "emptying": 6048,
      "414": 6049,
      "##anger": 6050,
      "nki": 6051,
      "coastlines": 6052,
      "claw": 6053,
      "baby": 6054,
      "abv": 6055,
      "##oundingly": 6056,
      "annabeth": 6057,
      "kursk": 6058,
      "tordesillas": 6059,
      "razed": 6060,
      "##rove": 6061,
      "isol": 6062,
      "frisch": 6063,
      "microscope": 6064,
      "1154": 6065,
      "yule": 6066,
      "steiger": 6067,
      "phrases": 6068,
      "macy": 6069,
      "##etic": 6070,
      "incumbent": 6071,
      "vevo": 6072,
      "værnes": 6073,
      "##isual": 6074,
      "##inted": 6075,
      "xper": 6076,
      "headquarters": 6077,
      "##antyo": 6078,
      "orpheus": 6079,
      "redder": 6080,
      "##eten": 6081,
      "retina": 6082,
      "appealing": 6083,
      "emmons": 6084,
      "##hya": 6085,
      "nazionale": 6086,
      "plums": 6088,
      "gardener": 6089,
      "leonid": 6090,
      "briefing": 6091,
      "deceptions": 6092,
      "drain": 6093,
      "tupac": 6094,
      "##verde": 6095,
      "reassessed": 6096,
      "bards": 6097,
      "upgr": 6098,
      "##itch": 6099,
      "boutiques": 6100,
      "swims": 6101,
      "fidel": 6102,
      "krajina": 6103,
      "paces": 6104,
      "tunings": 6105,
      "malnour": 6106,
      "heidenreich": 6107,
      "militarist": 6109,
      "frust": 6110,
      "gramp": 6111,
      "trooping": 6112,
      "mustafa": 6113,
      "dishw": 6114,
      "tvs": 6115,
      "rianz": 6116,
      "waterspouts": 6117,
      "erat": 6118,
      "grossing": 6119,
      "rewrites": 6120,
      "nay": 6121,
      "goulding": 6122,
      "characteristic": 6123,
      "masina": 6124,
      "drawn": 6125,
      "furtado": 6126,
      "kiwanis": 6127,
      "474": 6128,
      "corvette": 6129,
      "##teca": 6130,
      "e85": 6131,
      "ved": 6132,
      "dalmeny": 6133,
      "stearns": 6134,
      "apparatus": 6135,
      "immunology": 6136,
      "1916": 6137,
      "tether": 6138,
      "longchamp": 6139,
      "##eals": 6140,
      "clergymen": 6141,
      "nihilistic": 6142,
      "tabula": 6143,
      "criminology": 6144,
      "subsonic": 6145,
      "colleagues": 6146,
      "##zomys": 6147,
      "javan": 6148,
      "visualized": 6149,
      "buys": 6150,
      "##imov": 6151,
      "lydford": 6152,
      "planc": 6153,
      "vivienne": 6154,
      "1340": 6155,
      "tryggvason": 6156,
      "##lift": 6157,
      "shutdown": 6158,
      "crusaders": 6159,
      "thayer": 6160,
      "ecac": 6161,
      "movements": 6162,
      "cinta": 6163,
      "employer": 6164,
      "##urated": 6165,
      "motorised": 6166,
      "jorm": 6167,
      "daub": 6168,
      "exposes": 6169,
      "##igas": 6170,
      "motivations": 6171,
      "##oster": 6172,
      "enigma": 6173,
      "sort": 6174,
      "snowfall": 6175,
      "interracial": 6176,
      "desegreg": 6177,
      "discussed": 6178,
      "rica": 6179,
      "donates": 6180,
      "purple": 6181,
      "assertion": 6182,
      "parking": 6183,
      "neuchatel": 6184,
      "##lysis": 6185,
      "biology": 6186,
      "370": 6187,
      "oxid": 6188,
      "magnified": 6189,
      "sugriva": 6190,
      "dhoti": 6191,
      "inexplicably": 6192,
      "democrats": 6193,
      "fock": 6194,
      "beswick": 6195,
      "argive": 6196,
      "pannets": 6197,
      "manc": 6198,
      "793": 6199,
      "brings": 6200,
      "mercuric": 6201,
      "noncomm": 6202,
      "cowboys": 6203,
      "##chenko": 6204,
      "pull": 6205,
      "matamoros": 6206,
      "m31": 6207,
      "folks": 6208,
      "##master": 6209,
      "anax": 6210,
      "natalya": 6211,
      "figur": 6212,
      "##wood": 6213,
      "weir": 6214,
      "laon": 6215,
      "binibining": 6216,
      "camus": 6217,
      "speculator": 6218,
      "connective": 6219,
      "roadshow": 6220,
      "##schm": 6221,
      "dishon": 6222,
      "949": 6223,
      "##zka": 6224,
      "illyria": 6225,
      "unprotected": 6226,
      "mughal": 6227,
      "quainton": 6228,
      "asean": 6229,
      "saying": 6230,
      "##cci": 6231,
      "uba": 6232,
      "ælfhere": 6233,
      "waldemar": 6234,
      "006": 6235,
      "##ffield": 6236,
      "fiefs": 6237,
      "concerted": 6238,
      "pounded": 6239,
      "bulkheads": 6240,
      "bom": 6241,
      "asymmetric": 6243,
      "appellate": 6244,
      "interrog": 6245,
      "divisive": 6246,
      "##rikas": 6247,
      "draughtsman": 6248,
      "1953": 6249,
      "##eckis": 6250,
      "argent": 6251,
      "enthiran": 6252,
      "##χη": 6253,
      "1536": 6254,
      "ecumen": 6255,
      "caldas": 6256,
      "entails": 6257,
      "anjouan": 6258,
      "##ouch": 6259,
      "##ads": 6260,
      "200m": 6261,
      "bilis": 6262,
      "##apon": 6263,
      "##ecake": 6264,
      "familia": 6265,
      "pronghorn": 6266,
      "guevara": 6267,
      "##uha": 6268,
      "butler": 6269,
      "deorbit": 6270,
      "pulled": 6271,
      "faith": 6272,
      "##euil": 6273,
      "karnan": 6274,
      "anaheim": 6275,
      "vorontsov": 6276,
      "devild": 6277,
      "##iaca": 6278,
      "scroun": 6279,
      "lawmakers": 6280,
      "bruton": 6281,
      "clearances": 6282,
      "rajput": 6283,
      "hamence": 6284,
      "rublev": 6285,
      "taxing": 6286,
      "sunbury": 6287,
      "##usz": 6288,
      "##owers": 6289,
      "tillingbourne": 6290,
      "3m": 6291,
      "animosity": 6292,
      "hawass": 6293,
      "1214": 6294,
      "##acy": 6295,
      "sorrent": 6296,
      "nicholls": 6297,
      "536": 6298,
      "rainha": 6299,
      "sober": 6300,
      "hornblower": 6301,
      "oats": 6302,
      "garko": 6303,
      "rothman": 6304,
      "offstage": 6305,
      "##ascar": 6306,
      "tangential": 6307,
      "jefferies": 6308,
      "latina": 6309,
      "sonder": 6310,
      "newcastle": 6311,
      "naive": 6312,
      "##itty": 6313,
      "intern": 6314,
      "amchit": 6315,
      "spitfire": 6316,
      "spills": 6317,
      "taft": 6318,
      "publicizing": 6319,
      "filmm": 6320,
      "##riet": 6321,
      "bowsprit": 6322,
      "cadw": 6323,
      "##woo": 6324,
      "triestino": 6325,
      "f1": 6326,
      "regular": 6327,
      "hakim": 6328,
      "karm": 6329,
      "sinestro": 6330,
      "criticized": 6331,
      "seid": 6332,
      "1786": 6333,
      "presaged": 6334,
      "lorenz": 6335,
      "shooting": 6336,
      "##agers": 6337,
      "transcontinental": 6338,
      "veritable": 6339,
      "ditches": 6340,
      "##oz": 6341,
      "gaston": 6342,
      "gaw": 6343,
      "prays": 6344,
      "filmmaker": 6345,
      "manning": 6346,
      "bolli": 6347,
      "overlap": 6348,
      "##al": 6349,
      "geophysics": 6350,
      "nandana": 6351,
      "stok": 6352,
      "saratoga": 6353,
      "moleman": 6354,
      "guy": 6355,
      "sorcerer": 6356,
      "promul": 6358,
      "mainstays": 6359,
      "harrods": 6360,
      "shreveport": 6361,
      "961": 6362,
      "taunton": 6363,
      "liban": 6364,
      "cohort": 6365,
      "##atlantic": 6366,
      "nobody": 6367,
      "ulcers": 6368,
      "zagre": 6369,
      "whipping": 6370,
      "melvin": 6371,
      "gaal": 6372,
      "born": 6373,
      "fokker": 6374,
      "connois": 6375,
      "followed": 6376,
      "1341": 6377,
      "obviously": 6378,
      "dement": 6379,
      "sivright": 6380,
      "wooler": 6381,
      "eyck": 6382,
      "plym": 6383,
      "##utations": 6384,
      "thakkar": 6385,
      "hamlet": 6386,
      "##cherson": 6387,
      "pascual": 6388,
      "##iridia": 6389,
      "symbiosis": 6390,
      "tamarisk": 6391,
      "tolkien": 6392,
      "serpent": 6393,
      "##asmatodea": 6394,
      "transiting": 6395,
      "tannhauser": 6396,
      "##ner": 6397,
      "enrol": 6398,
      "adopts": 6399,
      "roj": 6400,
      "warped": 6401,
      "vereen": 6402,
      "wedged": 6403,
      "grassington": 6404,
      "nefar": 6405,
      "admirals": 6406,
      "alloc": 6407,
      "hoaxes": 6408,
      "mechanic": 6409,
      "home": 6410,
      "sacraments": 6411,
      "katrina": 6412,
      "##matova": 6413,
      "zheng": 6414,
      "marrow": 6415,
      "recorder": 6416,
      "libertadores": 6417,
      "indenture": 6418,
      "##akon": 6419,
      "boilers": 6420,
      "ashbury": 6421,
      "fecal": 6422,
      "abelisaur": 6423,
      "##brates": 6424,
      "worst": 6425,
      "##witsch": 6426,
      "lamenting": 6427,
      "ridge": 6428,
      "worries": 6429,
      "qualifying": 6430,
      "metaphor": 6431,
      "r3": 6432,
      "vulcanodon": 6433,
      "599": 6434,
      "scall": 6435,
      "##chio": 6436,
      "mullin": 6437,
      "gunnhild": 6438,
      "##pus": 6439,
      "slime": 6440,
      "methoxy": 6441,
      "kalamazoo": 6442,
      "ease": 6443,
      "journals": 6444,
      "frugal": 6445,
      "highlander": 6446,
      "##opol": 6447,
      "##eira": 6448,
      "##iante": 6449,
      "gorn": 6450,
      "fuj": 6451,
      "caucas": 6452,
      "##ographing": 6453,
      "281": 6454,
      "845": 6455,
      "##yment": 6456,
      "carcinogen": 6457,
      "printings": 6458,
      "eigenvalue": 6459,
      "popularity": 6460,
      "israel": 6461,
      "psg": 6462,
      "misty": 6463,
      "acknowledges": 6464,
      "suffered": 6465,
      "##otropic": 6466,
      "thrash": 6467,
      "distorts": 6468,
      "##mos": 6469,
      "turok": 6470,
      "banksias": 6471,
      "sweeping": 6472,
      "associations": 6473,
      "tribun": 6474,
      "dictatorial": 6475,
      "##marion": 6476,
      "outgoing": 6477,
      "rays": 6478,
      "cement": 6479,
      "dianetics": 6480,
      "kariya": 6481,
      "##annis": 6482,
      "jol": 6483,
      "nieuws": 6484,
      "waddell": 6485,
      "woodwork": 6486,
      "favreau": 6487,
      "shyam": 6488,
      "tries": 6489,
      "htt": 6490,
      "dorm": 6491,
      "takao": 6492,
      "##endrick": 6493,
      "##eliness": 6494,
      "ødegaard": 6495,
      "softly": 6496,
      "smolensk": 6497,
      "pater": 6498,
      "cyath": 6499,
      "bachar": 6500,
      "lesnar": 6501,
      "maredudd": 6502,
      "mcginty": 6503,
      "ler": 6504,
      "matched": 6505,
      "##ambeau": 6506,
      "fontainebleau": 6507,
      "##aysia": 6508,
      "furn": 6509,
      "wiseman": 6510,
      "emi": 6511,
      "rimet": 6512,
      "outstanding": 6513,
      "##arab": 6514,
      "mediator": 6515,
      "colored": 6516,
      "preaching": 6517,
      "fertile": 6518,
      "##onizio": 6519,
      "punting": 6520,
      "nig": 6521,
      "flying": 6522,
      "realign": 6523,
      "researching": 6524,
      "cheats": 6525,
      "nearest": 6526,
      "palps": 6527,
      "loinc": 6528,
      "s9": 6529,
      "maryhill": 6530,
      "hen": 6531,
      "implantation": 6532,
      "guiteau": 6533,
      "##kary": 6534,
      "pentameter": 6535,
      "##taek": 6536,
      "psoe": 6537,
      "plane": 6538,
      "speculations": 6539,
      "##xiv": 6540,
      "ruin": 6541,
      "##sev": 6542,
      "surrealist": 6543,
      "breathes": 6544,
      "telopea": 6545,
      "##gren": 6546,
      "lumpur": 6547,
      "##rump": 6548,
      "staffers": 6549,
      "dag": 6550,
      "kul": 6552,
      "##bean": 6553,
      "artist": 6554,
      "yarm": 6555,
      "amalt": 6556,
      "kilgore": 6557,
      "##iquit": 6558,
      "precocial": 6559,
      "repo": 6560,
      "smelter": 6561,
      "yorktown": 6562,
      "chrome": 6563,
      "ilic": 6564,
      "##orsk": 6565,
      "huginn": 6566,
      "dodecahedron": 6567,
      "phytoplankton": 6568,
      "chipotle": 6569,
      "regulate": 6570,
      "fehr": 6571,
      "unsuccess": 6572,
      "intrinsically": 6573,
      "chemists": 6574,
      "recanted": 6575,
      "ein": 6576,
      "nitrogen": 6577,
      "griese": 6578,
      "rattlesnake": 6579,
      "unrequ": 6580,
      "recognized": 6581,
      "particularly": 6582,
      "para": 6583,
      "founder": 6584,
      "##henburg": 6585,
      "stroud": 6586,
      "154672": 6587,
      "forensic": 6588,
      "lym": 6589,
      "redesignated": 6590,
      "pumice": 6591,
      "##auskas": 6592,
      "brundage": 6593,
      "bowfin": 6594,
      "##iation": 6595,
      "squ": 6596,
      "castling": 6597,
      "envious": 6598,
      "gany": 6599,
      "eine": 6600,
      "##ivated": 6601,
      "##aros": 6602,
      "kimmel": 6603,
      "strahd": 6604,
      "bounced": 6605,
      "gatlin": 6606,
      "pilasters": 6607,
      "##aille": 6608,
      "##omini": 6609,
      "restrictive": 6610,
      "cob": 6611,
      "lw": 6612,
      "retrievers": 6613,
      "þor": 6614,
      "chambered": 6615,
      "characterizations": 6616,
      "mycen": 6617,
      "cig": 6618,
      "schedule": 6619,
      "oversight": 6620,
      "testimonials": 6621,
      "marlow": 6622,
      "rojas": 6623,
      "autocratic": 6624,
      "brahm": 6625,
      "##ultane": 6626,
      "stou": 6627,
      "brightly": 6628,
      "kaneko": 6629,
      "friendlies": 6630,
      "catch": 6631,
      "amaze": 6632,
      "bellev": 6633,
      "entente": 6634,
      "##stow": 6635,
      "stumbled": 6636,
      "deciphered": 6637,
      "##lev": 6638,
      "westland": 6639,
      "msv": 6640,
      "1542": 6641,
      "almirena": 6642,
      "bolet": 6643,
      "gwyn": 6644,
      "##uchus": 6645,
      "usage": 6646,
      "##isle": 6647,
      "wesleyan": 6648,
      "##alm": 6649,
      "masquer": 6650,
      "hud": 6651,
      "##atraz": 6652,
      "daig": 6653,
      "##ccini": 6654,
      "llosa": 6655,
      "aces": 6656,
      "disagreeing": 6657,
      "thump": 6658,
      "afor": 6659,
      "aeneas": 6660,
      "##95": 6661,
      "current": 6662,
      "hertzsprung": 6663,
      "bmi": 6664,
      "##ups": 6665,
      "zav": 6666,
      "t20": 6667,
      "35w": 6668,
      "libellus": 6669,
      "nc6": 6670,
      "tiles": 6671,
      "avoids": 6672,
      "fister": 6673,
      "transplants": 6674,
      "273": 6675,
      "circulate": 6676,
      "fertilizer": 6677,
      "ssh": 6678,
      "jagu": 6679,
      "hiroyuki": 6680,
      "decried": 6681,
      "cathcart": 6682,
      "##ibility": 6683,
      "sheryl": 6684,
      "abrolhos": 6685,
      "lapses": 6686,
      "picketing": 6687,
      "extends": 6688,
      "barbuda": 6689,
      "retorts": 6690,
      "vadim": 6691,
      "natick": 6692,
      "##go": 6693,
      "##iza": 6694,
      "riviera": 6695,
      "jessie": 6696,
      "ricard": 6697,
      "fades": 6698,
      "syllables": 6699,
      "##ievous": 6700,
      "##ayed": 6701,
      "kappa": 6702,
      "marina": 6703,
      "collectiv": 6704,
      "mediate": 6705,
      "1270": 6706,
      "prefontaine": 6707,
      "emmer": 6708,
      "muske": 6709,
      "median": 6710,
      "insanity": 6711,
      "circumc": 6712,
      "tamer": 6713,
      "lbs": 6714,
      "##bbe": 6715,
      "royle": 6716,
      "voormann": 6717,
      "kleinschmidt": 6718,
      "##ableness": 6719,
      "foshan": 6720,
      "chrys": 6721,
      "timer": 6722,
      "chimpanzees": 6723,
      "quebecois": 6724,
      "commercialized": 6725,
      "speciosa": 6726,
      "##hair": 6727,
      "baz": 6728,
      "attire": 6729,
      "rival": 6730,
      "hitachi": 6731,
      "kuwa": 6732,
      "untransl": 6733,
      "tallon": 6734,
      "sarah": 6735,
      "##gre": 6736,
      "perreault": 6737,
      "bursitis": 6738,
      "nasri": 6739,
      "m4": 6740,
      "placeholder": 6741,
      "##rhoea": 6742,
      "distaste": 6743,
      "summarizes": 6744,
      "##obar": 6745,
      "habre": 6746,
      "castafiore": 6747,
      "ebony": 6748,
      "##imbus": 6749,
      "walton": 6750,
      "coyotes": 6751,
      "770": 6752,
      "383": 6753,
      "queues": 6754,
      "revelation": 6755,
      "idiosyncratic": 6756,
      "regatta": 6757,
      "##adnock": 6758,
      "postmile": 6759,
      "##boiled": 6760,
      "##kyi": 6761,
      "poole": 6762,
      "okb": 6763,
      "gorgeous": 6764,
      "belvedere": 6765,
      "hort": 6766,
      "##ancerous": 6767,
      "##aturation": 6768,
      "positives": 6769,
      "je": 6770,
      "raistlin": 6771,
      "effector": 6772,
      "morrison": 6773,
      "unhcr": 6774,
      "talkie": 6775,
      "cloths": 6776,
      "umbrella": 6777,
      "panes": 6778,
      "daybreaker": 6779,
      "leip": 6780,
      "bolstered": 6781,
      "100": 6782,
      "laing": 6783,
      "collection": 6784,
      "shelburne": 6785,
      "lithu": 6786,
      "errol": 6787,
      "purn": 6788,
      "jackson": 6789,
      "removes": 6790,
      "catania": 6791,
      "definition": 6792,
      "lenore": 6793,
      "aloud": 6794,
      "manzanillo": 6795,
      "scares": 6796,
      "vasan": 6797,
      "phillips": 6798,
      "happened": 6799,
      "tolerate": 6800,
      "stomp": 6801,
      "homogenous": 6802,
      "dissolve": 6803,
      "adrastea": 6804,
      "ruthenia": 6805,
      "luckily": 6806,
      "smallville": 6807,
      "subp": 6808,
      "foal": 6809,
      "dhy": 6810,
      "##ader": 6811,
      "digitised": 6812,
      "##ney": 6813,
      "autonomous": 6814,
      "riy": 6815,
      "spored": 6816,
      "##ign": 6817,
      "bubba": 6818,
      "سل": 6819,
      "##upo": 6820,
      "lamb": 6821,
      "populate": 6822,
      "##ombe": 6823,
      "##dc": 6824,
      "pki": 6825,
      "cesare": 6826,
      "barangay": 6827,
      "molloy": 6828,
      "breakups": 6829,
      "eilley": 6830,
      "strontium": 6831,
      "terrifying": 6832,
      "marjorie": 6833,
      "##greg": 6834,
      "aldehyde": 6835,
      "##wend": 6836,
      "##cey": 6837,
      "tayler": 6838,
      "013": 6839,
      "810": 6840,
      "mill": 6841,
      "seasonal": 6842,
      "circumstellar": 6843,
      "washer": 6844,
      "impecc": 6845,
      "plantagen": 6846,
      "doblin": 6847,
      "sexy": 6848,
      "parrots": 6849,
      "aig": 6850,
      "bombardments": 6851,
      "ingress": 6852,
      "##chuck": 6853,
      "##linic": 6854,
      "prize": 6855,
      "un": 6856,
      "gauls": 6857,
      "walworth": 6858,
      "electives": 6859,
      "##uance": 6860,
      "harrel": 6861,
      "paternal": 6862,
      "soluble": 6863,
      "disprove": 6864,
      "youn": 6865,
      "westernmost": 6866,
      "cacti": 6867,
      "1021": 6868,
      "enclose": 6869,
      "reflo": 6870,
      "insistence": 6871,
      "##bart": 6872,
      "barro": 6873,
      "craftsman": 6874,
      "underdogs": 6875,
      "diagonally": 6876,
      "gilligan": 6877,
      "carlsen": 6878,
      "53": 6879,
      "judd": 6880,
      "owusu": 6881,
      "caldera": 6882,
      "deficit": 6883,
      "ij": 6884,
      "lewes": 6885,
      "keynes": 6886,
      "gundam": 6887,
      "structuralist": 6888,
      "misde": 6889,
      "borges": 6890,
      "##pter": 6891,
      "domains": 6892,
      "synch": 6893,
      "pastafarians": 6894,
      "kath": 6895,
      "interfering": 6896,
      "furr": 6897,
      "bardstown": 6898,
      "##riere": 6899,
      "drill": 6900,
      "##enants": 6901,
      "wilhelm": 6902,
      "accountable": 6903,
      "northeast": 6904,
      "steorn": 6905,
      "dommoc": 6906,
      "##metz": 6907,
      "lewinsky": 6908,
      "sierra": 6909,
      "diabolical": 6910,
      "executed": 6911,
      "##42": 6912,
      "ksh": 6913,
      "##adan": 6914,
      "camouflaged": 6915,
      "uncontested": 6916,
      "saur": 6917,
      "pastel": 6918,
      "families": 6919,
      "##ouges": 6920,
      "waerden": 6921,
      "824": 6922,
      "valhalla": 6923,
      "ribbentrop": 6924,
      "retablo": 6925,
      "chien": 6926,
      "improvise": 6927,
      "suture": 6928,
      "mercyful": 6929,
      "ahmed": 6930,
      "horizonte": 6931,
      "##his": 6932,
      "uppermost": 6933,
      "hijos": 6934,
      "coldwater": 6935,
      "petits": 6936,
      "disorder": 6937,
      "ncp": 6938,
      "lone": 6939,
      "##alniceanu": 6940,
      "diaz": 6941,
      "reconnaissances": 6942,
      "exhibitors": 6943,
      "reynolds": 6944,
      "aquilonia": 6945,
      "##ooled": 6946,
      "cowes": 6947,
      "protection": 6948,
      "##rah": 6949,
      "mist": 6950,
      "##hog": 6951,
      "sharmell": 6952,
      "prender": 6953,
      "mohan": 6954,
      "compsognathus": 6955,
      "boigny": 6956,
      "garter": 6957,
      "rev": 6958,
      "andal": 6959,
      "marred": 6960,
      "joya": 6961,
      "chand": 6962,
      "##roof": 6963,
      "decent": 6964,
      "##enney": 6965,
      "בי": 6966,
      "dork": 6967,
      "##sohn": 6968,
      "reservists": 6969,
      "balotelli": 6970,
      "dece": 6971,
      "hint": 6972,
      "torres": 6973,
      "##adeep": 6974,
      "forebrain": 6975,
      "supercl": 6976,
      "greig": 6977,
      "conspiring": 6978,
      "peacefully": 6979,
      "liturgy": 6980,
      "aivazovsky": 6981,
      "counterfeit": 6982,
      "rogerson": 6983,
      "netting": 6984,
      "banna": 6985,
      "garm": 6986,
      "naka": 6987,
      "refrains": 6988,
      "undercard": 6989,
      "zona": 6990,
      "classy": 6991,
      "blighted": 6992,
      "cambr": 6993,
      "unsh": 6994,
      "##lun": 6995,
      "facial": 6996,
      "normandie": 6997,
      "stuyvesant": 6998,
      "comorbid": 6999,
      "bangla": 7000,
      "yggdras": 7001,
      "halloweekends": 7002,
      "teaching": 7003,
      "##eah": 7004,
      "reus": 7005,
      "garlands": 7006,
      "hiang": 7007,
      "chevelle": 7008,
      "painters": 7009,
      "ingots": 7010,
      "stammer": 7011,
      "parma": 7012,
      "chastain": 7013,
      "outdated": 7014,
      "userkaf": 7015,
      "score": 7016,
      "formative": 7017,
      "madame": 7018,
      "bakshi": 7019,
      "ribosomal": 7020,
      "##kab": 7021,
      "ravine": 7022,
      "recurved": 7023,
      "razor": 7024,
      "inaction": 7025,
      "precautions": 7026,
      "volleyball": 7027,
      "pictorial": 7028,
      "rapid": 7029,
      "eldon": 7030,
      "saxophones": 7031,
      "made": 7032,
      "##orin": 7033,
      "##oches": 7034,
      "##ritis": 7035,
      "teaser": 7036,
      "hagi": 7037,
      "consciously": 7038,
      "nonstop": 7039,
      "##fighter": 7040,
      "##hes": 7041,
      "combating": 7042,
      "umpire": 7043,
      "herbarium": 7044,
      "cardholders": 7045,
      "rape": 7046,
      "cygni": 7047,
      "newberry": 7048,
      "gharial": 7049,
      "hano": 7050,
      "canto": 7051,
      "x0": 7052,
      "roommates": 7053,
      "courtes": 7054,
      "hangers": 7055,
      "carlsberg": 7056,
      "bst": 7057,
      "raunchy": 7058,
      "member": 7059,
      "gils": 7060,
      "##blue": 7061,
      "borderline": 7062,
      "corv": 7063,
      "##heet": 7064,
      "unsuited": 7065,
      "leth": 7066,
      "1345": 7067,
      "##bock": 7068,
      "prabhupada": 7069,
      "bastard": 7070,
      "volvo": 7071,
      "factored": 7072,
      "benches": 7073,
      "##hens": 7074,
      "##tton": 7075,
      "ancestry": 7076,
      "dryden": 7077,
      "perpetuating": 7078,
      "spurred": 7079,
      "pai": 7080,
      "insensitive": 7081,
      "sympathisers": 7082,
      "economy": 7083,
      "sailed": 7084,
      "ingredient": 7085,
      "##imba": 7086,
      "juliana": 7088,
      "##ambara": 7089,
      "varna": 7090,
      "backmasking": 7091,
      "confidentiality": 7092,
      "retrieved": 7093,
      "dand": 7094,
      "fifty": 7095,
      "birdseye": 7096,
      "keylog": 7097,
      "ways": 7098,
      "##ombie": 7099,
      "uncharted": 7100,
      "368": 7101,
      "mezz": 7102,
      "ryba": 7103,
      "fluorescence": 7104,
      "suhart": 7105,
      "capitol": 7106,
      "tracery": 7107,
      "waited": 7108,
      "utley": 7109,
      "compared": 7110,
      "n1": 7111,
      "dja": 7112,
      "trappers": 7113,
      "daybreak": 7114,
      "unionist": 7115,
      "##ydides": 7116,
      "diversionary": 7117,
      "##issenos": 7118,
      "englishman": 7119,
      "obligated": 7120,
      "porto": 7121,
      "afrikan": 7122,
      "westmoreland": 7123,
      "##mars": 7124,
      "bratianu": 7125,
      "burdell": 7126,
      "flapper": 7127,
      "isthmus": 7128,
      "##itans": 7130,
      "vacant": 7131,
      "sauv": 7132,
      "clicks": 7133,
      "##ibati": 7134,
      "valedict": 7136,
      "klezmer": 7137,
      "##issa": 7138,
      "##hees": 7139,
      "enlightening": 7140,
      "daydream": 7141,
      "meester": 7142,
      "jannetty": 7143,
      "##brian": 7144,
      "fisheries": 7145,
      "forgery": 7146,
      "##akawa": 7147,
      "scofield": 7149,
      "sta": 7150,
      "chesterfield": 7151,
      "##61": 7152,
      "zodiac": 7153,
      "estrus": 7154,
      "lemnos": 7155,
      "chari": 7156,
      "gorton": 7157,
      "1260": 7158,
      "rij": 7159,
      "thailand": 7160,
      "ecw": 7161,
      "chetro": 7162,
      "fates": 7163,
      "##museum": 7164,
      "bachmann": 7165,
      "278": 7166,
      "brownies": 7167,
      "##chat": 7168,
      "soared": 7169,
      "trna": 7170,
      "##member": 7171,
      "admiralty": 7172,
      "steinem": 7173,
      "foster": 7174,
      "dominions": 7175,
      "aetosaurs": 7176,
      "converging": 7177,
      "recounts": 7178,
      "subscribers": 7179,
      "emir": 7180,
      "##apses": 7181,
      "xm": 7182,
      "moseley": 7183,
      "metatars": 7184,
      "maitre": 7185,
      "sgd": 7186,
      "sheltering": 7187,
      "prohibitionist": 7188,
      "daniela": 7189,
      "gunt": 7190,
      "warming": 7191,
      "iris": 7192,
      "trac": 7193,
      "palatable": 7194,
      "##inosa": 7195,
      "caffo": 7196,
      "gymnastics": 7197,
      "mound": 7198,
      "##hors": 7199,
      "cloudbase": 7200,
      "180th": 7201,
      "philanthrop": 7202,
      "##as": 7203,
      "##bel": 7204,
      "benes": 7205,
      "reviewing": 7206,
      "awareness": 7207,
      "kaufman": 7208,
      "littorio": 7209,
      "bungarus": 7210,
      "riaa": 7211,
      "##icentennial": 7212,
      "amorphous": 7213,
      "daze": 7214,
      "unhappiness": 7215,
      "gowns": 7216,
      "syro": 7217,
      "phones": 7218,
      "carm": 7219,
      "wont": 7220,
      "##hete": 7221,
      "##oreg": 7222,
      "##isks": 7223,
      "synods": 7224,
      "grenad": 7225,
      "devereux": 7226,
      "retirements": 7227,
      "imd": 7228,
      "miner": 7229,
      "##ober": 7230,
      "saltbush": 7231,
      "ontar": 7232,
      "attainment": 7233,
      "##isha": 7234,
      "fall": 7235,
      "xiang": 7236,
      "ampute": 7237,
      "rothschild": 7238,
      "##schweig": 7239,
      "##gypt": 7240,
      "##penes": 7241,
      "reputedly": 7242,
      "characterisation": 7243,
      "vez": 7244,
      "pacif": 7245,
      "planetary": 7246,
      "waterston": 7247,
      "olivaceoal": 7248,
      "maranao": 7249,
      "##urstin": 7250,
      "interpersonal": 7251,
      "quid": 7252,
      "shastri": 7253,
      "ural": 7254,
      "##jang": 7255,
      "util": 7256,
      "chilly": 7257,
      "veal": 7258,
      "stich": 7259,
      "caches": 7260,
      "rok": 7261,
      "locating": 7262,
      "##escu": 7263,
      "foreclosure": 7264,
      "procuring": 7265,
      "hitoshi": 7266,
      "stagnation": 7267,
      "reliefs": 7268,
      "comedy": 7269,
      "baudelaire": 7270,
      "yip": 7271,
      "release": 7272,
      "tirthank": 7273,
      "sastri": 7274,
      "##erne": 7275,
      "pannonia": 7276,
      "strike": 7277,
      "anticyclone": 7278,
      "somewhat": 7279,
      "schuyler": 7280,
      "861": 7281,
      "starved": 7282,
      "bic": 7283,
      "blowing": 7284,
      "selznick": 7285,
      "sunder": 7286,
      "climber": 7287,
      "whitewater": 7288,
      "flats": 7289,
      "boasted": 7290,
      "pb": 7291,
      "pleasantly": 7292,
      "allege": 7293,
      "onyx": 7294,
      "yitz": 7295,
      "alumn": 7296,
      "##thus": 7297,
      "reestablish": 7298,
      "##osaurid": 7299,
      "nicholl": 7300,
      "flamenco": 7301,
      "patrikios": 7302,
      "anesthetic": 7303,
      "dace": 7304,
      "psr": 7305,
      "pit": 7306,
      "reggie": 7307,
      "io9": 7308,
      "nonfiction": 7309,
      "amphitheatre": 7310,
      "##elee": 7311,
      "gritty": 7312,
      "intently": 7313,
      "dispense": 7314,
      "antip": 7315,
      "##stones": 7316,
      "joc": 7317,
      "revocation": 7318,
      "briefed": 7319,
      "writers": 7320,
      "quirigua": 7321,
      "mesolithic": 7322,
      "communities": 7323,
      "lask": 7324,
      "mare": 7325,
      "upbr": 7326,
      "hibbs": 7327,
      "townhouse": 7328,
      "##olation": 7329,
      "macm": 7330,
      "placings": 7331,
      "seap": 7332,
      "robots": 7333,
      "lorazepam": 7334,
      "moc": 7335,
      "##wort": 7336,
      "##wode": 7337,
      "vocalist": 7338,
      "789": 7339,
      "defenses": 7340,
      "kampuchea": 7341,
      "cbe": 7342,
      "crossrail": 7343,
      "bemo": 7344,
      "tasting": 7345,
      "dolores": 7346,
      "wrecks": 7347,
      "detroit": 7348,
      "deraa": 7349,
      "stast": 7350,
      "recommend": 7351,
      "severed": 7352,
      "catapulted": 7353,
      "prong": 7354,
      "fol": 7355,
      "slashdot": 7356,
      "khanh": 7357,
      "pvt": 7358,
      "##urred": 7359,
      "biel": 7360,
      "kushner": 7361,
      "diane": 7362,
      "congregations": 7363,
      "analysis": 7364,
      "praetor": 7365,
      "##chel": 7366,
      "fairman": 7367,
      "##izing": 7368,
      "##cked": 7369,
      "ricardo": 7370,
      "cooperation": 7371,
      "folie": 7372,
      "angelic": 7373,
      "husk": 7374,
      "quakers": 7375,
      "aleutian": 7376,
      "##anaka": 7377,
      "occupiers": 7378,
      "##rna": 7379,
      "he": 7380,
      "pinfall": 7381,
      "che": 7382,
      "gatherer": 7383,
      "session": 7384,
      "pov": 7385,
      "new": 7386,
      "atletico": 7387,
      "attendant": 7388,
      "blackish": 7389,
      "stews": 7390,
      "152": 7391,
      "muskrats": 7392,
      "collaboratively": 7394,
      "##ozuna": 7395,
      "gregorian": 7396,
      "chum": 7397,
      "rascal": 7398,
      "##ristown": 7399,
      "leonor": 7400,
      "baconnaise": 7401,
      "gio": 7402,
      "kied": 7403,
      "ordination": 7404,
      "nils": 7405,
      "sprayed": 7406,
      "cobwe": 7407,
      "vanishing": 7408,
      "##ge": 7409,
      "swells": 7410,
      "tel": 7411,
      "superhero": 7412,
      "##pes": 7413,
      "downgraded": 7414,
      "confluence": 7415,
      "##aen": 7416,
      "ferrari": 7417,
      "gabler": 7418,
      "##uclide": 7419,
      "monarch": 7420,
      "lep": 7421,
      "ventura": 7422,
      "##esting": 7423,
      "tayloe": 7424,
      "henning": 7425,
      "supergroup": 7426,
      "claret": 7427,
      "magmatic": 7428,
      "nameless": 7429,
      "cockroft": 7430,
      "8147": 7431,
      "eakin": 7432,
      "donald": 7433,
      "ritt": 7434,
      "nur": 7435,
      "kef": 7436,
      "golfers": 7437,
      "bieber": 7438,
      "malloy": 7439,
      "partisans": 7440,
      "multnom": 7441,
      "hs": 7442,
      "embellished": 7443,
      "beau": 7444,
      "terminus": 7446,
      "supplies": 7447,
      "pennies": 7448,
      "##zo": 7449,
      "##encrantz": 7450,
      "##ige": 7451,
      "bootlegg": 7452,
      "guitars": 7453,
      "sut": 7454,
      "zhe": 7455,
      "halas": 7456,
      "milam": 7457,
      "unwritten": 7458,
      "liam": 7459,
      "systematically": 7460,
      "lun": 7461,
      "morgana": 7462,
      "mintz": 7463,
      "cancerous": 7464,
      "##lass": 7465,
      "capitalism": 7466,
      "ciphers": 7467,
      "recounted": 7468,
      "clogging": 7469,
      "shival": 7470,
      "mcgraw": 7471,
      "borrowing": 7472,
      "stev": 7473,
      "konami": 7474,
      "attendances": 7475,
      "emphasis": 7476,
      "dreyfus": 7477,
      "laudatory": 7478,
      "westerly": 7479,
      "sincere": 7480,
      "knuckle": 7481,
      "chaldean": 7482,
      "paes": 7483,
      "##lerk": 7484,
      "khos": 7485,
      "guadalcanal": 7486,
      "extraterrestrials": 7487,
      "##iloqu": 7488,
      "##enged": 7489,
      "ofc": 7490,
      "cortez": 7491,
      "dogma": 7492,
      "handicapped": 7493,
      "dellingr": 7494,
      "pediments": 7495,
      "kadazan": 7496,
      "clapham": 7497,
      "unprepared": 7498,
      "pompeii": 7499,
      "##obudur": 7500,
      "beardsley": 7501,
      "cpa": 7502,
      "chiles": 7503,
      "vane": 7504,
      "voalavo": 7505,
      "fleas": 7506,
      "resupplying": 7507,
      "shark": 7508,
      "daemon": 7509,
      "kuche": 7510,
      "paragon": 7511,
      "cheer": 7512,
      "harsher": 7513,
      "##kheim": 7514,
      "cheat": 7515,
      "boardroom": 7516,
      "scug": 7517,
      "socialize": 7518,
      "aap": 7519,
      "caries": 7520,
      "soundtrack": 7521,
      "clipp": 7522,
      "rennes": 7523,
      "brash": 7524,
      "##iraka": 7525,
      "utilize": 7526,
      "1730s": 7527,
      "æthelhard": 7528,
      "shol": 7529,
      "poems": 7530,
      "drom": 7531,
      "curtis": 7532,
      "loudspe": 7533,
      "hey": 7534,
      "landed": 7535,
      "orb": 7536,
      "##ourses": 7537,
      "snipers": 7538,
      "tanning": 7539,
      "falcons": 7540,
      "beloved": 7541,
      "##essed": 7542,
      "estimating": 7543,
      "schwarzschild": 7544,
      "phonemic": 7545,
      "rides": 7546,
      "robo": 7547,
      "aversion": 7548,
      "preachers": 7549,
      "eber": 7550,
      "##estr": 7552,
      "stepney": 7553,
      "##rd": 7554,
      "leads": 7555,
      "mack": 7556,
      "kristians": 7557,
      "candidates": 7558,
      "billingham": 7559,
      "prud": 7560,
      "identified": 7561,
      "observed": 7562,
      "solidly": 7563,
      "highways": 7564,
      "tumultuous": 7565,
      "##players": 7566,
      "bey": 7567,
      "accusations": 7568,
      "pressur": 7569,
      "sal": 7570,
      "thalmann": 7571,
      "presque": 7572,
      "dolor": 7573,
      "abl": 7574,
      "terminate": 7575,
      "zambezi": 7576,
      "theobald": 7577,
      "kestrel": 7578,
      "##afen": 7579,
      "cleav": 7580,
      "boudreau": 7581,
      "goaltenders": 7582,
      "outstretched": 7583,
      "##inous": 7584,
      "mafia": 7585,
      "##idium": 7586,
      "##overpa": 7587,
      "clive": 7588,
      "divergence": 7589,
      "napier": 7590,
      "particulars": 7591,
      "hole": 7592,
      "choosing": 7593,
      "##ongong": 7594,
      "menzies": 7595,
      "malignant": 7596,
      "##rint": 7597,
      "neue": 7598,
      "vonnegut": 7599,
      "##ava": 7600,
      "##strokes": 7601,
      "etymology": 7602,
      "stoltz": 7603,
      "aphor": 7604,
      "duchies": 7605,
      "purification": 7606,
      "celts": 7607,
      "sorley": 7608,
      "leans": 7609,
      "pymble": 7610,
      "dalton": 7611,
      "gersh": 7612,
      "##ifu": 7613,
      "minas": 7614,
      "reliant": 7615,
      "bloomsburg": 7616,
      "##icia": 7617,
      "incursions": 7618,
      "bayou": 7619,
      "rentals": 7620,
      "##iciently": 7621,
      "camper": 7622,
      "genial": 7623,
      "maeda": 7624,
      "celib": 7625,
      "teter": 7626,
      "##ipedia": 7627,
      "undercroft": 7628,
      "##pert": 7629,
      "diving": 7630,
      "dummy": 7631,
      "certain": 7632,
      "lockout": 7633,
      "breakfast": 7634,
      "contrav": 7635,
      "dix": 7636,
      "income": 7637,
      "notable": 7638,
      "happiness": 7639,
      "dwelt": 7640,
      "lineages": 7641,
      "##ismo": 7642,
      "aron": 7643,
      "cashed": 7644,
      "heter": 7645,
      "ohioan": 7646,
      "##irev": 7647,
      "invariably": 7648,
      "intercepted": 7649,
      "brotherly": 7650,
      "kaumodaki": 7651,
      "rivals": 7652,
      "##ulton": 7653,
      "kaine": 7654,
      "freshwater": 7655,
      "skewed": 7656,
      "##atag": 7657,
      "erroneous": 7658,
      "litchfield": 7659,
      "chongqing": 7660,
      "rehabil": 7661,
      "zionist": 7662,
      "hodgkin": 7663,
      "shandong": 7664,
      "flecks": 7665,
      "makeup": 7667,
      "answers": 7668,
      "julianne": 7669,
      "troy": 7670,
      "palace": 7671,
      "strives": 7672,
      "##cing": 7673,
      "carruth": 7674,
      "ancel": 7675,
      "gotenhafen": 7676,
      "whereof": 7677,
      "coron": 7678,
      "geniuses": 7679,
      "202": 7680,
      "compos": 7681,
      "mastercard": 7682,
      "enthusiasm": 7683,
      "183": 7684,
      "affirm": 7685,
      "##shutz": 7686,
      "##omatt": 7687,
      "bioph": 7688,
      "investing": 7689,
      "logar": 7690,
      "rainstorm": 7691,
      "##anian": 7692,
      "bloods": 7693,
      "##ratt": 7694,
      "mitica": 7695,
      "archb": 7696,
      "doused": 7697,
      "grandis": 7698,
      "snowsh": 7699,
      "teak": 7700,
      "dopamine": 7701,
      "##gulated": 7702,
      "##olta": 7703,
      "##zier": 7704,
      "lucca": 7705,
      "vladek": 7706,
      "drink": 7707,
      "##elsh": 7708,
      "##pre": 7709,
      "unavoidable": 7710,
      "ipk": 7711,
      "directness": 7712,
      "dams": 7713,
      "stigma": 7714,
      "pore": 7715,
      "smackdown": 7716,
      "cax": 7717,
      "manganese": 7718,
      "nf": 7719,
      "ebenezer": 7720,
      "dreyer": 7721,
      "1600": 7722,
      "condo": 7723,
      "quakes": 7724,
      "unfairly": 7725,
      "bryn": 7726,
      "libya": 7727,
      "landform": 7728,
      "viruses": 7729,
      "blackfeet": 7730,
      "##bi": 7731,
      "railing": 7732,
      "192ir": 7733,
      "clayton": 7734,
      "mourner": 7735,
      "cogh": 7736,
      "neuer": 7737,
      "snoring": 7738,
      "financed": 7739,
      "headmistress": 7740,
      "ipc": 7741,
      "csu": 7742,
      "intergal": 7743,
      "##hecked": 7744,
      "397": 7745,
      "kefalas": 7746,
      "missouri": 7747,
      "time": 7748,
      "hmat": 7749,
      "aleut": 7750,
      "hydrocarbons": 7751,
      "freder": 7752,
      "sucker": 7753,
      "usp": 7754,
      "lorber": 7755,
      "huts": 7756,
      "movistar": 7757,
      "##iverse": 7758,
      "validly": 7759,
      "243": 7760,
      "bloom": 7761,
      "##atello": 7762,
      "romany": 7763,
      "particular": 7764,
      "7000": 7765,
      "sportswriter": 7766,
      "simca": 7767,
      "flirted": 7768,
      "mundi": 7769,
      "424": 7770,
      "improvement": 7771,
      "shuttles": 7772,
      "##ashed": 7773,
      "matinee": 7774,
      "points": 7775,
      "##player": 7776,
      "##forward": 7777,
      "boc": 7778,
      "205th": 7779,
      "##atus": 7780,
      "ascle": 7781,
      "##hedra": 7782,
      "wore": 7783,
      "dunhill": 7784,
      "cabr": 7785,
      "mirza": 7786,
      "nurbaya": 7787,
      "thum": 7788,
      "rubs": 7789,
      "##omenes": 7790,
      "johnnie": 7791,
      "##izos": 7792,
      "harps": 7793,
      "builds": 7794,
      "lcs": 7795,
      "armory": 7796,
      "online": 7797,
      "parsing": 7798,
      "nait": 7799,
      "bongiov": 7800,
      "dionysius": 7801,
      "pollinator": 7802,
      "##erton": 7803,
      "stratoc": 7804,
      "yert": 7805,
      "sf": 7806,
      "compassionate": 7807,
      "##roidism": 7808,
      "urgent": 7809,
      "someone": 7810,
      "maroney": 7811,
      "redefined": 7812,
      "ligature": 7813,
      "2002": 7814,
      "khmer": 7815,
      "chetwode": 7816,
      "cowd": 7817,
      "scratches": 7818,
      "streptococcal": 7819,
      "valery": 7820,
      "etat": 7821,
      "bondi": 7822,
      "radioactivity": 7823,
      "slogan": 7825,
      "wreck": 7826,
      "##ampa": 7827,
      "insubordination": 7828,
      "coachman": 7829,
      "wholeheartedly": 7830,
      "load": 7831,
      "alleges": 7832,
      "loc": 7833,
      "loot": 7835,
      "chel": 7836,
      "seemingly": 7837,
      "oesau": 7838,
      "humidity": 7839,
      "omarska": 7840,
      "grimaldi": 7841,
      "taxa": 7842,
      "milian": 7843,
      "instagram": 7844,
      "canker": 7845,
      "gan": 7846,
      "##occ": 7847,
      "piper": 7848,
      "macmillan": 7849,
      "treachery": 7850,
      "omg": 7851,
      "gaby": 7852,
      "kristiania": 7853,
      "ayu": 7854,
      "kpt": 7855,
      "decrepit": 7856,
      "jenna": 7857,
      "scardino": 7859,
      "rotherham": 7860,
      "rescinded": 7861,
      "##icable": 7862,
      "vc": 7863,
      "cruises": 7864,
      "deus": 7865,
      "wart": 7866,
      "negro": 7867,
      "macedonia": 7868,
      "ventil": 7869,
      "incubate": 7870,
      "generality": 7871,
      "orangeville": 7872,
      "bloomsbury": 7873,
      "aspinall": 7874,
      "shapeshifter": 7875,
      "robby": 7876,
      "statton": 7877,
      "inaccuracy": 7878,
      "teleportation": 7879,
      "serena": 7880,
      "portia": 7881,
      "##uration": 7882,
      "styria": 7883,
      "409": 7884,
      "impressive": 7885,
      "tunstall": 7886,
      "##edor": 7887,
      "pallbearers": 7888,
      "1418": 7889,
      "corsair": 7890,
      "gradients": 7891,
      "bilateral": 7892,
      "bernd": 7893,
      "mayoral": 7894,
      "aficion": 7895,
      "##lus": 7896,
      "yokohama": 7897,
      "harriman": 7898,
      "cramp": 7899,
      "baba": 7900,
      "emf": 7901,
      "vivisection": 7902,
      "stalks": 7903,
      "subrout": 7904,
      "sigurður": 7905,
      "peta": 7906,
      "rangeland": 7907,
      "æthe": 7908,
      "melodic": 7909,
      "wass": 7910,
      "cornish": 7911,
      "feel": 7912,
      "dystrophy": 7913,
      "cage": 7914,
      "seitz": 7915,
      "filtered": 7916,
      "##oxi": 7917,
      "impersonation": 7918,
      "beld": 7919,
      "durer": 7920,
      "shipping": 7921,
      "##ysc": 7922,
      "ghastly": 7923,
      "insurmountable": 7924,
      "##gesterone": 7925,
      "brahmin": 7927,
      "whits": 7928,
      "culminated": 7929,
      "drugs": 7930,
      "##gene": 7931,
      "##itage": 7932,
      "##aphrod": 7933,
      "phenotypes": 7934,
      "repressed": 7935,
      "fucking": 7936,
      "##yadi": 7937,
      "anybody": 7938,
      "constraints": 7939,
      "manitoba": 7940,
      "scheyer": 7941,
      "regurgitation": 7942,
      "critiqued": 7943,
      "suffren": 7944,
      "matheson": 7945,
      "tpa": 7946,
      "##acity": 7947,
      "zoll": 7948,
      "nome": 7949,
      "feuding": 7950,
      "##oriasis": 7951,
      "merrick": 7952,
      "distingu": 7953,
      "borchardt": 7954,
      "fruct": 7955,
      "monsoon": 7956,
      "albat": 7957,
      "marm": 7958,
      "004": 7959,
      "meringgih": 7960,
      "##ondition": 7961,
      "##okie": 7962,
      "##igating": 7963,
      "genetics": 7964,
      "##zys": 7965,
      "traverse": 7966,
      "bresciano": 7967,
      "apparent": 7968,
      "##aba": 7969,
      "grams": 7971,
      "viewers": 7972,
      "scholarly": 7973,
      "mihailovic": 7974,
      "galle": 7975,
      "mens": 7976,
      "##stag": 7977,
      "homestead": 7978,
      "urns": 7979,
      "308": 7980,
      "haller": 7981,
      "humility": 7982,
      "hypothy": 7983,
      "marten": 7984,
      "##ary": 7985,
      "humanism": 7986,
      "majorca": 7987,
      "d1": 7988,
      "scania": 7989,
      "travails": 7990,
      "##osa": 7991,
      "cpus": 7992,
      "omission": 7993,
      "teams": 7994,
      "serg": 7995,
      "##isel": 7996,
      "balls": 7997,
      "peebles": 7998,
      "indecision": 8000,
      "##cat": 8001,
      "##aneering": 8002,
      "freaked": 8003,
      "albrecht": 8004,
      "slicing": 8005,
      "parodying": 8006,
      "##igated": 8007,
      "ria": 8008,
      "slavic": 8009,
      "apollo": 8010,
      "gain": 8011,
      "pianists": 8012,
      "bespoke": 8013,
      "tokens": 8014,
      "##ceptions": 8015,
      "soundscan": 8016,
      "liv": 8017,
      "leftovers": 8018,
      "##alez": 8019,
      "inverted": 8020,
      "meccans": 8021,
      "palawan": 8022,
      "n2": 8023,
      "oxidation": 8024,
      "distinctively": 8025,
      "multiplexes": 8026,
      "##fix": 8027,
      "##ilev": 8028,
      "inbetween": 8029,
      "seki": 8030,
      "wailers": 8031,
      "1942": 8032,
      "gestalt": 8033,
      "48th": 8034,
      "institutes": 8035,
      "flightless": 8036,
      "sovere": 8037,
      "boron": 8038,
      "##atas": 8039,
      "##ientific": 8040,
      "arched": 8041,
      "e6": 8042,
      "llwyd": 8043,
      "brag": 8044,
      "terr": 8045,
      "ubisoft": 8046,
      "balabhadra": 8047,
      "pinner": 8048,
      "reag": 8049,
      "triumphantly": 8050,
      "clear": 8051,
      "##illies": 8052,
      "gaul": 8053,
      "##anked": 8054,
      "deadpool": 8055,
      "##anter": 8056,
      "paganism": 8057,
      "mailer": 8058,
      "brink": 8059,
      "grids": 8060,
      "metalwork": 8061,
      "breccia": 8062,
      "hammered": 8063,
      "ne": 8064,
      "bailar": 8065,
      "piloted": 8066,
      "unapolog": 8067,
      "reuleaux": 8068,
      "ontkean": 8069,
      "gloucestershire": 8070,
      "##onvuls": 8071,
      "##lists": 8072,
      "dreadn": 8073,
      "##lautern": 8074,
      "exclusively": 8075,
      "pizarro": 8076,
      "league": 8077,
      "hadrons": 8078,
      "##iery": 8079,
      "##gesis": 8080,
      "ojib": 8081,
      "promo": 8082,
      "bulkeley": 8083,
      "immense": 8084,
      "messe": 8085,
      "funky": 8086,
      "nigr": 8087,
      "1076": 8088,
      "arna": 8089,
      "1901": 8090,
      "beeke": 8091,
      "scotrail": 8092,
      "pacify": 8093,
      "varag": 8094,
      "wilcz": 8095,
      "chig": 8096,
      "amplification": 8097,
      "##raad": 8098,
      "periodontal": 8099,
      "scaling": 8100,
      "kershaw": 8101,
      "faults": 8102,
      "symph": 8103,
      "##line": 8104,
      "##ounded": 8105,
      "##cham": 8106,
      "oysters": 8107,
      "yost": 8108,
      "voivodes": 8109,
      "trades": 8110,
      "quantified": 8111,
      "chorus": 8112,
      "##aryn": 8113,
      "hamster": 8114,
      "environmentalists": 8115,
      "##etorget": 8116,
      "goring": 8117,
      "franch": 8118,
      "preview": 8119,
      "rusher": 8120,
      "mcal": 8121,
      "thematically": 8122,
      "gizz": 8123,
      "aneurysm": 8124,
      "gresham": 8125,
      "reissuing": 8126,
      "margin": 8127,
      "fenced": 8128,
      "anticoagulants": 8129,
      "enam": 8130,
      "naylor": 8131,
      "tiger": 8132,
      "pun": 8133,
      "thunderstorms": 8134,
      "haitians": 8135,
      "dynamics": 8136,
      "stoll": 8137,
      "##hor": 8138,
      "woody": 8139,
      "aurion": 8140,
      "encompassing": 8141,
      "##oves": 8142,
      "thunders": 8143,
      "instigator": 8144,
      "estianty": 8145,
      "1733": 8146,
      "##engel": 8147,
      "schizophrenia": 8148,
      "antonov": 8149,
      "minton": 8150,
      "##rook": 8151,
      "inappropriate": 8152,
      "objectors": 8153,
      "norma": 8154,
      "fss": 8155,
      "swag": 8156,
      "reproduce": 8157,
      "rosenfeld": 8158,
      "1326": 8159,
      "1677": 8160,
      "sulphur": 8161,
      "grunge": 8162,
      "simran": 8163,
      "fatter": 8164,
      "##hyhir": 8165,
      "salic": 8166,
      "##ersed": 8167,
      "retrovirus": 8168,
      "reverts": 8169,
      "fortified": 8170,
      "grew": 8171,
      "##cock": 8172,
      "bertin": 8173,
      "undist": 8174,
      "malo": 8175,
      "prisms": 8176,
      "mamm": 8177,
      "##sai": 8178,
      "amenity": 8179,
      "molec": 8180,
      "dementia": 8181,
      "##rowth": 8182,
      "bacher": 8183,
      "vasa": 8184,
      "apparently": 8185,
      "##psis": 8186,
      "debased": 8187,
      "prohibited": 8188,
      "theologians": 8189,
      "pity": 8190,
      "mpaa": 8191,
      "taranto": 8192,
      "kellner": 8193,
      "lead": 8194,
      "sof": 8195,
      "##ce": 8196,
      "ka": 8197,
      "nightingale": 8198,
      "seminars": 8199,
      "##sony": 8200,
      "##ued": 8201,
      "##enser": 8202,
      "cinemascore": 8203,
      "thrones": 8204,
      "##jets": 8205,
      "protocols": 8206,
      "##idis": 8207,
      "replication": 8208,
      "brid": 8209,
      "##ان": 8210,
      "kyn": 8211,
      "projectionist": 8212,
      "ejac": 8213,
      "overlooking": 8215,
      "node": 8216,
      "##oufl": 8217,
      "molluscs": 8218,
      "mal": 8219,
      "engaged": 8220,
      "sibuyan": 8221,
      "##mare": 8222,
      "difficulties": 8223,
      "redevelopment": 8224,
      "gruppen": 8225,
      "serviceman": 8226,
      "##agic": 8227,
      "witwer": 8228,
      "##guan": 8229,
      "benedetto": 8230,
      "spotlighted": 8231,
      "schweitzer": 8232,
      "disl": 8233,
      "espir": 8234,
      "sett": 8235,
      "foxes": 8236,
      "subdivision": 8237,
      "aoa": 8238,
      "##aline": 8239,
      "blame": 8240,
      "commer": 8241,
      "##angir": 8242,
      "##cats": 8243,
      "generalist": 8244,
      "clarinet": 8245,
      "1680s": 8246,
      "modernised": 8247,
      "rashad": 8248,
      "salvatore": 8249,
      "##henyl": 8250,
      "morchell": 8251,
      "loyalists": 8252,
      "imposing": 8253,
      "misused": 8254,
      "##life": 8255,
      "sake": 8256,
      "preying": 8258,
      "ranaut": 8259,
      "aedan": 8260,
      "##xton": 8261,
      "bacterial": 8262,
      "##neur": 8263,
      "almonds": 8264,
      "amateurism": 8265,
      "greenlight": 8266,
      "##place": 8267,
      "audiences": 8268,
      "simulations": 8269,
      "angrily": 8270,
      "lus": 8271,
      "cup": 8272,
      "telegrap": 8273,
      "salinity": 8274,
      "tick": 8275,
      "##shire": 8276,
      "fictionalised": 8277,
      "featherweight": 8278,
      "charges": 8279,
      "flanks": 8280,
      "adamson": 8281,
      "forewing": 8282,
      "threshold": 8283,
      "coconuts": 8284,
      "evangel": 8285,
      "sclerotia": 8286,
      "urbanization": 8287,
      "886": 8288,
      "1938": 8289,
      "classes": 8290,
      "mood": 8291,
      "skis": 8292,
      "coinage": 8293,
      "albino": 8294,
      "##mart": 8295,
      "houp": 8296,
      "weald": 8297,
      "bulldogs": 8298,
      "rockfowl": 8299,
      "postseason": 8300,
      "ayub": 8301,
      "salar": 8302,
      "burmese": 8303,
      "steamship": 8304,
      "accommodates": 8305,
      "##heli": 8306,
      "array": 8307,
      "camel": 8308,
      "unchallenged": 8309,
      "wing": 8310,
      "greek": 8311,
      "destouches": 8312,
      "folkman": 8313,
      "edie": 8314,
      "independents": 8315,
      "hidjo": 8316,
      "roi": 8317,
      "dashes": 8318,
      "messiaen": 8319,
      "trigonal": 8320,
      "amann": 8321,
      "angular": 8322,
      "unexp": 8323,
      "cosby": 8324,
      "berlin": 8325,
      "167": 8326,
      "pig": 8327,
      "extrem": 8328,
      "kahui": 8329,
      "sha": 8330,
      "les": 8331,
      "negus": 8332,
      "buttons": 8333,
      "พระท": 8334,
      "arcadia": 8335,
      "disengaged": 8336,
      "viva": 8337,
      "rainfall": 8338,
      "1072": 8339,
      "parasaurolophus": 8340,
      "surpasses": 8341,
      "##legiate": 8342,
      "herge": 8343,
      "##roads": 8344,
      "provider": 8345,
      "kiy": 8346,
      "##elon": 8347,
      "##owan": 8348,
      "pistachios": 8349,
      "generalfeldmarschall": 8351,
      "##astri": 8352,
      "virtuous": 8353,
      "##ining": 8354,
      "##moor": 8355,
      "neatly": 8356,
      "enlighten": 8357,
      "##ball": 8358,
      "vacate": 8359,
      "##ractive": 8360,
      "blanket": 8361,
      "##noff": 8362,
      "hospitalizing": 8363,
      "embroiled": 8364,
      "jalisco": 8365,
      "plumbe": 8366,
      "orphan": 8367,
      "liu": 8368,
      "##untala": 8369,
      "misfortun": 8370,
      "penrith": 8371,
      "skinned": 8372,
      "##gear": 8373,
      "peter": 8374,
      "snowmob": 8375,
      "##letoads": 8376,
      "1823": 8377,
      "hora": 8378,
      "livre": 8379,
      "euch": 8380,
      "morton": 8381,
      "inton": 8382,
      "pioneering": 8383,
      "sylvain": 8384,
      "underwhelming": 8385,
      "hegem": 8386,
      "nucleos": 8387,
      "sizz": 8388,
      "paludosa": 8389,
      "trouble": 8390,
      "bartlett": 8391,
      "micro": 8392,
      "strawberry": 8393,
      "##oup": 8394,
      "panetta": 8395,
      "cruelly": 8396,
      "merhi": 8397,
      "heinous": 8398,
      "ecclesia": 8399,
      "etty": 8400,
      "kew": 8401,
      "lowering": 8402,
      "inventions": 8403,
      "coldstream": 8404,
      "ainsworth": 8405,
      "alves": 8406,
      "paraffin": 8407,
      "##ographs": 8408,
      "impoverished": 8409,
      "dine": 8410,
      "lansdown": 8411,
      "pikes": 8412,
      "haley": 8413,
      "##ius": 8414,
      "exponential": 8415,
      "sobr": 8416,
      "colombo": 8417,
      "holt": 8418,
      "mechanized": 8419,
      "mutilated": 8420,
      "location": 8421,
      "##grams": 8422,
      "puscifer": 8424,
      "##hlen": 8426,
      "ez": 8427,
      "koufax": 8428,
      "bamb": 8430,
      "jagannatha": 8431,
      "implying": 8432,
      "agitation": 8433,
      "replete": 8434,
      "smithson": 8435,
      "##ray": 8436,
      "##ellorship": 8437,
      "worthy": 8438,
      "bulg": 8439,
      "overview": 8440,
      "specialize": 8441,
      "parasites": 8442,
      "beveridge": 8443,
      "arvn": 8444,
      "homin": 8445,
      "doi": 8446,
      "atwood": 8447,
      "circulatory": 8448,
      "leviathan": 8449,
      "powdered": 8450,
      "ukraine": 8451,
      "nta": 8452,
      "mt": 8453,
      "miniatur": 8454,
      "aforesaid": 8455,
      "smir": 8456,
      "violated": 8457,
      "aesthetic": 8458,
      "diageo": 8459,
      "review": 8460,
      "garh": 8461,
      "##aunts": 8462,
      "##wch": 8463,
      "transmissions": 8464,
      "utc": 8465,
      "943": 8466,
      "##ij": 8467,
      "itchy": 8468,
      "mcmahon": 8469,
      "1079": 8470,
      "burchard": 8471,
      "evolves": 8472,
      "ludw": 8474,
      "urination": 8475,
      "oshima": 8476,
      "intents": 8477,
      "clearance": 8478,
      "punched": 8479,
      "drowning": 8480,
      "antagon": 8481,
      "##jacket": 8482,
      "##inthe": 8483,
      "nerve": 8484,
      "##ordan": 8485,
      "bhd": 8486,
      "eventually": 8487,
      "##legia": 8488,
      "alarm": 8489,
      "nairo": 8490,
      "circumstances": 8491,
      "##apse": 8492,
      "opponent": 8493,
      "naturalism": 8494,
      "dupree": 8495,
      "##amento": 8496,
      "kosygin": 8497,
      "crewed": 8498,
      "repentance": 8499,
      "heyman": 8500,
      "balfour": 8501,
      "reoccupied": 8502,
      "fugitives": 8503,
      "centred": 8504,
      "lankan": 8505,
      "##ify": 8506,
      "clarkdale": 8507,
      "stampeders": 8508,
      "##eken": 8509,
      "##imat": 8510,
      "skies": 8511,
      "calamities": 8512,
      "rejecting": 8513,
      "ls3": 8514,
      "rach": 8515,
      "overheating": 8516,
      "##ayette": 8517,
      "christopher": 8518,
      "hatters": 8519,
      "mersea": 8520,
      "bizkit": 8521,
      "inclin": 8522,
      "diomed": 8523,
      "celotta": 8524,
      "lagos": 8525,
      "andre": 8526,
      "cusps": 8527,
      "jaime": 8528,
      "stephens": 8529,
      "##ublin": 8530,
      "fors": 8531,
      "enderlin": 8532,
      "http": 8533,
      "##tha": 8534,
      "cervix": 8535,
      "scratchy": 8536,
      "browne": 8537,
      "irradiating": 8538,
      "hess": 8539,
      "seventeen": 8540,
      "nested": 8541,
      "##kenberg": 8542,
      "contract": 8543,
      "anchor": 8544,
      "massachu": 8545,
      "fridays": 8546,
      "steaks": 8547,
      "donuts": 8548,
      "##artan": 8549,
      "##ysicist": 8550,
      "theoderic": 8551,
      "donne": 8552,
      "gardeners": 8553,
      "knauf": 8554,
      "odot": 8555,
      "##eliest": 8556,
      "##omir": 8557,
      "##inius": 8558,
      "##isive": 8559,
      "birthplace": 8560,
      "solder": 8561,
      "falconry": 8562,
      "latifah": 8563,
      "##icon": 8564,
      "gordian": 8565,
      "principles": 8566,
      "witchfinder": 8567,
      "wrought": 8568,
      "stephenson": 8569,
      "unfavourable": 8570,
      "95th": 8571,
      "##ileries": 8572,
      "decentral": 8573,
      "11b": 8574,
      "sattelberg": 8575,
      "downbeat": 8576,
      "inartic": 8577,
      "##wiec": 8578,
      "serfs": 8579,
      "hairline": 8580,
      "tulsidas": 8581,
      "attracts": 8582,
      "extracting": 8583,
      "grimsby": 8584,
      "##osal": 8585,
      "telegrams": 8586,
      "incited": 8587,
      "emulation": 8588,
      "ham": 8589,
      "arn": 8590,
      "hailstorm": 8591,
      "##bow": 8592,
      "pyr": 8593,
      "good": 8594,
      "koskov": 8595,
      "stacey": 8596,
      "ferrier": 8597,
      "fungus": 8598,
      "##osauridae": 8599,
      "patt": 8600,
      "bucky": 8601,
      "dornier": 8602,
      "ppc": 8603,
      "bargaining": 8604,
      "endeared": 8605,
      "severity": 8606,
      "censor": 8607,
      "tallah": 8608,
      "##isław": 8609,
      "forestry": 8610,
      "impulsive": 8611,
      "##qua": 8612,
      "negated": 8613,
      "lonesome": 8614,
      "detonated": 8615,
      "orally": 8616,
      "twelf": 8617,
      "seniority": 8618,
      "##umbr": 8619,
      "stylistic": 8620,
      "utensils": 8621,
      "kaivalya": 8622,
      "deporting": 8623,
      "downwards": 8624,
      "##icom": 8625,
      "biomed": 8626,
      "calgary": 8627,
      "kefal": 8628,
      "rhinehart": 8629,
      "emergencies": 8630,
      "slipping": 8631,
      "jonas": 8632,
      "cybert": 8633,
      "palladio": 8634,
      "looping": 8635,
      "coeducational": 8636,
      "kuurne": 8637,
      "svalsat": 8638,
      "sop": 8639,
      "##niac": 8640,
      "haughton": 8641,
      "provisional": 8642,
      "ideologically": 8643,
      "rajasthan": 8644,
      "respectable": 8645,
      "servers": 8646,
      "wheatley": 8647,
      "rejo": 8648,
      "spoon": 8649,
      "molded": 8650,
      "receiver": 8651,
      "stronsay": 8652,
      "cheetahs": 8653,
      "gase": 8654,
      "golub": 8655,
      "sevres": 8656,
      "integr": 8657,
      "aspasia": 8658,
      "nominate": 8659,
      "aqueous": 8660,
      "##ritus": 8661,
      "republika": 8662,
      "rainn": 8663,
      "pohang": 8664,
      "sant": 8665,
      "guinean": 8666,
      "gault": 8667,
      "##zinger": 8668,
      "vals": 8669,
      "venerated": 8670,
      "buchan": 8671,
      "##banks": 8672,
      "iroquoian": 8673,
      "gestational": 8674,
      "realtime": 8675,
      "lacerations": 8676,
      "bulldozer": 8677,
      "bolshevism": 8678,
      "bolting": 8679,
      "murata": 8680,
      "##elius": 8681,
      "strengthen": 8682,
      "obliterative": 8683,
      "cellar": 8684,
      "stalemate": 8685,
      "ambulatory": 8686,
      "nuncio": 8687,
      "capel": 8688,
      "engra": 8689,
      "bremerton": 8690,
      "meritorious": 8691,
      "recus": 8692,
      "engines": 8693,
      "improvisational": 8694,
      "##zko": 8695,
      "rosberg": 8696,
      "pet": 8697,
      "nicaea": 8698,
      "cannabis": 8699,
      "tyrant": 8700,
      "reptile": 8701,
      "groomed": 8702,
      "gp": 8703,
      "escorting": 8704,
      "##islaus": 8705,
      "##im": 8706,
      "northampton": 8707,
      "fondly": 8708,
      "iber": 8709,
      "urquiza": 8710,
      "rectify": 8711,
      "shire": 8712,
      "hallucinating": 8713,
      "vulner": 8714,
      "noseble": 8715,
      "sympathizer": 8716,
      "weight": 8717,
      "##erole": 8718,
      "lakin": 8719,
      "skyra": 8720,
      "cafe": 8721,
      "##layer": 8722,
      "##asaurus": 8723,
      "khal": 8724,
      "vird": 8725,
      "contracting": 8726,
      "62nd": 8727,
      "scoring": 8728,
      "##bin": 8729,
      "##aha": 8730,
      "asak": 8731,
      "mise": 8732,
      "bales": 8733,
      "roguelikes": 8734,
      "mennonites": 8735,
      "mozambique": 8736,
      "pickled": 8737,
      "supermarket": 8738,
      "bgsu": 8739,
      "vampir": 8740,
      "accede": 8741,
      "jonathan": 8742,
      "lieut": 8743,
      "##ibus": 8744,
      "weighs": 8745,
      "weaned": 8746,
      "pinkham": 8747,
      "siddeley": 8748,
      "##yi": 8749,
      "carnage": 8750,
      "##zer": 8751,
      "cardinals": 8752,
      "leafy": 8753,
      "haf": 8754,
      "souven": 8755,
      "disruption": 8756,
      "normalize": 8757,
      "compilation": 8758,
      "resorts": 8759,
      "xerxes": 8760,
      "##idam": 8761,
      "penet": 8762,
      "pliocene": 8763,
      "hoodoo": 8764,
      "carom": 8765,
      "gibson": 8766,
      "drizz": 8767,
      "##urring": 8768,
      "tracer": 8769,
      "1499": 8770,
      "mans": 8771,
      "edler": 8772,
      "secular": 8773,
      "inhabit": 8774,
      "root": 8775,
      "ayyubids": 8776,
      "brooded": 8777,
      "chromium": 8778,
      "richman": 8779,
      "panchayats": 8780,
      "spawning": 8781,
      "##ysis": 8782,
      "kq": 8783,
      "pneum": 8784,
      "##wyth": 8785,
      "fashions": 8786,
      "housework": 8787,
      "unders": 8788,
      "eve": 8789,
      "hippocampal": 8790,
      "##raelon": 8791,
      "donnell": 8792,
      "nots": 8793,
      "goose": 8794,
      "wetter": 8796,
      "##arral": 8797,
      "basically": 8798,
      "dedekind": 8799,
      "##mills": 8800,
      "egm": 8801,
      "kapil": 8802,
      "biases": 8803,
      "weisberger": 8804,
      "climatic": 8805,
      "1859": 8806,
      "scam": 8807,
      "sign": 8808,
      "rpgamer": 8809,
      "saadiq": 8810,
      "##owskis": 8811,
      "braden": 8812,
      "clog": 8813,
      "##heos": 8814,
      "##roquin": 8815,
      "##insky": 8816,
      "allocations": 8817,
      "schlaf": 8818,
      "paragraph": 8819,
      "lincolnshire": 8820,
      "##ivalled": 8821,
      "##urgeon": 8822,
      "bernoulli": 8823,
      "exuded": 8824,
      "##isenberg": 8825,
      "szent": 8826,
      "brokerage": 8827,
      "kurt": 8828,
      "quicksilver": 8829,
      "stockbroker": 8830,
      "daddies": 8831,
      "muted": 8832,
      "426": 8833,
      "shoplifting": 8834,
      "majeure": 8835,
      "4k": 8836,
      "christ": 8837,
      "diadem": 8838,
      "fema": 8839,
      "ruben": 8840,
      "##pen": 8841,
      "##kit": 8842,
      "##ercy": 8843,
      "raaf": 8844,
      "##ozooids": 8845,
      "coxon": 8846,
      "windfall": 8847,
      "medium": 8848,
      "bodys": 8849,
      "mastered": 8850,
      "sophocles": 8851,
      "ronaldo": 8852,
      "##xett": 8853,
      "##iner": 8854,
      "penobscot": 8855,
      "bistro": 8856,
      "##girl": 8857,
      "acquies": 8858,
      "##assic": 8859,
      "poked": 8860,
      "deacons": 8861,
      "159": 8862,
      "hammering": 8863,
      "fashionable": 8864,
      "fu": 8865,
      "penit": 8866,
      "teenaged": 8867,
      "##range": 8868,
      "rm": 8869,
      "superbad": 8870,
      "east": 8871,
      "harpers": 8872,
      "rur": 8873,
      "rosec": 8874,
      "##otomy": 8875,
      "heal": 8876,
      "widened": 8877,
      "monchen": 8878,
      "declination": 8879,
      "sahel": 8880,
      "archipel": 8881,
      "risks": 8882,
      "equally": 8883,
      "##ostami": 8884,
      "merry": 8885,
      "##ihan": 8886,
      "##ongru": 8887,
      "athar": 8888,
      "equivalents": 8889,
      "preseason": 8890,
      "yeov": 8891,
      "##merung": 8892,
      "allied": 8893,
      "sanosuke": 8894,
      "varnishes": 8895,
      "resignations": 8896,
      "montagu": 8897,
      "pennock": 8898,
      "hikers": 8899,
      "elara": 8900,
      "##oqu": 8901,
      "kont": 8902,
      "##ursed": 8903,
      "discernible": 8904,
[...]
